/**
  ******************************************************************************
  * @file    speech_network_data_params.c
  * @author  AST Embedded Analytics Research Platform
  * @date    2024-12-29T13:04:26+0100
  * @brief   AI Tool Automatic Code Generator for Embedded NN computing
  ******************************************************************************
  * Copyright (c) 2024 STMicroelectronics.
  * All rights reserved.
  *
  * This software is licensed under terms that can be found in the LICENSE file
  * in the root directory of this software component.
  * If no LICENSE file comes with this software, it is provided AS-IS.
  ******************************************************************************
  */

#include "speech_network_data_params.h"


/**  Activations Section  ****************************************************/
ai_handle g_speech_network_activations_table[1 + 2] = {
  AI_HANDLE_PTR(AI_MAGIC_MARKER),
  AI_HANDLE_PTR(NULL),
  AI_HANDLE_PTR(AI_MAGIC_MARKER),
};




/**  Weights Section  ********************************************************/
AI_ALIGNED(32)
const ai_u64 s_speech_network_weights_array_u64[34124] = {
  0xe8641eed3e77c981U, 0xa43682b7fe81fca1U, 0xc48681e62a96319dU, 0x1c846fb5c89c366aU,
  0x3c07091c81bce6d6U, 0x41615681ad15a116U, 0x7f49948ca0819cefU, 0xa3d6fc8151e8fadfU,
  0x3bc5811ca6ee6522U, 0x81ef2fc7de78e872U, 0xafe3d8814b55628cU, 0x81d25b1135363cbbU,
  0x404c2f7fb03db222U, 0x8114bc2809fe11c7U, 0x381b7fdaf576631dU, 0x8149e5c620d38cd8U,
  0xe0043062360440c6U, 0x81f82cc5b7d9b5cbU, 0x787f87d9b7d7bd8bU, 0x40114ed0e0e87fdcU,
  0x7094ff5bb3e601d8U, 0x76004978817fe8c8U, 0x1cdde82ee8e40c59U, 0xaf1b49b8141f7f77U,
  0x81ceac2ea2bc81aaU, 0x652a198d23a6cf4cU, 0x96e84f81d41685faU, 0x3c2f72cf81ea5093U,
  0x9faa35e7e081fd23U, 0x3fa7c40281add006U, 0xdf033664092007e4U, 0x40167ff23d00810eU,
  0xb315a3024d1e3508U, 0x63fc959618153efU, 0x71a427db727f2d60U, 0xb8fe3d81f457bf5dU,
  0xef12c206dee981a0U, 0xd20459f76906e32fU, 0x16022a8194c35e7fU, 0x617fdaf711205540U,
  0xefdc24d06b164a18U, 0xf0ec07bde7f55a4U, 0xda60ac816efa8620U, 0xfca8b336a28197e1U,
  0x5d3d878dba9381d7U, 0x6d515d18cd9fec7fU, 0xc297bb00b77c5d5U, 0xed3626c53d4d7f47U,
  0x1f944d81b385d281U, 0x35b2a560d162e28U, 0xe75b96ee95193481U, 0x6bd05c7fcf39d4caU,
  0x30fdedefe843eb7fU, 0xf92452463081c063U, 0x4f0bcb1220811903U, 0x86513081d7d6183eU,
  0x173a4e202c81abb2U, 0x36172681f43e4114U, 0x3ed9e07f556c0d06U, 0xdb3019a71f69a08dU,
  0x8fe19b81d487bf23U, 0x81b8afd43081cf48U, 0x2b6521091fb81cb9U, 0xde0a7fd1bd69353dU,
  0xde7f445bd775f75aU, 0xb81398f918bf97bU, 0x4efe30ce811f49c6U, 0xdbf481a00ca03d65U,
  0x560bf4ad14a1c9ccU, 0xd4548b049d8b1b81U, 0x2f4355f1f081fcd8U, 0xb1fe40818d2cd98eU,
  0x7e1b437f3ec131baU, 0xd26c7ceab37ff5f3U, 0xb328d41b5e422970U, 0xb7007f6db4810f72U,
  0x70bee5db604be61dU, 0x960c81ec7f5dbab1U, 0xfc7314285c792eb0U, 0x4f03fe81aaa9cec9U,
  0x2ad209f951db9e81U, 0xcbc33d63f1814064U, 0xb21ecb3df2718134U, 0x4a368138bcd7d3b7U,
  0xbfa15266816b99bdU, 0x2f283f81c7484051U, 0x7feb83c55c550ae1U, 0xc50834c5e503dd23U,
  0x2d023eeffc1f2c81U, 0x7f5aa712c821289cU, 0xf4074f7f0af21739U, 0xb299294e81c1bf01U,
  0x818c176a3f1b0a26U, 0x35f73fecffc8a900U, 0x52a6ad44f558c7fU, 0x5428abfd3a8b7ffdU,
  0xd7f5810ed4f05162U, 0x6d907d087f4377f3U, 0xd5892308d1df027fU, 0xe3c21fcc7bfc127fU,
  0xa38d1d4c581b398U, 0x5cccfa7b720a2e0cU, 0xf20b7f4db3110781U, 0x2354a82bc0f1f022U,
  0xe6a281763ab62a7fU, 0x2b133051f1313213U, 0x46a5df338a81d0dfU, 0x166be76c7ffd48ecU,
  0xa8f21781a7501b25U, 0x47cb838184d5c2abU, 0x4c7f57021de346b5U, 0x5d7fd8044de5b0a7U,
  0x529481ad78e4330aU, 0x97b7c6ccd94bd52eU, 0xd9da9cdadea88122U, 0x9b8185ed06675ad9U,
  0x74b8cb5cb18cb381U, 0xaa53b81f16b44913U, 0x81bb03ff14de8a81U, 0x95bd1d2f672ee193U,
  0x754b7fde83ca8110U, 0xf4355d5081457ebcU, 0xab6a12acd881fd07U, 0x293cd7428a7c607fU,
  0x15f81c44676a378U, 0x754b9c558b7fd38bU, 0xe014acfe20b0376aU, 0x7d87f604e469f81U,
  0x7f60b37e322b990cU, 0x7fee1559faa9a324U, 0x33b4556d10011751U, 0x76bd46d47f02257dU,
  0x5cf92e79d2f71181U, 0xe97f24c3ec4ef78cU, 0x38ceb848141b7fe8U, 0xaf63e5d6358bc090U,
  0x2774dfbb45811d81U, 0x251725581e5af3fcU, 0x282cfe6cef81a9d5U, 0x1d402cf1d8218143U,
  0x4a3f81d55cef7f29U, 0x7fef01136c055a2eU, 0x70d5e5f0c06474a1U, 0xda7fc83b1032630aU,
  0xac00000026U, 0x6100000072U, 0x750000004cU, 0x470000002bU,
  0x8000000030U, 0xfffffdf10000000eU, 0xffffffbd00000029U, 0x9700000021U,
  0x16000000aaU, 0x300000000fU, 0x7d00000023U, 0x840000004aU,
  0x5d00000045U, 0x44000000b5U, 0x6dfffffcd2U, 0x70000002aU,
  0xfffffda40000007aU, 0x1b00000099U, 0x5500000040U, 0xb1000000c7U,
  0x4100000021U, 0x4700000047U, 0x6200000010U, 0x2000000021U,
  0x5c0000001cU, 0x1bfffffeaeU, 0x990000005dU, 0x5600000081U,
  0x2700000027U, 0x47000000b9U, 0x6c000000e1U, 0x980000002eU,
  0x1ffffffe00U, 0x2f00000010U, 0x7900000057U, 0x6800000058U,
  0x3300000027U, 0x3500000062U, 0x2a0000002bU, 0xfffffff200000053U,
  0x600000001aU, 0x2700000024U, 0x2300000041U, 0x2a00000006U,
  0x60ffffff3dU, 0x1000000040U, 0x5f0000000eU, 0xfffffdde0000007dU,
  0xd40000004dU, 0x1d00000035U, 0xbb000000a4U, 0x7900000037U,
  0xb700000061U, 0x18fffffff7U, 0x4f00000049U, 0x580000006fU,
  0xfffffef200000055U, 0xfffffe5800000031U, 0x2b00000051U, 0x6100000032U,
  0xffffff60000000b7U, 0x4200000018U, 0xfffffdbcfffffdbfU, 0xfffffc9200000007U,
  0x3dab4b9f2da36eeU, 0xf728dcfcb6b0bcaeU, 0x2b40f635e3041f26U, 0xda2bedd5f12ed915U,
  0x352e321a2942212fU, 0xc2d9dbd50710e021U, 0xdde5ba12f9fcecdcU, 0xf3e7ca18ea1cf9c6U,
  0x1ebdd82124e42ff8U, 0x7072aecd9111104U, 0xa804192919a7fe12U, 0xc4d50931c3e11b16U,
  0xfa46e03df430dfc3U, 0x52d6130d3d934429U, 0xf6bae2c127c1c6U, 0xf52ec3ef42c0a934U,
  0xaceda30f5c914U, 0xef2d5e0d1dff6d3U, 0xde030a19ff291834U, 0xf32a28effa0005f9U,
  0x3b01e34433fdee07U, 0xf03643cbe0bc2029U, 0xf4e8c238f5c4cef7U, 0xf6c1aa2e622c32f2U,
  0x2c1391ef3dc2dd7U, 0xe92d09fb2c06d4d5U, 0xe417f4cf25e02d09U, 0xfbd841280fc8d5b3U,
  0xf8de2c2a06f6331fU, 0xfb18391a3df12ee5U, 0x1c2e0ecfed60fc5U, 0xe325cc20fbd420edU,
  0x55beccdf18c7e34fU, 0xd0ecfb0e160c231dU, 0xfdcfc5ed472df32fU, 0xcd161bf7d72bfcf1U,
  0xf4e90abed6fe2217U, 0xc156f9f61abfe623U, 0x712c90036e821bfU, 0xcb99c623f7ce09d0U,
  0x39eb14faeed220fbU, 0xc61031fe3812c831U, 0xdf2c3c06220700ffU, 0xc2fa040959f20dbbU,
  0xc1d4d20044e6e3faU, 0xe94d1c2243fedc2dU, 0x16091c0c1b4befe3U, 0x611feef330bcd02U,
  0x5a4e41cbf81d13b2U, 0xbae939ddba3d3c66U, 0x1815bcf9e5f92adeU, 0x3c020d0a21341da8U,
  0xed261815ffe6943cU, 0x2d00362bbf333803U, 0x19e80aeeaa99ef22U, 0xba0c46f3dd2033e1U,
  0x1f140f0dfddfe4e1U, 0xb70df3c6b0fc3a59U, 0x1bd4ff2df321e540U, 0x1726b0e414ecbed3U,
  0xe8ebd8204235fe14U, 0xf56a3b0cc02fecf0U, 0x41fe21d1bf3ac40aU, 0x12dfd7e3e70dba1aU,
  0x823e9e9bacc32f5U, 0xc1e620bfcde95021U, 0xc220b60d27d2d430U, 0xe93edabc3e1bcc08U,
  0x23e0f40beff59cd7U, 0xc6393cdf8b22dd0cU, 0xecbcfa33cfacf308U, 0x24d91eebf0fa2fcdU,
  0xfffd53d21d91ec5U, 0x3d3eebe0e041a20U, 0x33380d0634eb1a05U, 0xeec7254c123bd72eU,
  0x272dadd8220a0518U, 0xdf4e1021c4e5e007U, 0x49c71ff8eb46f729U, 0xb9da94024dfbcbe5U,
  0xd749d12eed18c8ebU, 0xd4dc1de7bd14e2faU, 0xe5ef1301cd2535efU, 0xf6151bf15ff5b711U,
  0xe407214a36cc090fU, 0xd3bdee6e00e29e9U, 0x1823c94813820eceU, 0xcd230806d627d131U,
  0x24c3f52ed9e41eaaU, 0x16f2e73eeaf8180aU, 0x3d26b43de4faf0c5U, 0x110109db303bf704U,
  0xdbecb80c32ed26daU, 0x22fa2116edcabf3bU, 0xf0e61e14b3d2b8e5U, 0xe503bdd1d3bcd328U,
  0x67efc9f403021f32U, 0xfdb4b301d9c82827U, 0x272c16fd2c5bc5dfU, 0xc9c42bf93de1155aU,
  0xd31447fae2a9b1d8U, 0x9fd2206389ff80fU, 0x21ddbc1809cfd9dfU, 0x6222c322f0db31fU,
  0xf334260550d0f9c0U, 0xb4fa5e18584e163dU, 0xe30edd3be31fd816U, 0xfd0818fc3c3c02c7U,
  0xf8cbb909dac933f9U, 0xe82bd241e7e019d8U, 0x100629f5b0e2c5baU, 0xe49f94a932a6a9d1U,
  0x263fcd03e9f3040dU, 0x5e0f300b5db1e14U, 0xdfded03f23ff38deU, 0x62ad1c63a021e0cU,
  0x1dd4134418f20516U, 0x43fefed83cf60453U, 0x6272317c08132ceU, 0xd100d5c920241a1eU,
  0x35eb0711e729faf0U, 0xc01f32b73816cd57U, 0xedd2d5d223b8d5d6U, 0xa60de1f0f3facdc2U,
  0x26cac80014d41036U, 0xd651d4fbdbfec42aU, 0xa1122270434e82fU, 0x9a3bb0dd391cc6cbU,
  0x3a22203a18c6b714U, 0x1844b535e4e8f042U, 0xd8dcf4391c5928e9U, 0x36ce21abecf9b702U,
  0x10ebfe1f12c2a531U, 0x3d0315d51528fc15U, 0xffc817272dddd027U, 0xc203c4c7dad41502U,
  0x26fc2547e122cdafU, 0x2f05e4d9e5e43ed4U, 0x81e17144ade22ddU, 0xf027e64700d419d3U,
  0x93403ca0212bbebU, 0xf0f3ef3cf9d0ecbU, 0x402f48020d38c73cU, 0xcb22cba42229eec9U,
  0x2eff818ee1ffd09U, 0x6fe0ceb0417eeefU, 0x1ef2faf9f0f62001U, 0x2bf5fe1a07ebf60eU,
  0xf6080f080bd3dbeaU, 0xd0cecfdee110e21U, 0xf219f914d6e205f2U, 0x1010130eeee416f7U,
  0xf7f70f06001906eeU, 0xeed40cf4f2fdf3f2U, 0x11f80807ee01e100U, 0x21cd8feef14ed06U,
  0xfdd705e517ef10efU, 0xf8edf6fc001f01fdU, 0xe6fb0f03f507eb01U, 0xfe1cece101ed011aU,
  0x140520ec33ed02f6U, 0xf6f10519f9001c18U, 0x21ff1ae408fdfa13U, 0x9f8e3d30a08f2ffU,
  0xfd1c02ef08e6fbf0U, 0x1103f303030ef823U, 0xf40b131101ebf903U, 0x240240efae1e20fU,
  0x10fc01dff80901e3U, 0xe3e11507e9e4fa06U, 0x1ff0ffe0fd19e907U, 0x81ff2f310ee0f18U,
  0xedf1e6cf08d7e529U, 0xe30706f3dc08ed12U, 0xe8f90309e909f81bU, 0xb07ffcbeeeaeaf1U,
  0x3d15f7f912081e24U, 0xe405fbf8e608fb15U, 0xf7110feaed0e01fcU, 0xf404ffcd0518d80dU,
  0xe7e7f70de0c505f2U, 0x191df6fe2af600efU, 0x2013f81ef6f208e9U, 0x308230cffd2e60aU,
  0xe5ffeef61afcf8e7U, 0x29eb38ef0010ff08U, 0xce4e5f7f902e4e9U, 0xeb14041b1421f5f3U,
  0x10eafcf6e2e8e031U, 0x101602000f03f6ecU, 0x26f30e01ee11dee3U, 0xe5ea15da11fb0802U,
  0xe6e5f32be6080018U, 0x1a2cdef9fb13e30dU, 0x6eff51e06c5eef2U, 0xf8f11206caf0fbc5U,
  0x120c010516320109U, 0xfedfeaf2f5ffd707U, 0xdefe1a1ae6f7fd2aU, 0x25dde104e6070fd6U,
  0xbff1009d40cf515U, 0xe19cb0cf1fd0ae6U, 0x5f619f8d3e429e2U, 0xe51ee0e7e0ccedf0U,
  0x6fd130af70b12cfU, 0x502100920e70d25U, 0xd5e9defb0ff61000U, 0xea17ff0d13edf319U,
  0x1d4102b331a002dU, 0x1becd3e9eafefbecU, 0x1e061d0e06d405f2U, 0xe1f9ed0ce80c1ccdU,
  0x41d2af1ecf3f718U, 0xe3e6dbfb0e19d9e6U, 0xf325040efdfdf5ffU, 0x1a0723f2180ff4f1U,
  0x2eddb10ccf9dafcU, 0x21a27dada081df5U, 0xd6e4e4dfc707f9daU, 0xe509f0ed0af8fde6U,
  0x16282c26fc0ef805U, 0xfff3fedb13d3fd16U, 0xdcf2cfe0dae60e1bU, 0xf60ce4f8d5d51b1eU,
  0x3914e40c000d0affU, 0x14d5eae7ebd8030cU, 0xfe24fb091c25df01U, 0xc9edd6e6062b1527U,
  0xfce517feeedc0f0cU, 0x5e7201b100800c0U, 0x210cf2da15eb0ff1U, 0xf4e2eb1019ea0bf8U,
  0xcf208dff7bff70cU, 0x4fb29070d3519fbU, 0xfdddf50f290112efU, 0xf6fc15080d20f3f5U,
  0xf1e0216f1f31824U, 0x131713fdece020f9U, 0x1d1c08d9ec14fee7U, 0xf0e50af816d31aeeU,
  0xe1153b4b1afe0825U, 0x171204f0e30e0320U, 0x1dfb0d01f881faf0U, 0xff0df7dff1d90ecdU,
  0x100a24e1e3df01f5U, 0xe9e8bd08b73ef412U, 0xd6221f10c0d40e0bU, 0xa181b06d7ec02deU,
  0xff2ac114c11aee00U, 0xf50cc6eeceed0410U, 0x110507e1b9160de6U, 0xea14b3f9fd02f71dU,
  0xf6f20e00fc1213eeU, 0xfef1ff2810131118U, 0xdaeade0b0feb0046U, 0x1b24fdf4f901f309U,
  0xb272c452b0e08f7U, 0x26c900ebe814033eU, 0x2d0d2efdeda906fbU, 0x6d8efedea1d36c3U,
  0xf4140fdbcff9ebf5U, 0xd504e719e21ddcd4U, 0xbb04163095fd2bc0U, 0x35d5220eec09c1f7U,
  0x1c29d006e018befaU, 0xe4e402fbd80d38e0U, 0x10d2f4d1b6ff23deU, 0xec0dd1d3ecec1f14U,
  0xfc1f1600ca040634U, 0xecd9eb1fee1c1802U, 0xd99cc5df0902f220U, 0xfa2c0f140afef0feU,
  0x47183e2048f50e06U, 0x20ba1808eef31721U, 0xea531cdae44cdcefU, 0xfffffdd82700fbe5U,
  0xf9221ce8eab5e60fU, 0xe811d5320904fcd5U, 0xe52ef6f5c3d712a5U, 0xfcdb3d1331ffe617U,
  0x1614f9dffce8f2d9U, 0xfbd058cb052f270cU, 0x7e8f31818f2e9dcU, 0x1b11fb02382308f6U,
  0x21140913c5f6105dU, 0x1fceffcd3fe2602U, 0x2cdb05cce41ee513U, 0xe2e4eefef70e1af0U,
  0xe9e8fa2bf8fdfdfaU, 0x20094a132a04ff26U, 0x1ec1bee32a1ee1f4U, 0x23e92b32b3debf2fU,
  0xc052532c2ef3192aU, 0x1b0ce93e08c31d06U, 0xd4c60158e637b5f7U, 0x5af4e6f506e63410U,
  0x3706164fcdfadfddU, 0xf6515307031bc3U, 0xfb0df0c2ad42070bU, 0xb425f7c32dde26fbU,
  0xce163e2a3bb92ad1U, 0x11b0d3e3e450c83eU, 0xc70ec323fbf3d955U, 0xfc37030a06d5cb12U,
  0xcbf83418f8543fb3U, 0x243800e7ddf0f4dfU, 0xb3752d3b7d22f07U, 0xd1e84dd1bc112914U,
  0x93d1fcdd2ea2202U, 0xcac0a1ccfefed19U, 0xc5f63ef41fb50633U, 0x54721f46004b12f5U,
  0x3f26f71deaebf2cbU, 0xfd3fbae6eedf0eceU, 0xfd10dbd8b51f21e8U, 0xf757f6e6abb42340U,
  0xe1d30307d0e41a1dU, 0xe9e8d8fabfda09eaU, 0xf70c0723caf4ff15U, 0x32fabdfca7f2ae08U,
  0x24bde707686f0f4aU, 0x82cf4f8e1df161bU, 0x116714accc47fb02U, 0xefd32303ec111c19U,
  0xe61c2e37da0e0a58U, 0xaef6e7d04bf5b4e5U, 0xfe1f0f1c0c052fceU, 0x3af81cfa304c9adaU,
  0x9ebd1e10d18c207U, 0xd8fb7afd333d4cdfU, 0xe3b5d2f7ca0035f9U, 0x34fae3da0d0a02U,
  0x64223efc07035d30U, 0xdf0d92fefd180928U, 0xd6e0e49dbbd2d5feU, 0x22aaffbaa8c5333cU,
  0xc80bfb1fd6b1a848U, 0xd77eddd81908a828U, 0x14a2c615e6083604U, 0x41e14a2ed0a2f1cdU,
  0xdbb7df032b32c6efU, 0x93e6f9e31fca00U, 0xe4b603684e22f81fU, 0x611acae6ede508c2U,
  0x38031d60bcf2fd15U, 0x3a0ee21d02aeabccU, 0x1d51f4dd16b220dcU, 0xed11f9d5fe1d0b27U,
  0xc11f1b0c082bff90U, 0x48f836d1f102cb28U, 0xdf131815fbc4d121U, 0xe631f5cdcf031024U,
  0xeae7cc022717e946U, 0x462ace1de5b9c10dU, 0x5aeadac4c1df1a08U, 0xd1dc59e5e8d721c4U,
  0x262052f7cf2efc4fU, 0x23fad31a2eeae020U, 0xfb24074930ebfd15U, 0x2dbefc2850f6e8b6U,
  0xe1c9ed340333cb0bU, 0xc09e1fcc8e0c415U, 0xd91eeda8d0dc16ddU, 0xca02e6bb9d9d0604U,
  0xe80458580d181cfbU, 0xdecbd8b02b9ef74eU, 0xfdedaacf02e2d52bU, 0xea0adff1fd000436U,
  0xedc5ef3c17004d21U, 0x56fdd516e6c909e4U, 0xe136fbe1f40dc610U, 0xfee221c9c5274209U,
  0x3f461a1efd12f009U, 0xa9ebe8eb31bcb1d1U, 0xeb2138e0321f4af8U, 0x1dd00f114f18b91aU,
  0xd81ce321eba4f0fdU, 0x901681db5ea20e9U, 0xaeec1fc8d90127edU, 0x544ea06e4e31e11U,
  0xfd5c175ddafb393cU, 0x4ecd7a9da9d282fU, 0xd0e0dae1bbcfb71fU, 0xeb2ce323c404375dU,
  0xb4d30aff828ac310U, 0xde23def7de35313aU, 0x34b3cd36e7ef42feU, 0xf82521c3ffb610f5U,
  0xd7c7fbe62f4d0ab3U, 0x37f3b7f1162d3111U, 0x2d5e1514c408f07U, 0x51990e4ceb229e0U,
  0x11eac50b090e2a22U, 0xf102a4e8d39d81e6U, 0x1e2725d3daf1c40dU, 0xfabce424c0e5ca38U,
  0xb1f3befa06f8fdc3U, 0xed3b48e2090badfdU, 0x3508f2531e14d123U, 0x2f53121c0fea34f4U,
  0xb726f72c03ea1006U, 0xfe1c01f111f4ccb5U, 0xe6db03fe18c2e129U, 0xe3ec15efc410fec5U,
  0x1dbf28e52263101eU, 0xdd14b5d4f7f2c6cfU, 0xdbcd0233105eab55U, 0xf92ae60ec3332bc8U,
  0x28031c3f1d141c33U, 0xe718cf02f3f219ceU, 0xfb4131fbc40ae816U, 0x12e2211e19120b24U,
  0xeff0170f0ce5f8ddU, 0x2acd161dec30ff2bU, 0xd5e9f5fd0fbdddecU, 0x110135c221ebf10cU,
  0xf9efd52bea5c321eU, 0x2e00e916bdfcd013U, 0x1be800e1092627f7U, 0xd0c336d7073bf60cU,
  0xe531e00ad831f608U, 0x1cf6e4fe09e8ee08U, 0x25020827f31a03f9U, 0x322de7eb2a00e2deU,
  0xd1f3f33fc414f7e7U, 0x10f137ebf025e0d1U, 0x1900c9f5fd10fcdbU, 0x1330e2082b0a320aU,
  0x210c5005cce300feU, 0xf3f5b6ead7d80517U, 0xe5bc01c9f20cf009U, 0xe3c7f1eecdf627f2U,
  0xd719b1d8eafbf2d7U, 0xee02e4f5d82309dfU, 0x18b7e923e91df5cfU, 0x424dd062cf2f6c2U,
  0x11d4e2fef5fe20e5U, 0xfdfdf91ad10f1227U, 0xd30a0210ffff00fcU, 0x8edf010d3f728f6U,
  0x1fdad02df9f2ea01U, 0x12fde2d1e107f53bU, 0xfdfa10f933d52730U, 0x150ed128f922b922U,
  0xd6f30fe71a07ddcdU, 0xceaf400ed14cf17U, 0x14221f29f204ddf9U, 0xe407fe1b2b1ff106U,
  0xd0d8ca04e817c7f1U, 0x2332d807011dcbb5U, 0x3eb6dee80f1923f5U, 0xe5133a08dcf810c4U,
  0xf0eae8fde51df038U, 0xdef81ac9e312f2edU, 0xe8f80b172ceee325U, 0x3816d2eaef03f6daU,
  0xbf1ff3be302ece7U, 0x294bce02d1d5c51eU, 0xf2060ceeeab82cebU, 0xe1fd2700f2e7f51bU,
  0xcc093018071ce9d3U, 0x2f70a0808e703f6U, 0xd92ef71303effbf8U, 0x231108dcfae6d826U,
  0xc6c1b413153820f4U, 0x2d30dffbe9dfbbc5U, 0x37dfdee7c4d10434U, 0xfcce4ce2ea2efe02U,
  0x2c370f05e7470d2aU, 0xf2d918e40fc30524U, 0xfb27f614ed03ee16U, 0x511afd3afd4ff8f8U,
  0x2bcd2845f6ecfa1cU, 0x1d0ecefcf2c2d0d3U, 0xf9e10cddc8b83fdbU, 0xf14225efc3e53fdeU,
  0x223e2f7f14c239cfU, 0xbe508afe5f1f82fU, 0xefdfcef802ecdf0eU, 0xd8031c01dadaec62U,
  0x13311215eaedf5c1U, 0x4eddc08dc150a3aU, 0xe7cfe0242d27e7ecU, 0x32afa0315fcda26U,
  0x10ff101721ef08e0U, 0xf2f2311ec50b0cfbU, 0xcd08cee3e2041019U, 0xafc70305ffe92cf0U,
  0x1408ff05ff14eee6U, 0x26fbfcdf151f0424U, 0xe07dd1c32e2fdebU, 0xe8b8ef123104f5faU,
  0xd3dddcc12429e333U, 0xfc2a300bc6d5fdd5U, 0x1f06fe200c30d0dfU, 0x16f6adde0efcbbeaU,
  0xd710efe0c6fe14bcU, 0x223e8cde8e80a07U, 0x11aad00ce4fa21f0U, 0xdd2803d50ed4e519U,
  0x18f0e2170a4209d9U, 0x1ea06dfb5f5131cU, 0xd5cdd411fb191224U, 0xe9ebe0f0edf6ed19U,
  0x3dd602eadff417e0U, 0xf417a2e3ed0bb235U, 0xdb29fbff15f9f829U, 0x10b8f91fe9e7e60eU,
  0xc6d416232513eaU, 0x1aff34e9cfcafa13U, 0xf63afd170f1dda00U, 0xf912ed081ffed4eaU,
  0xc11ad603bad8f1f7U, 0xe926e9ccfb0c0105U, 0xeee4f209e7262028U, 0x20e811f1d8fd15d3U,
  0xeaf9da0d182f031bU, 0xf1df22f3e7dd04f7U, 0x1517fd0f0b410e28U, 0xe36bc11ee0800d9U,
  0x3b0f2a3105e9f638U, 0x2423b0f3b6e20824U, 0xd3f9f3d708cd40f1U, 0xee0648f2bdca15fdU,
  0xdfcf032306032eb7U, 0x47d229e6ebc31a02U, 0xee0a040416e905edU, 0xf617e7e118f4daf6U,
  0x2af4edd3351a17d9U, 0xcd10005e90738f7U, 0xfe33dcf81a0f12e1U, 0xdc06c6cc0f14e017U,
  0x1b1a06e5e2cc20e4U, 0xf20c0c26150b02feU, 0xdd19effa04e0eb02U, 0xe4ee4008edf7ee2fU,
  0xcef3dff81cf101bbU, 0x3a91fe3313a1f22U, 0xe4cb012323f4fbf0U, 0xe0ebde0b223ccff2U,
  0xd7a309cedf12f10eU, 0x211bff01f0dd01daU, 0xfb0736fb220dbfc9U, 0xfd505161eedfce9U,
  0xfb3ef2edc6f0dffbU, 0xeceddd06eed401faU, 0xe0d2e63304fafcd9U, 0xf2e703e133fa0c3cU,
  0x2ffef18e5e7f1ecU, 0x2e350c01cbe9382dU, 0xf206fd0bebfad8f4U, 0xcee717ddf2f91b3bU,
  0x3ec0a03f3ecfd04U, 0x1aedf30b3024df1cU, 0xe9eb08403be3f00bU, 0x23ddfb093536e7d0U,
  0xed8ff2ad2b04f22bU, 0x173c0ef1ecdfd3d8U, 0x250113f41b0ec8d8U, 0xdadef21101e8f0fcU,
  0xe62ee7efb7dfd3ffU, 0xdd02ed27f30e18f7U, 0xd2ecd0fff2104114U, 0xe400f80819d20200U,
  0x19f8ca2a1d16efd5U, 0x170ceaf3eaf1fe15U, 0xfe18d8022df61715U, 0xf30200de1b1538f2U,
  0xf0341ed27fa3508U, 0x1619c30b1aefaa2eU, 0xe82e030736f50742U, 0x2eccf31ce9260efaU,
  0xcde0cad617160113U, 0x28271a1ae50ee2efU, 0x163e320ef726e0d6U, 0xe6070a013418f9e4U,
  0xb419111dcae3dea8U, 0x9142a1fe2faf43bU, 0x26eafb01dfa722e7U, 0x341ef1faeef121d7U,
  0xe924e7af1110dcf3U, 0x2ef2b7fe9ff2eb18U, 0xbc1d1e1ef5cf041eU, 0x1644ce12c4e4f527U,
  0x2906c1fae70e2fd9U, 0x260896cfbfe8c128U, 0x241ed5d800e7122cU, 0xbfbf612ae01eaedU,
  0xcc00ee051319d317U, 0xfc0e2a31ba14feffU, 0xe01a41f4e7fed41aU, 0x1a01dced1913f317U,
  0xe1e7ec062429f01dU, 0x2c2a0317fee2f7e2U, 0xe1a1ff0eccb37f4U, 0xd0d071ef41cf6e4U,
  0x270714dff4fe2731U, 0xf4cbc9fcf7fcc5fbU, 0xec35f625f9fc2530U, 0x8df132aee35fac2U,
  0x1fe91a37c50d14feU, 0xcd02d2d5def317f6U, 0xf2e8c6ebba0b2e20U, 0xfd001001b3f2f215U,
  0x121e101c0818200eU, 0x1fc8f10ad5d808f3U, 0xeaffc20ffa06e11aU, 0xdf0f0313f20a0e28U,
  0x47a0161442f61864U, 0xeb3a11fedfe1f726U, 0xf530d2f9e432c114U, 0xd113e3db0e3ef508U,
  0xebf609fc03e2fa06U, 0xaf0403fb3fd40bd2U, 0x2d05e8d4021907a9U, 0x1d0c182b1715d423U,
  0xedf4d62814c2e1faU, 0x49de7ff1012efaedU, 0xdd06fee7260620f2U, 0x1bf0fbfc3deb071cU,
  0x24230e240eed0214U, 0xc07e20c26e41be5U, 0x2c231ae06ec18a3U, 0x1be0def9d60c03f7U,
  0xc5ea031c1c15eff9U, 0x2cbceebd6e4e2e8U, 0xdd70f08e4ab12d6U, 0x1413fdd4de01f2f2U,
  0xe70a00dce701f5dbU, 0xfff7d112e5e600ddU, 0xaefa08dbf9cb0ae1U, 0xeeafde7fcdc0af4U,
  0x16d9dfdbd20101daU, 0xe00fbbedeaf1feecU, 0xf6e0dde4e3c40a17U, 0x26dfdcfe12e1c4d9U,
  0xf5f40300080edecbU, 0x40af811f903f8e9U, 0xc0edf0b1b28da0dU, 0xe21b1311faf6d71eU,
  0xe7121344280d05e8U, 0x618eddc0a150e15U, 0x37d51212d9b10d03U, 0xf3f00517f8f629eaU,
  0xdfec35d5e0f1e002U, 0x1eeafee80aca06U, 0xef113d11cf0ef2efU, 0x35cc1d08fc070ee4U,
  0x1b25fee80b21cb0eU, 0x18f0bdd6dacc10e4U, 0xecf91bdfd8242bf9U, 0xee12b5be0602fa06U,
  0x100f041acdf30afcU, 0xf0f9022be62ae9f7U, 0x10fdea15f6de0c03U, 0x27401724e623e121U,
  0xfe20382317e42a12U, 0xac6ea13e41d1740U, 0xe846effd1a1927eeU, 0x1000de1e1015ddU,
  0xe4f4e9fcedf81328U, 0xe603ee09fb1f0acbU, 0xfc3b25f8f9050b00U, 0xe505f1150ddfe421U,
  0xe2ddd0c16f0d003U, 0xfb001fd9f41f382dU, 0x11f4f102ef0b26e7U, 0xfeeff5192c2d1b02U,
  0xf71a280413f8e12aU, 0x7f4d4eaade9211bU, 0x2f02eae628eefadaU, 0xa10e817fd0d400cU,
  0xb7ec08f003111af8U, 0x21bfbfc205db06fcU, 0xeb0405e0f9a6fe20U, 0xeefb1a0ed1e4e5dcU,
  0x192609ecf91515f0U, 0x260005cecb1d04feU, 0xf30213f30d1ae136U, 0x1f29fa0ea9fb0befU,
  0xeb23ec060c241603U, 0x1beaa2fb04e8fed5U, 0xca0e1d0cbb0229f9U, 0x5fedbffe4f0cbccU,
  0xb0f2fd40bd30706U, 0x4fe11dbfacaf1eaU, 0xc6f211edff00f111U, 0xda04e807eccdf916U,
  0xffcc113e1227120aU, 0x32c1d14163efe2bU, 0x4bee0904c1a1180aU, 0xfce80b0fcfe41afbU,
  0x34413d7100c14eaU, 0xfdc2f421d5e90245U, 0xf8f70840e8042a39U, 0x26313504030fcbf3U,
  0xd0f0b25d214d202U, 0xdfe714c6ece9e3U, 0x2fdbe4cfaa00e8dcU, 0xe11cf9dee3af16e1U,
  0x8f134f5ecbf1006U, 0xfad600320a2441U, 0xedb2df0707f2f63fU, 0x30d26e7b1e11328U,
  0x491003f01f1b104eU, 0x2ff31d35e8ee0b22U, 0x293937bddc210601U, 0xf5fed5e525ff09f1U,
  0xb00f928eecb01eeU, 0xee2204452009d2ccU, 0xf8322e1beadb17bbU, 0xffee03051003d21dU,
  0xb0d07e2fefce3edU, 0x20f64fe934f33cf0U, 0x5dbeafcd738eaf9U, 0x71303e7071ef026U,
  0x240319dfddf1002aU, 0xff13c60b24171d06U, 0xebb02eb0e11e07eeU, 0xecd909e4ef0cfcf6U,
  0xb8170ef1b3e2ae18U, 0xbbe7dfe6dbeb3102U, 0xbdeac81e0f1333b0U, 0x39e6f9cf01b6c5e5U,
  0xe5cfb62a290f9edcU, 0x19f807e7de42f719U, 0xeebaf5eae60cfd05U, 0xdaeb9bce06deedf9U,
  0xd820e1f3d9290befU, 0xeb0b9eecbd0eec44U, 0x3019fefd07ca1105U, 0xc5cc1210ef0bbf0fU,
  0xc32bc50c47fdd2efU, 0x3a062c0c0cd9ea1fU, 0x1a111646e42e0b0cU, 0xb04da4c5ffefb0eeU,
  0xdc20d2f8a7aef007U, 0xf92b06d5a80eeafdU, 0x17afe9191cef2bd6U, 0x27d90bb7dc06f4d4U,
  0xf0d8cc06ef37d0ebU, 0xf400f4260733fb23U, 0x3d6ca24250ce238U, 0xea09c2e9cff1fef7U,
  0x36cc2e0af61e2fddU, 0xda20bae0c8d4d3f8U, 0xfdf4f2f7edcaf5fdU, 0xe0cc231ebafb1ae2U,
  0x1807e2073ef6d8e5U, 0x46f528e5eec7b43dU, 0x2c12e4040cf3c1ffU, 0xcbfda0aff7d9d9f9U,
  0xde4bc20ec0cfe17U, 0x1f33b103a409bfe2U, 0x131dfd350428e604U, 0xe50d40d3061c1400U,
  0x8ddef382b34af36U, 0xd7cb30f723f60b34U, 0x460708f64412fd40U, 0xec0dc722f4400df1U,
  0x22c5072ef80003cfU, 0x6af8ebe1f5c5f6U, 0xd3f8fcdf0ec806ffU, 0xf5044c33e7e023e3U,
  0xef431e6531ee23ffU, 0xfd4281fdbdde602U, 0xf200212c15e90721U, 0xe52bcac812dd1f0bU,
  0xc30d332ef6b0f0ddU, 0xffedef27c91f3833U, 0x11e6e110102553f0U, 0x1c3cd1810dfcf804U,
  0xe6fdc1d2f5bcd6caU, 0xf919ee230c230452U, 0xd7f4e82b06bbcafaU, 0xa0fdc9f324d1f02bU,
  0x1e1927a72c4134c5U, 0x10f8b826e0ceaa44U, 0x17170403d826da28U, 0xe2b9ea0fdff0ec0bU,
  0xbddac3f00826eb03U, 0x50e172fe618bc3fU, 0x30dbff3fd12bad37U, 0xb421a6a2f93ce8f2U,
  0xd074020ddadc3e7U, 0xf300cff5af373023U, 0x15e7c80e1a23ec01U, 0x3ae2d29c0e0309ddU,
  0xfb2224e11000d6d7U, 0x2de9fc38c03113f7U, 0xf30b152afec9d3bfU, 0xd123c6de14d4ffe9U,
  0x70ffc0ee61ae79dU, 0xdbe8c9db0d2ad619U, 0x3d032d2518e7dd04U, 0xbbffc70a2c04ed09U,
  0xda120df9230bcecfU, 0xf314323bf32bf844U, 0x2c13e423cdedf135U, 0xad11c4d6ef01d2e9U,
  0xf344432528051316U, 0xd3ebfd3cc209240cU, 0x12e505ebef67f0bfU, 0xf811c4c6ff1917e9U,
  0x4312ee3f9ec0cceU, 0xe01be6f41a342afaU, 0xdfdc09e920d1f9d5U, 0xe4fdda0023e62a25U,
  0xf52626d51b0f2cf6U, 0xea13f3f2ed35c2f0U, 0x1b183208ed120824U, 0x10e50d0d0a17f3d3U,
  0xd5150ec5f7220134U, 0x9ff1d082efd0c51U, 0x2bee33f8ff2bc609U, 0xe82ee2be071d21f1U,
  0xf1150011fad8bfd7U, 0xf9dabefbd906df05U, 0x2b12d500351cf2ccU, 0x33fcdfedffcefb1bU,
  0x4240d1105c2f0d7U, 0xeb1609f41bee2008U, 0x6e3f7e9dad9e712U, 0x815e8d7d4f624f2U,
  0x13d3ebdb37e9d301U, 0xc2eae35004d9e0faU, 0xe022fb1ade05eb1aU, 0xd707d3131d24e0b5U,
  0xd8f6e9f9eacaf700U, 0xce14daf92dc9cc25U, 0x2082135d207ea39U, 0xb807edebdbd5aee6U,
  0xe7e1254207e4d6e3U, 0x24e2bfffc522ff42U, 0x48c708d12b070c0cU, 0x317fdb2e014bee2U,
  0xee17efe7efbcadcbU, 0x132eec0de304e01fU, 0xca0c243ecddafcd3U, 0x7ce1ee3f8bfd323U,
  0x1df0d301faf3f6b1U, 0xf5f121110de6fbU, 0x36e70913ddd8cbefU, 0xb803f3fa00eebcf0U,
  0xfef7c7f00ae0060cU, 0xbc230d1919dded34U, 0xedceebfdbe0cb52eU, 0xdce0e9b9e3e514e4U,
  0x5f9112432dbe5edU, 0xfdfcccebd9374631U, 0x6103f2b02080bccU, 0x212227c2f9eaefefU,
  0xd93e072300aee1f9U, 0xf8f7141a13252a22U, 0xf4e43802edf712dbU, 0xde520d719171c2cU,
  0xe242df15242212fcU, 0x405411706020f1fU, 0xd210f1bf3d7c5e6U, 0xdd04e0d6481de3e7U,
  0xe8e5f61324f4160fU, 0xf3f8eb05eedbf4ffU, 0x24e01609f7f1cc47U, 0xa102cdcb26ecf10fU,
  0x26fb24373ec107e9U, 0xd6bcdff19fde0515U, 0x121d0f3307ee26fcU, 0xff18e5a310fc1ad4U,
  0xc408e9ed1cc0cbd7U, 0xfcefdf13f617fcd4U, 0xc8f3d109e8b8efdfU, 0xcab8f32826d6322bU,
  0x1ded1bb13fb2de8U, 0xdbf3ecd9cf0f0726U, 0xf5e8eb282605f328U, 0xeae7b2e70933c319U,
  0xec14c6b5f41df516U, 0xc19ec09c7fd24faU, 0xfe40d438182807dcU, 0xdc3aa4fc29f7af11U,
  0x2c0ecd1a06c2e220U, 0xbe16f20edd3effe8U, 0x181ac9041a2528faU, 0x2fdcc3ad15c3e0cbU,
  0xdffcd1c1fcdfda01U, 0xcfedb8fdd2141930U, 0xee2505df0fc8f9f9U, 0xea23cbf9cffed806U,
  0xe43300e9d92004d4U, 0xd8011ed6c7100f3aU, 0x181f21fd3311010aU, 0x17e7c0e628f3e4d1U,
  0xf2e1cbf80327b90fU, 0xe73b002ee70decf4U, 0x416ed27ea32060fU, 0xd4d7d0d836169cfdU,
  0x42b05e5f31fd7afU, 0x18e515dfae191cb8U, 0x2fd4dce5f1e8d1faU, 0xd11c11a439dad3f7U,
  0xe5efe4e6f5e1ef05U, 0x152ed8d3a9e133f2U, 0xb2c3e2e9ddec190bU, 0x1b17f2d615162427U,
  0xe50c182b2ffd1e94U, 0xe626f506c7fc0621U, 0xf6e621170a0f2e2aU, 0x15fb1917e8e6f9bbU,
  0xf0b9e5f8ec0d0705U, 0xc352322f2dcee21U, 0x28f5c704d527df02U, 0x112f80be422b80dU,
  0xf72c37f7ec05f100U, 0x1d0d13f693d3f7f9U, 0x412ffd52011e9dcU, 0x8e2cea12d34e825U,
  0x21290523c9bfebe9U, 0x301d59fc41ef2df3U, 0x2322d1380da2d9d9U, 0xd2124d0cfad01f0eU,
  0xe325e8bc3518e7ffU, 0xd4d1dd1d23ec1bebU, 0x1bdc9edd6e9c7eaU, 0xcb2f0317fd2ef0edU,
  0xda9cb04d09ff526U, 0xb820c12cc426e81eU, 0xbe4550ac5e5b5eaU, 0xb6afb8e9c620bcd1U,
  0xdde51007e829fcceU, 0xc31de93f8d21012dU, 0x170112d616e11d0bU, 0xf4e10ac0f2d40410U,
  0xc0142302dfc5a017U, 0xf2ee2e36d4981dfaU, 0xeb1f0ffdd5a7e0d9U, 0x181af119d1c425e3U,
  0xfdcbd0d60d2de1f0U, 0x17b2de1be8e9f2efU, 0x3612dae4f525b2d7U, 0xbdf3b721e72ecce1U,
  0x1cbb03de1dcbd904U, 0xc5dbeed9e222e523U, 0xfaee2116ea13e6e2U, 0xdfa9beea1ed6e4fbU,
  0xfcdcc1b7fac806a9U, 0xfed2e834e0e7e4c1U, 0x8d405e508f9def2U, 0xe4fa16bc19da180eU,
  0xdd00d612e0c5b8f4U, 0x2ee72ee6b4c2f212U, 0xdef6dad41cb1003eU, 0x12d9eb07e1e8e908U,
  0x32b70811db2608d8U, 0x1d00a3020a01e733U, 0xeedbd1edfdd4d31aU, 0xdbf3e9e90628eeaeU,
  0x6cbdfce0a23160eU, 0xd80d2aeb04dc10e2U, 0xe2edeb271f0ad322U, 0xc4bdec1106d7e40aU,
  0x2ff3d8d21f392300U, 0xf0dcbbf3bcafc5a8U, 0xc247fc1b1d24b231U, 0x1193305bb0418fcU,
  0xfa1b1c1e033ad5efU, 0xdfe935d54bcfe00fU, 0x6812f4d243231c12U, 0x3f223227f1818f3U,
  0xeee280029a2dfe0U, 0xd6e43722d34b03ecU, 0xa4290ce7e5d0f212U, 0xd1f35e3316c833c1U,
  0x2b23dc360139efd6U, 0x101f38d117a94a20U, 0x38f1d7e51002f199U, 0xed36facff5ace03aU,
  0x20d2e1142e1510efU, 0xdd1e9927d611e5b4U, 0xf0114d82424d7f8U, 0xdd8f0d5192d050aU,
  0x1b0c18f3200ed3d9U, 0xf0dc221056cd02d9U, 0x21220e1fe16f0d8U, 0xd9bfdd025fef2ff1U,
  0xfcc60afb0cd814d9U, 0xef043326234c11cdU, 0xcc3df4dfe4f00f0bU, 0xe3fa4c2ff406f1c6U,
  0x2701ca321b2d0909U, 0x322321070ce91607U, 0x9ff06efc821f9e1U, 0xdd22de1212dbe30aU,
  0x3005e3d3ebf8fd24U, 0x12f8abffb21f23deU, 0xee28b8193ff8e81dU, 0xc7d6fdca3ee9c514U,
  0x21d61a351908e2U, 0xb07014495efeeU, 0x4bf911f62a060d24U, 0xcaff051f02dee13aU,
  0x1be81d1331ed29e3U, 0x15f04a1d12ffd51dU, 0xaff0e12217be0e06U, 0x80dec2ad518dadcU,
  0xbecbc7e23c1af7bfU, 0x14ff0ee92fa7edf5U, 0x142700ddd8e5e5c6U, 0xbef5c4c60706ebf3U,
  0x1613eacb3f45e1f8U, 0x1f61311ae101308U, 0xcbecfce311102239U, 0xc40f19c330da0ffcU,
  0xf4fef42bf10ff003U, 0xdfa0319c90c21dcU, 0x1ff2e8e4ea001ef9U, 0xc60018fd21bbfa2fU,
  0xe2c31de01fe8edecU, 0x17e2cf17081018f6U, 0xf41a070e0b11e004U, 0xeef3e30bdf0dd2e2U,
  0xf1d4d1a8d2fdd131U, 0xaf0610e9d6f812d0U, 0xe1fff909d0e6e8c2U, 0xc1d1f70608d3b1ceU,
  0xfd06d1cbbb1ea9cfU, 0xdadbfe0addf00125U, 0xcf84fe1efc0b2cefU, 0xc7180bdfe2c0e11dU,
  0xe5acee11fc1dd5bdU, 0x30181f0ddf170d1dU, 0xceb6dbe4e2eee826U, 0xdfd8d5f6fddd2325U,
  0xe4e4f018e2ddec0eU, 0x1619d3c601f9b30cU, 0x80c0f16eacfdc28U, 0x8cfc42f00f8b5ddU,
  0xd300e7b9f02caec8U, 0x1e190517eb02f0c6U, 0x2025e929f0f3eccaU, 0xd801d80a1ff9dfdfU,
  0xc00eb4ede8cfb9d8U, 0xca09e102d6d804eeU, 0xb981e9f8dc0d0120U, 0xb81304fc1e990904U,
  0xe7ea0e21201f09f3U, 0xefd0ed0dbedcf02dU, 0xe7b704d1e7ee0c1aU, 0xb9d3a9e4ece6300aU,
  0x2b7e5edf2e924fbU, 0x2b35c7e3d6c485f3U, 0xfde802e500be36eeU, 0x1bd1dd2cec14efaeU,
  0xcfeed91de726f7d8U, 0xe8f8fe0bf8eb09ebU, 0x1934dbfdfdefd1e0U, 0x12f6db19efcf0ee8U,
  0x2c13fc0b2742d22eU, 0x2fd06e612fcfff6U, 0xc3d605f203e3f636U, 0x9d52105e5e3f922U,
  0xd4155de1f5d7f91cU, 0xd600220cfaf1df08U, 0x152115dbd513ebc9U, 0x1931b19210ade1fU,
  0xceccff1af70fdc0fU, 0xf41b323913f358d9U, 0xd8f9f8fcec220418U, 0xd51e09ce3102e7edU,
  0x161f07410b2ff338U, 0xdbfefd0e07204431U, 0xf20dd215dce3eefeU, 0xe5012adf27f705f0U,
  0x25ff2deaf1ec0313U, 0xff1320f5ede12dffU, 0xea16eafdf614fb05U, 0xc728e5f41bf9d913U,
  0xe01f05f4f0fffdf4U, 0x2203d320d00a1ff2U, 0xe8e600bdede40ce3U, 0xe5bf11e631b604fbU,
  0xfedbd6f1f31bfbf8U, 0xa1808d033ee3e27U, 0x1b23e8050ced09f2U, 0x1cfeeaf5390eecd2U,
  0xe0421409050bd127U, 0x4210428d4f60917U, 0x3bd9ee04fe2ef6edU, 0xdaf21f1f07e7c9e5U,
  0x200600f7c3e7ebcbU, 0xdc0cf51408170fe7U, 0xc4e1ed2c2916dcf3U, 0xeaf5d513fcc014f5U,
  0x3fce41320112006U, 0x20ea28facb2116dbU, 0xfbccfafafd05e5efU, 0xd7a505fa17e8f136U,
  0xf0f1f403ecfc28f2U, 0x309ec111910c10fU, 0xc00e0050be201f4U, 0x15032413e62cdaeaU,
  0xf6eac9dd1423e42bU, 0x1d1d242c06fbe615U, 0xf52f11fa2ffd13c7U, 0xf5fa06f5fa0b0cecU,
  0x4fe855132f3c2b23U, 0x39f633df21131332U, 0x121a37e4f921d7feU, 0x23ff0e0b010121baU,
  0x406222f2fe15192bU, 0xfe12e62bea2efd0bU, 0xc72b2c2af0f93e19U, 0x26fd582be1f5f8d1U,
  0x242defe71bf2c8e3U, 0xeefc38d5e81c28e8U, 0xeff021deeb4c36cfU, 0xf041c9d2f1f5f128U,
  0x9731f2c18dbfd51U, 0xd4d7f925133d3b46U, 0x14cee01bf3f212f5U, 0x1828d8f506260a06U,
  0x671613ee4e0f1825U, 0xed0539f1ff032c42U, 0x28315cfdec160014U, 0x4f40bd9240c16f7U,
  0x153d00f812b7e1e9U, 0x10eee62d15e0e5f2U, 0xd41d24e2fc1d24edU, 0xf9014b19eaf1ea0eU,
  0x52702d6081017f4U, 0x29d03dd6e61a351aU, 0x2ee00ae00ff10cf9U, 0xed16dde226ede911U,
  0x3c2f16dcf20f162eU, 0x708d62df32e08eaU, 0x170721d1f0e3faffU, 0xe9f7d2f2e8f30528U,
  0x37f9f3d7fb0a092bU, 0x1acd1033fe0f1420U, 0xf4210316f832e71dU, 0xe611dae033f40c21U,
  0xe822e8f311ec10f8U, 0xcf821330304f0faU, 0x1a160eed170209f3U, 0xe8e309171ee11b0aU,
  0x180203bd02df0adbU, 0x9d1000e381a0425U, 0x12e201fb11eed427U, 0x11e5da22f52ad1edU,
  0x40de2cf1edee744U, 0xfd252b16091223f1U, 0x1ae2f41337f815ecU, 0xf2cc103431f605f3U,
  0xf9fc2a20e83df7edU, 0x30fb16e139220408U, 0x15e50ae1f1bbf503U, 0x12dd1932e3f70bfaU,
  0x52520fcf423170aU, 0x612f3ffaff4defaU, 0xc810fe16e1f30015U, 0x24f424f0c10f0cdfU,
  0xfd0c01280726efe6U, 0xf6f8cd1ffec03906U, 0x8e1e5e5e2230eecU, 0xe03cdfe7e2eeed20U,
  0xfaf71f1e00eb04ecU, 0xf3da03fffd340409U, 0xed12dff909de0a1aU, 0x2d1c23f7e6e6c31bU,
  0x1e1f22fc080841ffU, 0x2f1a232405011215U, 0xff54fcfed73eff14U, 0x60c0523ef390bfeU,
  0x12512fde4f4ea07U, 0x9e7fa23210bfa0dU, 0xda08f615eeeb1ef3U, 0xc1b1927e925e306U,
  0x1d0ef517f508e9ddU, 0x4efded0042102e0U, 0x3eae0e709060b13U, 0xf52806f300ea354aU,
  0x29ff31230b03072bU, 0x408f4edddfd1c07U, 0xebedf1fced13d30aU, 0x3b05f01cf01b5618U,
  0x1203f5fa470e240bU, 0xfed8f3132ff5fd14U, 0x353fff21a120a18U, 0xdd15e9f4fc3af726U,
  0xf0f308f7e2e61601U, 0x23151ef158f413ffU, 0x2017ede91eeb2bf8U, 0xf7dd1af73f05140eU,
  0x1bfb32f4eceb1004U, 0x8fb070b18272b0fU, 0xf602f0230e0af412U, 0x19fe061510161513U,
  0x4e12fe100afa1d0fU, 0xe1fbe910f2f106feU, 0x11f228001d031ae7U, 0x14fcfc0a11ea60edU,
  0xeb02f414d21616fcU, 0x2d1208fd1b02cedcU, 0x2de3fefad2de1a1cU, 0x19f9131fdff9ffdfU,
  0xf616170e092feb02U, 0xe0cfe707b2fee30dU, 0xe1110f0b0309121eU, 0x4100ede9f808f1f7U,
  0x13200b31cfe40ceaU, 0xf1049f12d6f803faU, 0xf7fff8e0eef706edU, 0xe518fadacdc7101cU,
  0x3f608211dfafad9U, 0xfbca06ec140b0432U, 0xf3f9ebf806d80623U, 0xf2251df8e9e30d32U,
  0x2be0e6ec4f0c2239U, 0x1d211cebe9fb0a2fU, 0x115019fceb30dc10U, 0xe6fe05ff01232aedU,
  0xfc1d03eb0413011eU, 0xceeae11450f4e6d5U, 0x230d131f17ed0b10U, 0x110d10161d02f510U,
  0x1b1aed0b04fcc405U, 0x29f33aeef612e2e3U, 0xe6ef05f2e9ee21dcU, 0x1411f01410f50906U,
  0x13f81a0c02e1fc10U, 0x1a13edd923e707ebU, 0xf60303e7faf31420U, 0x21f718edd5046128U,
  0x3df313f71c200942U, 0x3d1eaf81c0efcfcU, 0xdc43f3dd1036b902U, 0x5f21309141dea22U,
  0xebf8f60efbf926f1U, 0x4250d1b2f0a0cbdU, 0x1d2cf1dd0bfe01e9U, 0xf9e810100aede719U,
  0xeaf6140a09fb0004U, 0xedb5715460f7ffeU, 0x6dc121d0b0dfeefU, 0xd0ff3072817ffcbU,
  0xaea1905030df232U, 0xef10041401fdff08U, 0x250a0207fe032ae6U, 0xf1190b281cf4200aU,
  0xf8230607e5d8e2d4U, 0xf1301808f7fde615U, 0xce30802cde80ff6U, 0x1c01e601e307ebd2U,
  0xf3ff09e0f2faeffeU, 0xe1fdde0dbc0ed9f9U, 0xdaf40a250bef0d2fU, 0x9020411d6fae8f2U,
  0xe15ce13ed17e113U, 0x1310a9e4ced5ef04U, 0x715effdd8010f0bU, 0xe40fde0eeae30323U,
  0xf813ed1924e4f6d8U, 0xff6ed18e7f20cfcU, 0x4efde170cf7021fU, 0xff280cfe111bf3fbU,
  0xeae700fc00f00709U, 0x319e3fae3f5e5f5U, 0xf022e4e0fa260602U, 0xbda0be8ffeb09ecU,
  0xfa040cedf5f8f3f3U, 0xded2f5120b06f10aU, 0xf412101bef040c10U, 0xf3f1f1f00707dc0aU,
  0x18fa0609ed0bec06U, 0xaf417e3d5f0f5fdU, 0xfd06010906f10ee9U, 0xe917eaf7ecf4fde8U,
  0xfce8f506f9dff20cU, 0xf4de0bf50803f00eU, 0xf1e50ce5d9f0deefU, 0xf217fae3fde816f9U,
  0x1506df061a1b1a12U, 0x1708eef9eee216f6U, 0xe1241307f10cf7f5U, 0xd9fa0c05001013f4U,
  0xfbefff09db14f201U, 0xb1208f435f8e8edU, 0x2b02f4de1d0ef9f4U, 0xfa111af6fafdfceaU,
  0xe6eef801190c1012U, 0x1fa160c05f0050aU, 0xfa0d14fe1507eff5U, 0xd0cf2fef3eaffeaU,
  0xd101b01dceaf816U, 0xf6f819fafde901ffU, 0x18fdf5f1f0ebf0f5U, 0xfe100c14f0142b0fU,
  0x2cc98c42014e101U, 0xe044ce24caffcaecU, 0x201bee2b1059d821U, 0xfaba0dcabe3d20edU,
  0x7f4f82bf451ff1cU, 0xddfe16db2097c2eeU, 0x4616130439f3e612U, 0x3f26f22b264e0bd5U,
  0xe4f144f914d510ecU, 0xcefb6732f726e0e4U, 0xb433eec8fb8feefdU, 0x4c54ad7f10609d3U,
  0xdc090749d20ff9e1U, 0xf9f9c9a01c8d1ce9U, 0xebbeb6c9c9cd1203U, 0xc7e202eedfd0e926U,
  0xdeafd0e800ebdc50U, 0x19cc94eff5c90cecU, 0xd828acdc393aef0cU, 0xd80dd6d215e1e821U,
  0xed83b37c3faaae3U, 0xdd0201e553f4dfceU, 0x5db08d5e3e1c9c7U, 0xe9babee9401fcf26U,
  0xd1d8c60319c8c9feU, 0x2cb84656e73222ceU, 0xfad8fc1f22d4d1feU, 0xcb1bd9f03ee2ecc5U,
  0x26dec339d43df8a6U, 0xb1ccf4cf55b9ce36U, 0xefe0daefd123b11aU, 0xdcf3b7ec00bcf1dcU,
  0x373bf4cc1ae30d61U, 0xd4030a40eff942fbU, 0xc0eaf9fb1938b922U, 0xfa39b1c02fe1fa48U,
  0xda1fd2cddadf01f8U, 0xff64dff411faf0f7U, 0x22dddbc501afdc85U, 0x12b500181ab8181dU,
  0xfcd7b6c85bf3d8f5U, 0xfffa783a594468d1U, 0xddf01a224512d5feU, 0xdff3fe0d235daeefU,
  0xf8e0fd12060510fcU, 0xc1054e101be3f00aU, 0x5f8eebf2fd210515U, 0x4fee6d65b47f7c6U,
  0xf327f1d20706c7d7U, 0x221b182ddff2573bU, 0xfec9e1d5fa3e47fbU, 0x483b10dd4ce2c1cdU,
  0x30c6f101dd00cf18U, 0x1c230708f9cf1228U, 0xfceaf100e6daf6daU, 0x40623c2f9f2e726U,
  0x9d2e534f5db0aafU, 0xcc0ff513f60cbbedU, 0x35ce253212c5ff18U, 0xf1f7d1f611030dfdU,
  0xd6caf0fedada0c15U, 0x30eee617ceca25d6U, 0xdd235e8b4e7f0eaU, 0xf813ded5f9f009ebU,
  0x121c8f9bf2413ddU, 0xbdee51b03e01ddeU, 0x26c2f6f4f5f1e234U, 0x271e0dec3c15c5a6U,
  0xe5e6d13be92aa811U, 0xf027d1d5aadbfae6U, 0x11d0bf6ba1223U, 0x1dfcd1f6100929d4U,
  0xdc0f022f13e9bf95U, 0xd7100a10e6deb2f4U, 0xd2dac9d83d96072aU, 0xb1fb2e17fadbbae3U,
  0x2203dbe50210c4b1U, 0xe8e6de0ed1f5c4cbU, 0xab301e0a92391b5U, 0xad03aeba1703c1f9U,
  0x3cdfce05f317defcU, 0xfac901fec34ef9f7U, 0x1bec1403125a0624U, 0x2fd1fdd1fd7bfedU,
  0xf01b03d628d0e8e3U, 0x15412ef200ae0dbfU, 0xf2c1231ef4c01fabU, 0xe51327ebc21d1aeaU,
  0x250aa9e54f01d6a4U, 0x2dd717d8eefba6ccU, 0xe1b70ce904d9e7d6U, 0xf1cbcf49090f04b0U,
  0xcce4c1f32bf124bbU, 0xf1f2bdfa100b2dc7U, 0xf68b2bfdc3d9c5c7U, 0x19bb04d5eff2b2d6U,
  0x1c2cdbcd26f8fcf2U, 0xcc28a4fcda3023f1U, 0xede2e8e319ee29d3U, 0x4413d6eaecf6d45fU,
  0xc21bdfe8fdfed1dcU, 0x190d1e1506b30323U, 0x2de2d4232ec2f621U, 0xbeed0ce9cf0e39fcU,
  0x28bd312ad6ec20d6U, 0x4defe05502d3e20U, 0xdb46c8f4d5c5bcfbU, 0xb91304d62d24eec9U,
  0x2ab7b51ed522e4e1U, 0xec362bfd33f9e020U, 0x3c153745d002d8ceU, 0xd16deef39f1b625U,
  0xe621fc1de1f10135U, 0xb91de0ebe5e31cd6U, 0x13c4100610060becU, 0x2e150aac282cf4fcU,
  0x91f24f717219f08U, 0xdd0f24cbde15fbU, 0xec10f13b2fa3233bU, 0xc2f1ecc018f5cd02U,
  0x1514df3cebda1aa5U, 0x220c12d72a04ff38U, 0x15e70c02e8000030U, 0xcdc629020101d2c3U,
  0xc5fe0e1c0fe7d711U, 0x2c15ed3116c2e7c3U, 0x31f2dd38e61be2faU, 0xe5e1faf11004bb1bU,
  0xcfeee5fde2d6e025U, 0xf842b43aab27cbb1U, 0x2f3d34110fbf028U, 0xeedd0cdc05e40340U,
  0xdbfcf73d403bac04U, 0x15eeea0ce8c1ec47U, 0x1803f1ff0407c75cU, 0xe934e8d70dfa12feU,
  0x290b43f31ac7f1bfU, 0x4525b8f824dd161aU, 0xdb4ae82be49bfa20U, 0xd809e3309ccde5ccU,
  0xe5c0d2fa141ef7c2U, 0x4a0b4ee708a50d0dU, 0x2b40c8ffdc1a81ceU, 0xe825f4bc20b61d04U,
  0xf600f8ee2f0af54dU, 0xd21dd33a28f9cae7U, 0xc401f62cf71314fdU, 0xda0dfd08f803ef38U,
  0x13f20bef0d4f1a2dU, 0xf7fa11ef5ff20fdeU, 0x4fded2cb0f4221b4U, 0xc7c104fb451efd1dU,
  0xe4b41dfed2e1131aU, 0xe8f9fb42e21639deU, 0x33a1526ebc8eceaU, 0x30e9321e2a1834e7U,
  0x194def3de80f0cc2U, 0xf9e532f32afc1e07U, 0x1613cefe142b01bfU, 0x330153511e9380bU,
  0xf90f1756f1fe0d32U, 0xdfe8cd13162ec6fcU, 0xdb1fe4ef1cd2f9f2U, 0xf120f601fc22dbe0U,
  0xc3010fd5f9e6f7fbU, 0xe901d4e9301e23e2U, 0x39ce3ecb073fdfc6U, 0xac82e1e247fbf10aU,
  0xe4e43ff2e5111515U, 0x14e1ee3d16db4d0cU, 0xf20b1419eef4e5eeU, 0x5de350f0500e435U,
  0x94ecb1d031dd7c4U, 0xdfdffc134117091eU, 0x304cfe81b0e4b25U, 0xeb2d3feff7f62d16U,
  0xe6012e6bd6bff909U, 0x503e1cb1829d727U, 0xbe7022e10df12beU, 0x2a0efad8fdcf02c6U,
  0x1423e6c1e8cae4d1U, 0xf12aede7d95be1c3U, 0xefe4f08e20421f0U, 0xbdedf6c5edd81dc5U,
  0xf32dc2cbfff52026U, 0xc7f51104cadf6118U, 0xf2ea1ad3083824fcU, 0xc922d0e901fa054bU,
  0xf466f6170333f019U, 0xf1c222219f6ed27U, 0x1d28012f12e12f3bU, 0xdc43ed0ffff502e5U,
  0x29222932050d0001U, 0xad1f9e812261f45U, 0x22be27f137f104eeU, 0x2b24142123d1e9faU,
  0xe8f8d9d117e438c8U, 0x40af0340231e2cfU, 0xf5dd0736150bcddcU, 0x10928c402beff06U,
  0xd151d610002af8e0U, 0x2cbbff0626da1c21U, 0x38e43813125cbfffU, 0x14f918f6202ef304U,
  0x6e0cfe12718e02aU, 0xd93721fe263fdaf7U, 0xf80127051cff2717U, 0x20f7121f3224e8edU,
  0x7347339dfee0c02U, 0xfa14210f4841412bU, 0x36d6400d16e02cd5U, 0x19ea141714bdf7deU,
  0xe621f704f4abfbdcU, 0x2c1cdd2acc4721e5U, 0xe20f4e49e0dbf011U, 0x26094deeb4d1f822U,
  0x197d8dcb04540ef5U, 0xf1f2fdd1f9bb371bU, 0x3bd1f4fccf43be17U, 0x91099fc2bf3db02U,
  0xf406ecc4ed0cec19U, 0xd30a2805e2420702U, 0xe507fff6ee22fd33U, 0xe40dfc02fa12cfbcU,
  0xf2307f29e7ed29eaU, 0x11074bf1350ef524U, 0x58226cd0e6db40d6U, 0x4609d400e5e3ddc4U,
  0x45f0ce609a1cefdU, 0x130aed38ba61e60cU, 0xea135952b205fcefU, 0xc3658e2cb16f107U,
  0x187c9c05044013dfU, 0xeafac4ceecd4fa2bU, 0x43c5f2e5be2ef3f1U, 0xa3dc2b4fe19ca51U,
  0xeec710c7d607e723U, 0xd9ff0b47d94dde22U, 0xd40f00fbffe7e368U, 0x282512d01cf6fcd7U,
  0xb1d2eae10c34d5ddU, 0x1721202a220ce618U, 0xfad43e1811d3fb31U, 0xfd05530ccbe4d1ddU,
  0xf03f213a26370ae5U, 0x35dfe1f803ff2c05U, 0x19c1f90e04dee129U, 0x4106ecfbc6f221f8U,
  0xadf14120402011bU, 0xcecb11d12bcca1cU, 0xfaf7e102fe11f50dU, 0xfd12c307e9fd0fe6U,
  0xe20a14f126ed1614U, 0xd9eaf7d7fbe0f330U, 0xf6f636161b011808U, 0x803f1ebcd0322f9U,
  0xaae6f80b350c0ecaU, 0xf3d2a0adfeaec0eU, 0x50c648f6ffa90327U, 0xedff4c0bb5f222ceU,
  0xf8381ef70d05c724U, 0xfacfd0dde1fd06f7U, 0xb8044022c9d12632U, 0x4124430bca17e7ebU,
  0x5eae03be10ff8f6U, 0xf73ea3f505d5d710U, 0x15ead3bfcf220b0aU, 0xec50d7d6f0c02618U,
  0x114e0621f4ff2d4dU, 0xafeccace09efe90dU, 0xcbedf6f8cfe3fa0cU, 0xf8d3eed9d4dbe30dU,
  0xe4df2433501713c1U, 0x36040f0724e4edfdU, 0x2d040ac1ba9b081fU, 0xfcc023e0a8080eaaU,
  0x2a4209f0ddecfefaU, 0xe1f1b1f7a714e005U, 0xd9f638f6c7f723c5U, 0x5bf12237a74000ceU,
  0x11e9e619a0f7d6ddU, 0xea23adcce6befac3U, 0xf8e8ebc7cdee37d8U, 0xf631e2ebc0b30cfdU,
  0xf47a431c04004860U, 0xd4bdb9fcc8274710U, 0xcaa2c2fbd7d52418U, 0xdc0ceed1edf6f63eU,
  0x6f80146d3d92515U, 0x43485a04095c3b26U, 0x14260ccee10702c3U, 0x1d1edf18f50e34a1U,
  0x180eeaf1d5aff6cfU, 0x11d7f64ac936c1f4U, 0xe7f5fb57ff0b100dU, 0x2e420e1bcb34bc0eU,
  0x336af2fb82e2d10U, 0x13dd0a06d7b9c5fcU, 0x2eeedac9017d0c24U, 0x940010304fed54eU,
  0xfa40191d41b4d949U, 0xf922c73d432cee27U, 0xafb27e0c3dc2549U, 0xfd49e637b73819d4U,
  0x30e37eee59d9f9ebU, 0x23014cc31e12392dU, 0xea4a4be6c0d20c37U, 0x13f3f6fa1819e9ebU,
  0x4837d7fffcac0812U, 0xf301e6feeef8c7d9U, 0xf5094e2ef7fceca8U, 0x38400724e2e2ba00U,
  0x41f2f1d6114a0218U, 0x142f55d13808d9d0U, 0x2198fd10ad3a1800U, 0xde22eeb663252726U,
  0xed071630c4b31341U, 0xd0d9d70a0440f4e4U, 0xfbc54729cb3f37ddU, 0x4ce8e9d7d709f6edU,
  0x4a060a2808e71231U, 0x5f5f730040c222eU, 0xf24af3abc7b0d741U, 0xd20d19df220e423aU,
  0x2c4f49b2da0dc922U, 0xde1eecef0dfdcec5U, 0xc12852cbf82b0c9dU, 0x34ec2738c83ee3f7U,
  0x322aecc4fe5cfd36U, 0x132c14d84f0e18faU, 0x6a0345110045d6cbU, 0xd940f8a12837d7cbU,
  0xdd25efd4f8191653U, 0xdd00101be3f9fe34U, 0xfb0141072b4ad73bU, 0x2df5e503e503411fU,
  0x2efd022503e23322U, 0xde27e2da293617f9U, 0x31c63f21e28de5ddU, 0xf9ec3d3bb02804d0U,
  0xf30c41cac412ecd9U, 0x7f8f9f2d910feebU, 0x9deb0a0cf5f145e4U, 0x23f6eadeaed5c3d5U,
  0x26debbc694d207f3U, 0x24099feec3e9d5bfU, 0xe206b500a1c8ded0U, 0x31ecacaac90be3ccU,
  0xe82df3f803c127dcU, 0xde110e06c5db2d38U, 0x6aec01a15f528e0U, 0xcd062ed9ef064f07U,
  0xcff842f207f63cc7U, 0xeaed280d30e5b308U, 0x510b5b0da1f5f7fbU, 0x91e03407a91318b8U,
  0x2fe440fc0002eadaU, 0xd8c404b9f629dbd1U, 0xd40840eadd37560bU, 0x2a0245112d14a08cU,
  0xf033bc00c9ff1c3bU, 0x1a15fa03b0dd13c4U, 0x9ad2b0cee7d941c1U, 0xd7faff95c2e949daU,
  0x53f3180deafe0d1eU, 0xdef2fbd5c2f935f6U, 0xdfe4b5e8d2eb2d29U, 0xabbdd36d5c13852U,
  0xec12f73c1ae23436U, 0xe100d61819aa06d2U, 0x2f231dd2ed26fae1U, 0xaadc2a22b8344be9U,
  0xe549e610a52e0438U, 0xe5b6ffe43538c899U, 0x1df910e20e2b31c0U, 0x4210f40afa1bae8eU,
  0xdae1b1c1ead1dfe2U, 0x234046eacacc2cb0U, 0xc49f010c04431bd5U, 0xb0ef9c4aac15343U,
  0xf90705d88dbb3cfaU, 0xfc0cdff9fed51fd6U, 0xffb7eec0fdfdf3c2U, 0x26b5cec6aacbf2f2U,
  0xe928663de0071bf9U, 0x40c01c191efafe13U, 0x38f057cdb8c30623U, 0x1bd6e4dedad9e7c2U,
  0x65727a5fe35101eU, 0xdfa4c230ef338dd8U, 0x7f94825c118119fU, 0x11f30e36174bc1f7U,
  0x5f1b220a5f3a12aU, 0x22d9a5f58830ff16U, 0x31ebe8a1bd6925f9U, 0xc3e5f49fa1bee8d5U,
  0x37ee05e1f4b94cedU, 0x31d3f1bcd9e3424fU, 0x1baa0b02eb73d10U, 0xe6b313f4df330755U,
  0xf52a1f32ebfde0e1U, 0xcbd3514fdaf15dcU, 0x4538f4bbbfdcbc2cU, 0x87de23e8d4f9270bU,
  0xe27431b90dd190aU, 0xd5bffb1ef222f0b9U, 0xdc1042bfc601e1ebU, 0x1c08272a0958d0aeU,
  0xfa0a002bf5c2c31dU, 0xd421ccceaf0438e4U, 0xc4b006e49a303bcaU, 0xec2adb8efcdb1c1bU,
  0x5229180d930f4936U, 0xd1b2d80fe6e3e20bU, 0xc1e5d48138efd313U, 0x1ad4d2ca06dd0a2cU,
  0x31cb0f2431e946ffU, 0x30ca1fea1393d6dbU, 0x1f57429f97d81525U, 0xf3deeb2afcfaf9ddU,
  0x13dc17d091e00c30U, 0xbdd826c43f250b97U, 0x43501df5d74587U, 0x4e19f82c1e05c696U,
  0x33590622f387db29U, 0x26fce409e91b4018U, 0xc0f4eafa98ea39ecU, 0x1a2c00a51ef4105cU,
  0x5a3d2b2ec7d80707U, 0xef0fdb23d53becebU, 0xf9eddbfd1c9ef608U, 0x40b21120fef9f028U,
  0xe8e78df3e7364033U, 0x3442b3d50936289bU, 0x1ee6c3e2d2f60a49U, 0x2f09e914db28421fU,
  0xcf5fc11e50ed8f0U, 0xe02e47d1a9faec04U, 0xdf17e633e3d9d9efU, 0xb18f63d0c1ff61fU,
  0x48f543f6f2bbf42dU, 0x103f343d17cf3021U, 0xd03802bf36d854eeU, 0xbf513fdbd0143d6U,
  0xe80a232adae236e3U, 0xe8ba02fd3c0f0849U, 0xeed1abdd400e2829U, 0x349e939c0ded81eU,
  0xd7e5ca053bf44512U, 0x4a100be621eff8d8U, 0xe73d0d10db423114U, 0xe90d0fd9d324ecb8U,
  0x26294a05e659b703U, 0xccdd33f10d1e07c7U, 0x192b03db07c54829U, 0x6642e3e416f0f6bfU,
  0x3bcbef6f7ead1d5U, 0xd1291afdb74b08c4U, 0xf010b02d39071f0U, 0x65ff125a7aff417U,
  0x3fdb4371cae20b15U, 0x12f327b9c7b42d26U, 0x72a2e0aa7e70d2aU, 0xf3f3f5f4ecb8fb22U,
  0xf211bf000e14dff2U, 0x3af31b1fd617d917U, 0x4f07e8fbfabfecfeU, 0xdade3725ee202613U,
  0x5ede0ce1de16ce5eU, 0xb5d72fd9ede6bbf2U, 0x38232f1cfee5e3dbU, 0x3cecc814c807a2c4U,
  0x2eee34451705b72bU, 0xe6fbf7d0dc362df0U, 0xd71d00caa8852ac0U, 0xca03200cd9a122a7U,
  0xf5f1f49c4edf9e9U, 0xeaf81fbab2b7f10bU, 0x21f6f7fbaab6da13U, 0xeada12fbb8e0fb14U,
  0x20300c2fb7040ddbU, 0xcb58f51fa6d4e9e3U, 0xf3dd1a4cdd34f2dbU, 0xe2065615ec140bf9U,
  0xc6e2032105f6c8f9U, 0xe83ce6f9dcfd0a38U, 0x2b23e62d3ec6bf3eU, 0x70fd309b4e6f207U,
  0xeb24cdead8d13309U, 0xe615c2e8fd39d14aU, 0xf233e525e00feef2U, 0x1bb01b2fe6ffc6e5U,
  0xd4feded239234411U, 0x48f50d0b273d2133U, 0xc60505103e2ae5f5U, 0x1c4621ea4920b221U,
  0xfbddf0f0dc12cbf3U, 0x2f31cfd2bcd6d4b6U, 0xecdf23f50522dbdaU, 0x431b0acaf4c92300U,
  0xd00812372a07c6faU, 0xd50e3d320dd24342U, 0x31effbe1eee0d5e9U, 0x24d8fef3c23d13c7U,
  0x3209d302d1160a1bU, 0xe33cce18be42b3dcU, 0xcbf3f7bcedba27f3U, 0xe3d852d89ee43f07U,
  0x3ebae9d9df04ec11U, 0xd71fc735eaa1cce8U, 0xd709daea32b8832bU, 0xf40ec7a7fcb80effU,
  0x20f5cb3516fb0521U, 0xea02e3dcf522f5d4U, 0xdf29bdc6c2320df6U, 0x8d30304afd905c2U,
  0x45423949015de033U, 0x1d1737bfcffee818U, 0xe9e0ff1eebcddcf2U, 0x3b50c1160d3ef8d6U,
  0x45d81913b8eec419U, 0x6efe727eedbebbeU, 0xb10b26bee0d54bd0U, 0x2d40fae99eea57d3U,
  0xf2f82a02fad03a2dU, 0x90535e655dee82dU, 0xfcf4ee03ffd515d2U, 0xb32604d924f2cc36U,
  0x1407fd16eacff2f2U, 0xf82b2a4de63327b9U, 0xdaecd43621fc0a00U, 0x3e031fd146d6cd3dU,
  0xcec8310a03cf0b1dU, 0xe0dbe8cf01eb1916U, 0x4fb7bae303b6c4f7U, 0xe00daacab8020a35U,
  0xecd382f3302292cU, 0xe839e4e148f9ff4aU, 0x401afa0825abcf1aU, 0xfdca1449c5d81cfaU,
  0xf9f8a9d75afefeefU, 0xe84d01db0918e722U, 0xe56f426f737fbdeU, 0xd20b1a2839f023cbU,
  0xb6d981ecf70bd1f3U, 0xe4fdf20bf32cc028U, 0x1abaa3483547051cU, 0xf4cfe7bacf26b243U,
  0xfe2308e34bf63acbU, 0x423a2cf832ba5a53U, 0x5cb041f14d0bef6U, 0x21c4c3e216fd0adbU,
  0xbf00c0d1f2401c1U, 0x4e21c24614e4d817U, 0x40e210f91ef0e221U, 0xe80cfe592cedc605U,
  0xf2b9f00d45d5c6d2U, 0xdf2f52af5d1d706U, 0x18220041dffb05f8U, 0xd427d7c6191c0a15U,
  0xb9b4b4e2a9c10beeU, 0xee41e90ff1ecb1ceU, 0x1122e14feb3e1eddU, 0x1812fedddee62c2dU,
  0xc520ee0e0d70f2dcU, 0x1d360c0fcbaa1cf9U, 0xcc4eb023de7b37dU, 0xdfe1d3be3a3dd7e7U,
  0xdbc3e9384228073eU, 0xf41b1636ef1e18fcU, 0xeb49bfffbe9435e6U, 0xb260f43aeb310c3U,
  0xdae0f2dde7bdc2d2U, 0xf110ec1f4fb8fae1U, 0x21ef24ed0800e131U, 0x1047cce3fd03d6eaU,
  0xc4b1d4e0dbf7372dU, 0xf2fafd0909dd0012U, 0xf3f2142dd603e0efU, 0xe1f236f0fa2813d6U,
  0xe21508332c631502U, 0xd9c4d513611d1a08U, 0xf6e2f7060d39140bU, 0xe5c8d9ff5afcfcffU,
  0x6044e14d1eaed34U, 0x934cdfbcb4eb514U, 0xfbf0ee122cc43ae8U, 0x22dc6703f1c5fcf8U,
  0x4351a090f3ada0aU, 0x61f0ee02e3d22310U, 0x1b2a0ee308f12008U, 0x1706eae2eb206f33U,
  0x15b4df0b2bea261fU, 0xfb27b7ef60c8c4deU, 0xbbfa1cfa2bd8e624U, 0xc6e74a47f1153325U,
  0x2cdb070e246329fdU, 0xcee120e7612d2bf3U, 0x79ef1ac90640f73bU, 0xf4ccdf144210e2daU,
  0x20ea1c17fff8ed3dU, 0x3245a1f24281207U, 0xe1f8ff24e9fa1c17U, 0x121a7f0a09083b02U,
  0xee15f6f8f1f7e60aU, 0xfefad8bc41d72ff9U, 0xa3ad1e7100d0ac3U, 0xee37201de3dffb2eU,
  0x17b8ebe5000a221eU, 0xf803e8b34219f8f6U, 0xcf131dd6ffbcd039U, 0x3ae15319d0ea24afU,
  0x1527efe935443612U, 0xd2e63410f30cf1d0U, 0x37ff0c103b1eec14U, 0x10e7dafecff6eddfU,
  0xd4d60561f11f103fU, 0x2cf9f70decf107e8U, 0xf81cfed8c4060719U, 0xfb1324e8120a0a3aU,
  0xeb0a2b06ecdb12f0U, 0xcfe01ea1e1a1011U, 0xe634ee1ddec14ccfU, 0x1a233ff9d2f6c217U,
  0x3a01020d3f22161dU, 0xf2f6391f2509fd4eU, 0x2af2f2db15282bedU, 0x120d33008f7d430U,
  0xdf22fef20debf712U, 0xf32af10ae14dfc0bU, 0xbff620e31217320cU, 0x2c0b1defffed0128U,
  0xde1b03d53b0c02c6U, 0xe0ea7320252510fcU, 0x3ddf1e07ea1f2f2bU, 0x80de9ed4df8d0d7U,
  0xfc0cfb28d3312973U, 0xf50c1e48fe2ef524U, 0x225d6df102a0b05U, 0x31eafe230529ffdfU,
  0x2603f533f23414U, 0x13f10ae828e1ef21U, 0x2eec3f14371234d8U, 0xee00e12127d5ef43U,
  0x23e3d4f315ef0902U, 0x35f8f327e6561f03U, 0x9181deff5f72210U, 0xe10f26effff53d36U,
  0x54129d4de1dfde0U, 0x131842f607e86a18U, 0xf821e2041a333111U, 0x1e0dfc13eb201aU,
  0x1f0aff2a0e14d84eU, 0x27222e31bd3a2e37U, 0xf72a02413f072650U, 0xe7fdeb0312172804U,
  0x9a0a0d12f3d0128fU, 0x2322010adfc71ed6U, 0xd9f33225eab619ffU, 0xf51b11070d0834e2U,
  0xd08ed07ee3fc912U, 0x3ae2e1e2e642f629U, 0xd11736131dea0226U, 0x1ef2e42ecbf30fdcU,
  0x3e3a22e3a21d113cU, 0xee9003d1074238U, 0x817fa16f2f921e6U, 0x23e1dff097c4f223U,
  0xf91a2adffc2e27cbU, 0x1d1b4900ca221debU, 0xd946b441f1c8fa19U, 0xfe291d05302bf3f3U,
  0xc1b44f410052ae7U, 0x28d3ea0b210b0e48U, 0x170f1bbdc435e906U, 0xf0c03fc16de31d2U,
  0x21110cc6d3d715e0U, 0xf4fbdb092be6dffeU, 0xa0d1efdf4e7dceaU, 0x1e04fe09f0fdeeffU,
  0xdf0df9e3dfdbe611U, 0xfb0a3ad80ee6d8d6U, 0x1bae12cfd42309e0U, 0xe50bcd160402df05U,
  0x3f62d2cf8bf2b55U, 0x11cc7e71c07f9ebU, 0xfbfd01e1231d1516U, 0xe0c518ebf70d2c27U,
  0x4d211a21411610fdU, 0xe003dfe00d71700U, 0x62f32ef180cd8fcU, 0xf71cffece60c2df5U,
  0x6f1280af9e70ce0U, 0xea1c13ef0aea09fcU, 0x10ed1315dced18dcU, 0xf9162934be0110e0U,
  0xff3acc01e725fceeU, 0xdb08fb2a4d2402d8U, 0xaff05e9e943f9cbU, 0x1d03d7e20f2cd8faU,
  0x1013f5c6edfc3cU, 0xc3e50705cffb3223U, 0x26d80d12fee335fbU, 0x2ff4e212eb250ddfU,
  0x4b393ed00b35302aU, 0x2cea0e231ff02446U, 0xd8def5f7e4cb1714U, 0xccefc81f3ed823f2U,
  0xf50906cfceb5d00bU, 0x32eede1f160ace1cU, 0x628311ed6d8efbaU, 0xe2e81b1ed8fb1f2aU,
  0x2238e0ec14050015U, 0xd1e71adf0431f0f7U, 0xfd11e03bed43191bU, 0x22f8c4e5492a04faU,
  0x13eb20e7e5eb2435U, 0xc02b1afcc02e1d20U, 0xf80fe8e3303d1713U, 0x1ad0efef0712ea25U,
  0xe721c1e40cf106f0U, 0xf9100043e4eae5e4U, 0x2316fdf9012fff0bU, 0x1afaf4bc202edc39U,
  0x312df91ae2f5f7ebU, 0x10ec312405f9ececU, 0x23decb27dbc2d4ffU, 0x272d29f0370cf502U,
  0xfed60b04fb22fcd0U, 0x21d90a43ef1605ebU, 0x282822e2d81dc1e2U, 0xf4fcff0f27f73fd8U,
  0x9f8bf1526dc2321U, 0x180006ef0dfc12caU, 0xf4ea1cf8f42ad1c8U, 0xc6f0cfaa1a1a9918U,
  0x1e26c0cb02ecff2bU, 0xd51bd431cff927e6U, 0xefe90edd39f325f4U, 0x1c15cee3fcf0cf28U,
  0x19ded2f6e10dc518U, 0x3917e8e6ff9cdeefU, 0xf1ddb329faa5dec4U, 0x4281cc6de0e1712U,
  0x2408da0c0d38d6d9U, 0xc6f700352711add6U, 0x3b28ffdeebf6ecfeU, 0xafeadae02bf5dae1U,
  0xf5fe06d628f5fd00U, 0xda32f4de38dc1800U, 0xfac32af5fc39c012U, 0xe5d8d2be0be2fc07U,
  0xd5fe1802cee8df0cU, 0xfd181d1fcbee3b3aU, 0xe2e8d910f90d38d5U, 0x27fe01c4ecd1b925U,
  0xe8d031f303d8b8f7U, 0x819100d0ce8260eU, 0xeb1e030bf5acedfeU, 0xe7f9de07fff7f3ebU,
  0x29100a09034527aeU, 0xf3f607394dd5e81eU, 0x33372200303eeedeU, 0xc7ede5051024bfb9U,
  0x128fbea241fdd0fU, 0x2f716231a1df62eU, 0x17e9ee10f00cdb09U, 0xe0fbeaec11e8f2e3U,
  0x16e2acd819cff90eU, 0xd921ace00411c8faU, 0xd605e32b0fdb15e2U, 0xd9fa09c3e7000e13U,
  0xe6f3e238e740bbf4U, 0xcd109ee0ae12813U, 0x14e1fd04290e2d1dU, 0xdfc625e40fe520d5U,
  0x28e92823d5efe7f1U, 0xbf12323ad00328e1U, 0xcc3f0bd7e5df18d4U, 0x2c9fafcd9f1070aU,
  0x18dfdb1e2c46f1d2U, 0xfc2526202ebb3a16U, 0x32ec0802e9efc0c2U, 0xeadd0f00ff04cc33U,
  0x5c1b6c508c4e547U, 0x1720b111bcebe1c3U, 0xf2f1fa112101d7ccU, 0xebe302b527cc02ceU,
  0xc2e62a23de13e40fU, 0xf20423e01fdb1e19U, 0xf100dbc522f2ffe1U, 0xd1fddc072afd0b0cU,
  0xf6dfe7ef23d1e5e6U, 0xe323f7e0272fffe7U, 0xeb0ae827eaf40516U, 0xecd9e8330fef06c4U,
  0xe33209e81824c0cbU, 0x1bddf218f50033daU, 0x80defd9de20f9c9U, 0xf7f8c3a52a0eb623U,
  0xf3e80eeec9e2ff18U, 0xf9caf8f7f60af2edU, 0xd6f8c0f10d1df927U, 0xf621d6c02bbf1200U,
  0xd6e820e71ecb0ff9U, 0x16f9290b21caf2feU, 0x15f10322ebb7df08U, 0x18e303f11f1fccd7U,
  0xebf3a0f11004bedbU, 0xf91749f1f9da20cfU, 0xf7ed2516f0e8db09U, 0xc612b4e9ef27edaeU,
  0xc8e7c32bf9fa0d16U, 0xee210623110de9d8U, 0x3bfd0b13d7f6c21dU, 0xbcc907d8f9d6eedbU,
  0xf032d71de526fae6U, 0x446f51fb2f035fdU, 0xd21ece12e5054ed3U, 0xe1106fc030c10f8U,
  0xd5e1050eeeebb0d4U, 0x421cff2c0926f42eU, 0xf32f01140a112416U, 0xf6111c18f1fb1e3aU,
  0x6220ef8ea06ee16U, 0xe7174cfb0af5111fU, 0x321918f8dd09c4d8U, 0xebdf1c2b0ddee1U,
  0xd0d5031b1efcd01bU, 0xe22071febe8d9f1U, 0x6023621c7fedb35U, 0xe319c90a021db109U,
  0xf72e0c110e0e1414U, 0xd219df1be1fa2702U, 0xf613d0f8170e00cbU, 0xd80119c01b08fbfeU,
  0xd2e4332ee3cde41aU, 0xed120c33190de541U, 0xd70710281cd20242U, 0xeeebf0d0241717e6U,
  0x20242d330feb11e0U, 0xf4d3f6efe912ffe9U, 0xcf1aa1aebf4e5f7U, 0xf7ded8ecb6d7bfd9U,
  0xf6f9fef520070cc8U, 0x223c0e0dfcf5ebd4U, 0x1516090407f0c6ecU, 0xf220e7c5e80ff7eaU,
  0xff18dc05c80bd9b1U, 0x1cf9d004e7101aeeU, 0xd5e6f61df6463023U, 0xedc2e6f805fc1619U,
  0x1919f03526e50ee6U, 0x24f41fd0c5d20f55U, 0x20f314360d050b65U, 0xf96602eab9ee2110U,
  0x1c004404fafb13daU, 0x80edaf5ed3ab83aU, 0xe0a60f19b91507U, 0xd7cbe23eb818becaU,
  0x5c2fe090ce5f9d4U, 0x19e62305d281fb28U, 0x16610eec0800bfebU, 0xc9c0dfe720f3cc0fU,
  0x233dd3c7cbd4caf3U, 0xf909d30bdf2ad714U, 0xe8c0f5fd23f60fd0U, 0x19d9e4e200eb11c6U,
  0xc7e400fb2debe401U, 0xe8230718cddbdf15U, 0xe6cae7c9f1e10ae8U, 0xb6b8f3c71be1e7e9U,
  0xf5cbf5ed091afce3U, 0x24f3f7e12ce4fffaU, 0x2f22e5f41215f925U, 0xb5efc4060933c8f0U,
  0xeef1c5e60afde61fU, 0xaee2e290311c6d2U, 0x2df6e12d16fac1ddU, 0xbaeaa2b03d058102U,
  0xcefee520facac2ecU, 0xc90bd8f0b0ffd6f6U, 0xf38d08090a160abeU, 0xf5e3018e34f8f1e2U,
  0xaaf5f40e2efbb3e2U, 0xfafa0427f6dc071cU, 0xdafbbf29bec01ce1U, 0xf0b1b9160dbce2dbU,
  0x1ad722ea262801f9U, 0x182017e8241ff001U, 0xe71bdd0007edccf6U, 0xc6e9d0f7e029bbc4U,
  0xb70fbc04151aae2aU, 0xca12162accda0e1dU, 0x160c25fb222bc921U, 0xbfd7b6f704fe06d7U,
  0x1801cef7c4fde220U, 0x212bc709a0ce1c07U, 0x9e7e44b2b381508U, 0xfd01d2bcd8a7ccf1U,
  0xf3c932111fdfd0ecU, 0x353526d9fc11f3ecU, 0xe80300efdfda2215U, 0xd502e0e541c10a25U,
  0xd4fb28061aebefc3U, 0x2af1cd0120f6dbf7U, 0x1a31230829fcfa1eU, 0x2e0ce319d802f4edU,
  0xf024f0e72e34db1aU, 0xb410ee809ea0c1eU, 0xe52dc8f2f134a0d1U, 0xc620ace70909f625U,
  0x3a27f60e341e2433U, 0xe3f9e4038af6fa04U, 0xf6d1d2ea300913ffU, 0x1102beb3e2bdfad6U,
  0xdb11fa0807d093efU, 0xd08c73010d91640U, 0xfb2cf006cfcb10dcU, 0xffba10ee1ccd2402U,
  0xdcc60102dbf516c1U, 0xf8cbfeea280afc2bU, 0x3d13fd210b16c0e2U, 0xc8139d1fe11efb13U,
  0xd4d412c5d92bd449U, 0xdf2a2c06edeae802U, 0x10f11236f02ad41dU, 0xc4e9b698f70f91e9U,
  0x342b33f037c70810U, 0xccfbf505e6353e09U, 0xe5c60705e00b05e1U, 0xd2e211d11abdf70aU,
  0xd82f27db1fb3d8d6U, 0xdb11bee5d30402ebU, 0x9601fe22aaa8ead0U, 0x24c930eae5f70431U,
  0x23139c0016fa1698U, 0xd300011cfffa0107U, 0x2dff2a291102ffd7U, 0x4f2aa0d01078ce0U,
  0xa22c0605fcf4da27U, 0xc0ee6fbdcede217U, 0x43da220dd6ffd508U, 0xc2ddcec2201de00fU,
  0x643cf6fdddcf2906U, 0xec6ecd9dd260ffaU, 0x1fced920282ef8ffU, 0xd113dbc33517ed29U,
  0xc62d12e608cbd4c3U, 0xd423423f9d5dfdfU, 0x9ada292e07061fe4U, 0xeb0043e415cff141U,
  0xdf2d207270aebefU, 0xe3e539173c2ceb24U, 0x5c7322a312dd112U, 0xfa13e1432e2ea4c1U,
  0xc2ee19e9f0ecd91cU, 0x21370d0117fed80aU, 0x443107e0fc07ccedU, 0xc5cfb6d525121bf4U,
  0xdec72650043907e4U, 0x26faf8d8cf12d6e6U, 0x230ff524f7cc12U, 0x8f50eb7dc320eebU,
  0x23f227d6dedfbb16U, 0xe208200cd9e9f517U, 0xf60e191ecbe20016U, 0xa132f02c516f7faU,
  0xe6fedf161ed0c0f9U, 0xc8cb05fb14c631fbU, 0xecfed7fdefd904c0U, 0xad4fb50818fcb9d1U,
  0xdc0522f0e4f53026U, 0xcdf6d9e0dddef4f7U, 0x19b2c6c6fcf00512U, 0xbbdb0edcd1df0332U,
  0x2d0f2d01311920cdU, 0x2208b2f7e9f52418U, 0x1dda23fd16d1e52eU, 0x1ded22cffd3518dcU,
  0x375321e3d49bf821U, 0xff21c2fd133bed7U, 0xfa482b12c4b0ffccU, 0x16d60f0deaf8f6cfU,
  0x3300ce2119f4fbf6U, 0xd018f21cdd151e16U, 0x1af8ff0904a8dfbdU, 0xc0f9b1cfe7c9d3e9U,
  0x10e039dee2e2292fU, 0x19d20ee3a8f42947U, 0x19ecdf06d6078b14U, 0xa1d8d9b4fbf5f9e9U,
  0x4825ec0b2024151fU, 0x1abab929a9d93842U, 0x3252117e825d4dfU, 0xf41dfafa29303d1eU,
  0x32411309b8b6c41dU, 0xe1faf0de21ce1d08U, 0xd136350a06f3ebbdU, 0x320d2425e0d61b16U,
  0xe71bd41c0e08e4e8U, 0xe2f6e10e07192dd5U, 0xe9051debc2f506U, 0x230afce1dbedc1c7U,
  0x7031d000c23e104U, 0xf1082ae104b32af6U, 0x3624f51ffbf7cfe2U, 0xf3d5e615f6d00102U,
  0x3b0e7a55dade20ffU, 0x311256ef0f395610U, 0xfbe71adcb5092df3U, 0x53ea02432f361b04U,
  0xd409e9daeecaf9fcU, 0x112c0c14e530f414U, 0xccee3132cbc03de3U, 0x1e0e281ad8fcca03U,
  0x395fd8170236caf4U, 0x3ef2e8d4de032d07U, 0x1ab2ccfae237f7eeU, 0xf8f601bd091e405bU,
  0xf21001e200d3ef74U, 0x1dd9e516f7230ce7U, 0xf8c40ee22920275dU, 0x5820e73a00027f0fU,
  0x135d070b37f74ab3U, 0x13bbff5d28223013U, 0x37564d0d21fa4711U, 0x3ecfe651e544f75bU,
  0x2e181c18d8e9faf4U, 0xece2bec7e4d2646U, 0xc09ff0031383ad8U, 0x371430163435220dU,
  0xe65b3be923293350U, 0x1cb1bf5db1af412U, 0xffefc60a1113e80cU, 0x433b18d5fd104c17U,
  0x37260c19d8152a34U, 0xd6f5d82ab22a23e7U, 0xf1629d9f018fb3dU, 0x224cfc122a3a72dfU,
  0xf0112d1c2cdf22eaU, 0xe5e33622271e0530U, 0xd83c32e21fd300ccU, 0x7df2929dcff2b31U,
  0x2f24e9b317d4f5dfU, 0xffd401ed1215f3f7U, 0x100ef51c1f332416U, 0xf41819ddd031e500U,
  0xec2a181c0e32373fU, 0xfc31b504e80aea0eU, 0x1006dad4e3c7e208U, 0x47203631becedd40U,
  0x9dae8d8dae7eccbU, 0xe3010f230d19fcd1U, 0x12021c2433b93bf0U, 0xa2b272f0e11f60cU,
  0x19e01c2d032df524U, 0xefd63feaeedd0a1bU, 0x53650cb2a1453203U, 0xd5cb0702d42de8d8U,
  0x3f38e30bed00062aU, 0xdcc0ea26254795e6U, 0x31a2ffdd80ef9fdU, 0xf48e6f8d9099bd5U,
  0xc5ffe1998caaf04U, 0x80b2fcce301f805U, 0xbfa000c6ca3a35d3U, 0xf41f0f09019a1cf9U,
  0xfee224fc9ce312f7U, 0xdfb9e800f1143a20U, 0xe0adf6d82ad9ed14U, 0x55ce5902b5287818U,
  0x6bfc2df70b06226aU, 0xc8dad179b6f808U, 0xf25bf7d53a6dc0f5U, 0xc0e1e4fa0b073566U,
  0x3ef814f90d222aU, 0xd80a47ef22fef0b7U, 0xf33d1bfc103c11fcU, 0x83cfd031ef0b40eU,
  0xe22f210a0adc1353U, 0xe2135b060d3f40f3U, 0xbfcd36fd2f0efebcU, 0xf51e181520ff2b2aU,
  0x13e94305e3c0232cU, 0xd703ed09fd2a3fd3U, 0xdceddae30b2310cdU, 0x4714644c21e5160aU,
  0x1ee0fcbd31f9ef1bU, 0x2feef9e924daf5adU, 0xd21e3921f6f6e307U, 0xba0dea37e312102cU,
  0x2919f8ede50d05feU, 0xa184eee0f34f2e8U, 0x38e4d4b5f6fc360aU, 0x6391e3807222ed7U,
  0x2be62ffcdbdb13e6U, 0x15e708f130025c3bU, 0x12d6f40238173bf5U, 0x3fec02f2c02f074fU,
  0xbf4e307d51637bcU, 0x2df2ffaf2131df2U, 0xbd40dffc0c01fdfcU, 0xfb183b34f6f2dcebU,
  0x8d7201121fd1dd1U, 0x2cfa21003d15ff12U, 0x270d16c6cce9aa24U, 0xe9ed0435a6ffe909U,
  0xe43504f6da0d25ebU, 0xb4e1eadef2f2eef4U, 0xd8daf7f5da3527f2U, 0x2b151b17d526c9a9U,
  0x1b30c028ccffa92aU, 0x471510c8e31dcdf1U, 0xcfb8e3a2da273e07U, 0x83efee6ebfa3114U,
  0x1140de7c0c525f6U, 0x4eb97d6d3f7e6ffU, 0xe6eeebc705e23cecU, 0xe307f226edb71403U,
  0x19a5090de7ef0ff3U, 0xe50af4e24f08dabcU, 0xe60a01cbea44bf10U, 0xd6c61217e4edee23U,
  0xf600cfe6bf124103U, 0xd7b8d6df2a171bd2U, 0x2d20ead538022cffU, 0x11061e3d1237f7d8U,
  0x333ef5bfefdbe750U, 0xec1651da0a2c0fdfU, 0xa91cf6c40c1400cbU, 0xebe71d1302dd011fU,
  0x60df432006b708ecU, 0x260ecabf341201d6U, 0xcc918e9121746eaU, 0xe9cc3b14fdfe121fU,
  0xcf2ee7162bfd2b0aU, 0xedd3df1b20e0dacbU, 0xed0ae60c30ea0cdcU, 0xd8dc14f1cbdd1855U,
  0xf0e91bf1d2f62d04U, 0x35fa17d653cd1cf8U, 0x54d7f1b1f82c17edU, 0x13e92aed0d2317d8U,
  0xe0032ff52efee917U, 0x4f2d02116eeddf2U, 0x1d13f5e7e640f7faU, 0xffe049ee2f143121U,
  0xf40b12ceec292a09U, 0x1dc420c84c2fecdcU, 0x1121df1641dc15d9U, 0x10e74205303b0305U,
  0x4c0e12c604eb0ce7U, 0xee00dff5ebbce9f2U, 0xe84bcfff2c0b1203U, 0xc00af6ff3c4be2e8U,
  0x1811de0fe1ed1b2cU, 0xcef0021144f525e4U, 0x36f91afb0be5eef8U, 0xefa4000f48ebe8fbU,
  0xfbd11ff9e2cedd04U, 0xd72e33cff52709f6U, 0xe1fdf22f051405dbU, 0xfce12d26f0033a10U,
  0x3140fdffb2efedeU, 0x3af32a12e8f5f4c2U, 0x2a06fce910edf60aU, 0x40ad501f40420dbU,
  0x21cc804f6fbd1f2U, 0xfce41fe9271ce7f7U, 0xee08cd06e829e7e0U, 0xd51ee40d2f0ed4caU,
  0x21fdeb051fdf0906U, 0xc8301702321e25b7U, 0x3816d2f6f9dce4ecU, 0xfcb1e807e7fe231cU,
  0x1ec9ef17f1c7edc0U, 0x1406ed22103417ffU, 0xcc0a0523f1d8d5e5U, 0xfed231f6e23425feU,
  0xd17dbfef212e2c6U, 0x9e33c28f4e0edfdU, 0x2124261206f723c7U, 0xfc18dee1fbdecc07U,
  0x222fef100fdfd0bU, 0x142915291b2cdc19U, 0x23dcd4322e3ddbd7U, 0x2f37ded117210ac7U,
  0x5fe13f3f8ed0404U, 0xfbf2cfecebc42af8U, 0xebe8cb11ecfedcb6U, 0x9e4081005e300fcU,
  0x180b031edf260dedU, 0xfaec2c05deebcc0bU, 0x152307fc2809c20bU, 0x23c5241608300e00U,
  0x160706ebfdda1708U, 0x1ce912ef291414eaU, 0x1017de1fcdfe1f1aU, 0x17f00f28f30c260eU,
  0x2f0d19071d22f8ceU, 0xff9d14e4fd13fd35U, 0xdd26f7fb2d29c9efU, 0xf506d5c20d38ed3bU,
  0x11e1f31ceaf1f725U, 0xef24333329252af0U, 0xdc2e0ae4cdd60ec8U, 0xf1023514e7030ef8U,
  0xce31aa2f81cd4ddU, 0xdbd757df0b403213U, 0x25d4c80d1fe6c9c0U, 0xf9d5150b503125c7U,
  0x2c07f8cecf162d14U, 0xfc26ccf4d0f424e5U, 0x37e923e6fe33a703U, 0xbbdadcc0eb0cd9f1U,
  0xb0ae6baf5ccf8ecU, 0xf4f82214cad62fdaU, 0xc537bce11e200b01U, 0xf7edfacf16efe64aU,
  0xfbf0e90ac9dce5U, 0x3bec3d19fb02ec24U, 0xe7f505d0fdb6e528U, 0xbe23ebdfeed31d25U,
  0xe1fef2c5f32c2db0U, 0xd3e809d2e436160cU, 0xf1feec0e2acd110aU, 0xc00728fb0e3b1a0bU,
  0xfaf2e40f1c170d0bU, 0x1335050baed30befU, 0x193c08f40c13c0faU, 0xcdedcad230f4f3c1U,
  0x15fe0609b3c3eaf9U, 0xbbe7d6cfe82cfbc9U, 0xfffafef624f3171dU, 0xfeeeeabd4101cfedU,
  0x2f6e1ec0b1d04dbU, 0xec2af90b2bf918efU, 0x3c05d8ebf2a204f8U, 0xec3af5f5edeb30e8U,
  0x230d0afbf5230691U, 0x28160000feeca0d6U, 0x7fefa0fead6f30dU, 0xc6c42840f9ea0a04U,
  0xc1b6f800e9fad8d0U, 0x35342124e6f0c31fU, 0x91422f8eff0e6f2U, 0xfff7b9e51c0cedfdU,
  0x1bd6ecf72b13f818U, 0xd68ac620daa52314U, 0x649cfc50955a61cU, 0x81f301c1f72ff53bU,
  0x7e218e492b7da14U, 0xde1223cd4cfddbb3U, 0x122d0ea6e2d5f586U, 0xec0e0632372cc4eeU,
  0xb22d2eadbd7ddb4U, 0xb2f329ea084008c0U, 0xe5bfc71132e912acU, 0xdff200ee36f7f8acU,
  0x2afef813d3d2e833U, 0xf6fdf4dacce2ebecU, 0x26f2f7d3aaf4cae2U, 0xb38befb6eba3f30fU,
  0x4ef3cd1417c4f91aU, 0x2e2e436efcbe616U, 0xf9f0c1ec292508dbU, 0xdbcddce74a190613U,
  0xf5f1f10cfdcefe0bU, 0x2b07f0e656fa2de5U, 0x3a09eff0c9e1d7a3U, 0xe4dee2f917c3db3aU,
  0xd9f020bd06d127ecU, 0xce000e0c26461de6U, 0x20f71c393fe1f605U, 0xd1ff09de4b141bf2U,
  0xff0efbd3ee2b04efU, 0xfe0616090b050cf7U, 0x2e1d2a16e10ce6b3U, 0xd0d0cddaf90dfbdcU,
  0xf11ed6f4f8bc07cfU, 0xdd03cdedf00f2019U, 0x1405ef37002b02cdU, 0x23ece0e634f0cc2cU,
  0xcbc0140530f90ccdU, 0x3ef12a022cfa2d14U, 0xfef7e8f4fcb918ebU, 0xb1c8f6fd33e0f319U,
  0xd7cdf0d02d100dd3U, 0xf4fbc4212cf9c309U, 0xf4020d1730adfdf3U, 0xf010e232df15c91cU,
  0x1922dfc82f48dacbU, 0x2c252a0408e6c921U, 0xf805130bd22ef326U, 0xc057d4e12ad8e2cbU,
  0xdb1a9113c5c3e6f8U, 0xfff4a023bfda06dcU, 0x1820e9f1c31202e2U, 0xe1c421c4160ff413U,
  0x11e1ece9450eb729U, 0x1dc8e0dba5dd03d5U, 0x1521f5ecdd0cf513U, 0x3ce0fc161deddf1fU,
  0x15d31a32fac9ebe4U, 0xef0fc6dbe53c0b2eU, 0x171cc6e903c2231fU, 0xb7fb1ae394fe27ecU,
  0xf20cf3ea430718bfU, 0x5b0b01c6dbe625e4U, 0x15dfc825f8b80d2cU, 0x24eaa7b014c4ff1aU,
  0x1ad0a5c313ff2bdfU, 0xdafea6d705fc13ddU, 0xef4cfc421f7c0fcU, 0x29bc37b2f92be31bU,
  0x3336f2ffe635eb3aU, 0xd5ca3200fed50c1fU, 0x1e0304fa2bebe0c6U, 0xf31dc42e3718f4beU,
  0x43c5463fd1d909e0U, 0xf7f2dbe3c31d2017U, 0xc912e7b91da222b6U, 0xb2323d0cc79d379cU,
  0x80f17050c01f1eeU, 0x311be5b005a5d115U, 0x81ce90bbeb0b4ebU, 0xc10202ca00b2d71fU,
  0x20a9b8f91301f60cU, 0x50e81ee0be1cfc3U, 0xf614d500e202daf8U, 0x21011ce8adfd19feU,
  0xf7de25470537c711U, 0x6c509d902a1ccdaU, 0x27e51d07f9c70ec4U, 0x1548b7151109cbf2U,
  0x1b104aeee5c017e4U, 0x2524d6e3ee12c8d0U, 0xd0d6bd08ed9b1efdU, 0xcafe41f7d7e75cebU,
  0x44e51a5808fa2d8bU, 0x39eb06e5f3c9280cU, 0x2beddb0fffcb1514U, 0xb1f5dfbb07a6e11cU,
  0xf51a2afafa21f836U, 0xdd571028f7e7410bU, 0xbe62931d2470323U, 0x1ad408ef16dcd411U,
  0x3000f429ef3aacdfU, 0x290f3406df18d52cU, 0xf51fed22520dfa12U, 0x2036c304212a39f5U,
  0x2a3fd11807dce5f8U, 0x1bece415f021fd52U, 0x2f06d3021e1f1120U, 0xadf31f7d03f00f9U,
  0xffa4c2e71431e728U, 0x40411d0c28222931U, 0x432e3bf30c0ded1fU, 0x2937fb0df437d81fU,
  0x130cc4c2f5d8d63dU, 0xd100c9e8e3dff0d0U, 0xd934e9313df6fb2dU, 0xeaedddbc32db0807U,
  0xe9ddd4050163d6e1U, 0x283a16df39e4d901U, 0x3de1200d3db0fd07U, 0x1edbcee43b32071aU,
  0xe80025ec35ec2ec5U, 0xc2292c0f0e2b0f1fU, 0x2c24110ae1b9e106U, 0xea1300ff1e421ccdU,
  0xedd7bb04fdeee9e9U, 0x3fe629211f18e1efU, 0x310ae52bafe91129U, 0xfcedb9d30bf2e51aU,
  0xdefbc1fac724e902U, 0xde00c146af31e325U, 0x2e320c3f2248120eU, 0xd82c30ba03eacb27U,
  0x34f607e8e31fc1deU, 0xe40a4117f1e8e1f5U, 0x10f8d9e623fac3d4U, 0xe723cd2848fd243cU,
  0x241a063e1cfc39d9U, 0xf4e8ddfe0203f144U, 0xdd51e90701b52a31U, 0xd6e84200e4ec41cdU,
  0x35080ce8dd2bd6e2U, 0x1323042c29150221U, 0x33437ffee37b12fU, 0x4d4ab13ebf5e642U,
  0x1becf1fdf804e3ccU, 0x31df41ba3e549e8U, 0x180efedbf11729d2U, 0xf22afe214935140aU,
  0x39ebe80d12dff2e8U, 0x7f3f8e449c3403eU, 0x16cb1b15fbd4cb4fU, 0xf51617ff13284550U,
  0x160feb003728fae4U, 0x2a0e5a3e4a4dd9f0U, 0x300a043023f6ee1bU, 0x19100402e9f126e0U,
  0x46c9b3f8e83be309U, 0x260029eff703e71dU, 0x242e06e901dfc711U, 0x232f8c83d04b901U,
  0xd705031924f3221fU, 0xea49f32103dc34ecU, 0x703c4f9fd5ae8c9U, 0xea0deffbf11ddaf5U,
  0xcf11ed3bf706d214U, 0xe0f530ea4fb80517U, 0x5418fc2f29cf2204U, 0xd2fb1fc42f233e08U,
  0xd9e94506fff3f2b4U, 0xdcf00c38460cdf18U, 0xd4e8e71ef2e8fc38U, 0xcbc42a4b1a15f6d4U,
  0xfee2fcc046120fdfU, 0xda2530de1ebdf5ccU, 0x2b12010502d3c4f2U, 0xb4ffbba1dfc108eeU,
  0x140aed112712f22eU, 0x61cd831c31ae8caU, 0xfd3cff20022232fU, 0x40e909eb262abf10U,
  0x15f4d640fe3bf822U, 0x23040b3604e62bf0U, 0x3ac3081d41b3e60aU, 0xeacef0e9d6c53e27U,
  0x1309143aee2206b1U, 0xfe62b485ff8dbfdU, 0x33fb1f2aef5717f8U, 0x60b02de1a17ccb9U,
  0xfaa7e7db38cee8d5U, 0xcc1521de5713e801U, 0x41d829e09f14e70eU, 0xaaec02af0dd4fefbU,
  0x110822292013fe0eU, 0x11f713f80fdbf7U, 0xeb1c230636fb0008U, 0x25100dddfd110505U,
  0x16152b0b1c2be904U, 0x1ddc01115528de07U, 0x270d001a0425f2e3U, 0xd1f2ff194d19ecf6U,
  0xe32e3005dc12ebf8U, 0x14e602ec08f30726U, 0xfa2019fbece7ece3U, 0x19e627f50900072cU,
  0x7302014210adbe0U, 0xfe251df138f9fc1cU, 0x270cecec26270736U, 0xd26f1ee37e23608U,
  0xdc113e1eecd4e322U, 0x81bf62109fbff0fU, 0x1900ed1822fc1efaU, 0xf0fe6fbece61befU,
  0xe6ea21f8fa1c00f4U, 0xe219ebfc2f3e1c12U, 0x2be3190a3109fff4U, 0x1ee04fd57f5f9e7U,
  0xf80d19dfd317011aU, 0xd4f6412110f01a04U, 0x73e0701de27e907U, 0xfec1b18021bf310U,
  0x203f0b1c1e2905e6U, 0xf8e5020a5314e22dU, 0x290fd61525f81101U, 0xdfc1517eefc2527U,
  0xf8ec303610d4eae4U, 0x801eeef12ebf907U, 0x26f001f60299f005U, 0x18140f0ff8e6f6c6U,
  0x60121d7eef1f2deU, 0xcafdd7d3b82e0af3U, 0xe3e1fd010c350fcbU, 0xe212f410d601f5f0U,
  0xf40bf8d9f2ef1922U, 0xd11de41bdbe40918U, 0xe3190ceaef0e0fecU, 0xff050fecffcb0335U,
  0x833f2f91832e92dU, 0x11d919fb1511f302U, 0xe203e505d4e0233cU, 0xf12ee61322e8e6edU,
  0xfb11400c0af1192cU, 0x12cf08e8fe413802U, 0x2dfbfeddf9f7e70cU, 0x1417de11f2180eb3U,
  0x211212e6ddd928e7U, 0xe10d0f12f12cd3caU, 0xf6e20737c82a1604U, 0xec1524e713d8e30dU,
  0xe03cfdf8f0010de4U, 0xdd06070dfbdefe28U, 0x1109fe1dd30dee11U, 0xfb2705f73832e2eaU,
  0x171c0e19d60bff13U, 0xf9f0e63c2f3b23ebU, 0xe213db230524394fU, 0x141c2be90c0ef304U,
  0x203d29142fe2f30fU, 0xbf207c30e27193bU, 0x1a0c26c300e8f7e7U, 0x2a07dbf404f01bd0U,
  0x32716dbd3d61d04U, 0x182ae91cfb4fff09U, 0xdaf70605ddf5f1f8U, 0x1b22f523e5e0d7f7U,
  0x1c2ec8d5e42c1ce2U, 0x7eb3003cc07361dU, 0x1bfd1df4c80d0b03U, 0x906d004f416e42aU,
  0xf7160decf4121d25U, 0x1e140138132e0e23U, 0xebf715230e2047U, 0x1109270b1fe9fb17U,
  0x13254f0607e41fcfU, 0xe9c91fe4f91d341dU, 0xf7f31dc5c7c016feU, 0xf6eb05e3110fe8ddU,
  0x32fcf0fee51104eaU, 0x1dec04f4f210f104U, 0xfc0b2604cddf06f9U, 0xfd020113da2d0804U,
  0x2c35e4f9c71ff81eU, 0xe018c7ede71cf30fU, 0x28d8efe3f120e5e9U, 0x1a33f8cef7f42b0fU,
  0x250d30fa05bd220fU, 0x160be608811af9e1U, 0xcf3419e3eaeb120cU, 0x102d7fbe316d0f8U,
  0xf9e00822e8ff19d1U, 0x24082be432042a1dU, 0x371c3ff1f0dfdcfdU, 0x12df1ee8d7e605b8U,
  0xa2818f6f80aeb22U, 0x108df1ec7f3e60aU, 0xd5ef131cc1220cffU, 0x480403ebed26e0d5U,
  0x1925dbe8f71ff9f0U, 0xf92cc1e1ec03dce7U, 0xe2c4ec00e71bfccbU, 0xfc1ff6cdc9e3f4fdU,
  0x15d01e1bfae32814U, 0xed3d90cfd1bfd00U, 0xeaf7ff10d7d20e30U, 0xf00aeae1e2df0b0bU,
  0xfcee16e0392e25feU, 0xfcd42117e10beae9U, 0xf822fae8b1b30a15U, 0x2d5e9eaf43022c6U,
  0xf32df7d4c706dc0bU, 0xf9e8100fdf15e6ffU, 0xe2f12d35c8f003edU, 0x42cf902d213cdddU,
  0xf910ece2d013b4eaU, 0x5fac6ebc6010607U, 0xf2b3c8d7a71222f7U, 0xdcf105b6b4dd270aU,
  0xceef9eec3a12f2eU, 0xdbffbdf8a9192614U, 0xe4d7ff0908d9f00aU, 0x2ae2fefad1172ceeU,
  0xff028f60a1119c2U, 0x27e0e8f507b2e0f7U, 0xf52738bfefeecbefU, 0xbaf4feeef8f819fdU,
  0x3532f019cfecf134U, 0xf0ec01db17cbbccbU, 0xdc31f719cfeff8b8U, 0xf1defa341c20f9eeU,
  0xea11dad0e5e3d9f9U, 0xfb04f9bcc0080216U, 0xd3edd3edffcb25d4U, 0x1133f4e2b4fff40eU,
  0x1cee042eb4bf03eeU, 0xec03bfcddf071326U, 0xf9b2e6f0ede516c9U, 0xeac7fef105e81e1cU,
  0xf221e32dc7cee1b6U, 0x1e342c09dff54af8U, 0x3529b60c1f284402U, 0x7fbcfe84c1e22b9U,
  0x24bccbad1011e9e4U, 0x280fc7d00b16e82aU, 0xb805d50a0dbf4b48U, 0xf4c5c7f716e9010eU,
  0x22160c010be6e500U, 0xdf2cbcdbc43a0620U, 0xe2063105d798dd4aU, 0xbe8f52ba8402a62U,
  0x101fe8013b17b82eU, 0x2d4a362314f30703U, 0xd64bd5082bd9c514U, 0x4101fa2e280312U,
  0xebec8f14fae7e420U, 0xda47b79de3d4c1fdU, 0xe0dcd4191013d123U, 0x4af11bcebcccf401U,
  0x7bd14c6ee04f3e8U, 0x1c314e1cb14ddfcU, 0xe307ca30f9d2cf36U, 0x3cdbbdf837eee3d0U,
  0xfbded514d99f2d22U, 0xfe5bb704abe80407U, 0xedf033fd25b30cf2U, 0x6e80a40a10c1ae8U,
  0x907ea1d06f125a0U, 0x60d8f7c11ba026d8U, 0x1215e3e3c6b5dc32U, 0xeb48c9b41df00e2eU,
  0xdd92e52b103acb14U, 0x2745d0ddd3d4e89aU, 0x5325d41c02dc043bU, 0x27f228b2bdfc21d8U,
  0x151125a21753acfbU, 0xd893d7b90b230bcfU, 0xe3e24a04ee0b0003U, 0x17e510ec0c5819dfU,
  0xe9ecc80989c906ebU, 0xc446ebf6d8d426ceU, 0xeecb23d2a9ac65c4U, 0xbfff06ebbbb90dd1U,
  0x647347fcee815dfU, 0xeb710c126a10b1eU, 0xf42b8df0bbd1205aU, 0x9a07eef7fdbbaf1cU,
  0x331e19d2470f02d1U, 0xbce2f3f30507304eU, 0xe94ef7d11d4ee007U, 0x5d8d2b7590f114aU,
  0x2cdfddf5d9e1c4c5U, 0xf623ff123805f3f9U, 0xd9f11f36c7c5070aU, 0xd10442d30bff170fU,
  0xeb5dcdb8f0dae5c3U, 0xffd6eece4e1b2ceeU, 0x4ad01722f01ea9e7U, 0x290f10384011da35U,
  0xf4b2c0afd7131ef2U, 0x21fe10128ce5fafdU, 0x38ee310ad432a805U, 0x2fe9cf05083bdff2U,
  0xbfefd41cebace94U, 0x15d519e9a134281aU, 0x1109d6d3e3f00edaU, 0x282f13db13f4da34U,
  0x1160e030ffbd717U, 0xdef8e40aeb10f138U, 0xdf4e50c040cdf23U, 0x23f3f304c5cff6f7U,
  0xd3f4da040c2210d5U, 0x30cfe1c70ad8c3f4U, 0x30bf131e15def50aU, 0xd8c7bd3840efdb0fU,
  0x29df9a5011bcdcdU, 0xf92ded02e11fe90cU, 0x264515fc080b8f26U, 0xe6fad505e136ffbbU,
  0x9cf6ed2007320fd7U, 0x25f1dadf16cce8eaU, 0x2497e53ac487fff4U, 0xf3252fd3b401f6d2U,
  0xe6ea29d10e2a9ddbU, 0xfee4bed0a020de3cU, 0xde102fffff260d1cU, 0xee3ad632d5ea31abU,
  0x390b2322a33d1d17U, 0x203bc2f1fd0007faU, 0xed923ccac03f10aU, 0xbc1eefafeff4d2e3U,
  0xdfeb19fc22d5e7fbU, 0xac2de34c6cbeb68U, 0xd618e140c5b71d51U, 0xb44f12cc0913d0edU,
  0x35ffb28430f2ffb2U, 0xf5bfde36cbfffdd1U, 0xcc29e7160c2fcedeU, 0xfe4c4013405dc52U,
  0x4c2f72215f7e9f8U, 0xd24108c1409d160dU, 0x65f5fcbae11af0d7U, 0xd3f426f4f5190315U,
  0x3b6f4cef9b2f9c1U, 0x4af1cd94646fcecU, 0xcdfee7fc18c70023U, 0x20c650f6c7152ef9U,
  0x46e009e0d3aeefc4U, 0x2a20d7efc406fcc7U, 0x370924e008f494eeU, 0x4fcc7aa0ca3f4b9U,
  0xfc1cabe7b9fae7c9U, 0x26f796280b1320ccU, 0xf17bae5f70fedfcU, 0xa2f0c0efbe0e940U,
  0xeec2f9332ec3e422U, 0xec203afceca02ae9U, 0x1001151f3c1b183dU, 0x1cead509e00e201aU,
  0xe99e2efee6da0736U, 0xd18002e4dc50421U, 0xe7e3182c35ae1435U, 0xf5022222152b0a92U,
  0xc2bf0db72bcdec83U, 0xacdf0fcfd79ffa24U, 0x34ce73af2f6bd1bU, 0xacf6f5c0fcd720b5U,
  0xefedeaff0c3007b4U, 0x390bb6cb03f6d0c6U, 0x3ac4ff16efc32e30U, 0x43d644f5a9fbcdadU,
  0xd1fde0ec1038c611U, 0x281406fac9cfde1cU, 0xc60f33383bdcf567U, 0x2fdd4d28828e5f9U,
  0x1cdce643b7fa18e0U, 0x2040e5dae6c9091cU, 0x1ae4c1c1c48f2405U, 0xd0eaed1a2c606d0U,
  0xb1d3fad910db14caU, 0xcabd1e143c0506f9U, 0xa92de13022e1073aU, 0xcc2622dce5cbb80fU,
  0xe607f2edfb2b1505U, 0xdf9033ffdc00e07U, 0xf73b20e8eb390517U, 0xf8032d1dde43f241U,
  0x1702d21ee2210420U, 0x1bfd1bf233fc1b2aU, 0x4324f5062a2919f7U, 0xde3cd31919ffeb02U,
  0x342a1febffe4ed0fU, 0x12191512f305f8e5U, 0x917c507fdfb21ebU, 0x2201260defe96502U,
  0x5ef30f20d8e102ecU, 0x1ee1dee4e4d20201U, 0xda191a10eee7efe5U, 0xf601050d01fc6a00U,
  0x18cdd804270df940U, 0xee00e22716f5ee10U, 0xd825f61f0916dffdU, 0x106183205470d2bU,
  0x18db09faf3071c03U, 0xf31613f83df300f8U, 0x38fc06fa2430ffe9U, 0xf700f2e32922f504U,
  0x23e22d06fde40337U, 0x21f09fc36161b07U, 0xd8f717f9f4011316U, 0xfffd10e6ffe03a0fU,
  0x4212f4101611f7e2U, 0xecf6f2db11dc05e9U, 0x503e7fd111526e3U, 0xf817372fecee1ef2U,
  0xece222471ef71935U, 0xe018062148f0dcf1U, 0xccf2f80c10d7efe8U, 0xf2f1253700120026U,
  0x80808e00f0e1feaU, 0xe908f21d2d3d2002U, 0x70f10def009e1e0U, 0xd6d410fffb051cf0U,
  0xdfd2211df01d1118U, 0xffe8101700ef73dfU, 0x1e200f0b032dfe13U, 0x9f3110306f2043dU,
  0xf03cf702110debfeU, 0xd6f2f0061e1701faU, 0xe4f8e6f7011d3bfcU, 0xf81b0c130af62303U,
  0x1303d90700fc064fU, 0xf9fbf1f23fead3eaU, 0xcb2b14030a37e5f3U, 0xeb15010a0e1afe01U,
  0xe5e4ef0319f53c15U, 0xd61211da5a0c18e5U, 0x19fdf6df1d41f808U, 0xceff080c4216051aU,
  0x2071ae311060ff7U, 0xfec390e242e5cfaU, 0xd1f9110d25f915eaU, 0x6dd2a1e371600f2U,
  0x10250a130afbf5f1U, 0xf5ef15ff3015e4e2U, 0xfcf9efdf1bf21407U, 0x1d1835291011380dU,
  0x21280e032aff0c1cU, 0xeae310204e1901f2U, 0xeb040e0621f706f3U, 0x5040325efe80eefU,
  0xdb1717e2e7ff23daU, 0x220af2fc03200b13U, 0x320d20071132140aU, 0xe327edef03f4f9f8U,
  0xf11aea11f60e2227U, 0x5f21d11fa017f14U, 0xe180d27f71a0713U, 0xf061b0d0616f92dU,
  0xd6fe05e3ec03fde8U, 0xea0a1b2513210b29U, 0x16fa16f7041243ffU, 0x2d00140b1a1f0c0aU,
  0x1521233520fcf209U, 0xe3fe1ef51a241c04U, 0x3c01160cf3da0810U, 0x151ceb31f1ec18f1U,
  0x1b32f4f622fdfde2U, 0x151de718db2e0ef2U, 0x2fd1f38e915fedbU, 0x8fd200cf201ebffU,
  0xf11edde3f812f8edU, 0x11d60103f9f24b13U, 0x1efa280b0d34f7fcU, 0x1717e3e5f9fad70fU,
  0xddfbeafdfe06ebe7U, 0xd21503fd0a31fc29U, 0x50df829fa0b232eU, 0x140f0e120a0fe8f8U,
  0x1702faeffdecf008U, 0xd906fc0001091001U, 0x16031b181d01f1d9U, 0x1025e6270ad2f810U,
  0xe2f9f9fb15d003f4U, 0xffedf9f21a28061dU, 0xbefecfc0afbfb1cU, 0xd40cfbfaf6dceb02U,
  0xee718ec270b120fU, 0xefe310f105f2dfefU, 0xe91c2622fa250af5U, 0x918e1f1080609f5U,
  0x9e3d0cff1f5e009U, 0x3fcf21822f0dc16U, 0x1a080de9ff1d2f1dU, 0x1af4fc33212435e5U,
  0xe40f15251a22d30eU, 0xe81330f90f00f50bU, 0xbc334f506edfd24U, 0x160749fbeccd1a06U,
  0xf7fffcf91cea24dcU, 0xafad5fde427e606U, 0xf5e0f2050a01dd1fU, 0x21171500d7f0fb0cU,
  0xfafed61eeb02121dU, 0x1030f30fe9e3f5eaU, 0xf928e3fe2b1cfaU, 0x3180bfcf91ceb1bU,
  0xfcfef700021dfc13U, 0xca01f313fd350b0dU, 0xdcfd15f101eb102bU, 0x14f82d190120f6eaU,
  0x6041244d8081808U, 0x1ae53c0d450d1818U, 0x49b344e50ad21100U, 0x34f6131fdd04fdccU,
  0x1613320afdf6f305U, 0x209d3f0d640f1fcU, 0x10b1628d7fb2707U, 0x481f1aeefbfcefe9U,
  0x1e30f2150af8e21eU, 0xbf001e4f3c902fbU, 0x351b15e7e224290aU, 0x173903d5071ce50aU,
  0xf1391b040a04f039U, 0xebdb111f100cf213U, 0xf4d3dafc1ce30d2dU, 0x261036241309e317U,
  0xf31e353302c8d317U, 0xdf18ff0e9a19ef09U, 0x19c908151700f4e4U, 0xe722e483d2f8dcf2U,
  0xf40bfb0a2bc986d6U, 0x2e19022a2817df1fU, 0x3c01fc21fca7d5c4U, 0xc4d00ec239b319f7U,
  0xba1cf00b1d01f0e8U, 0xc0b5c3ff11e9c700U, 0x1d0c0910d3d5f903U, 0xe5c8240ee3defa20U,
  0xd61fcdf12de9e813U, 0xd7081e0732100a26U, 0xdfe0f6021003c328U, 0xae0ae6dd0adfd8adU,
  0x24f32c16e8c0d50cU, 0xefecee1bca15f236U, 0xe2d8fe172e0c06dfU, 0x14e4f28b17f1100fU,
  0xc520f0e80ca6ceefU, 0x261ac6f6effb07e0U, 0xcbda24ff0ad3ded9U, 0xc5b21fd200d80603U,
  0xeeef02eff51af6cbU, 0x3fae6f011f2f5e4U, 0x160105e4eb30f5f6U, 0xfa19ade6ecf9d81bU,
  0xe73dcdd4f7f4f4ffU, 0xe00f1f2614f9de19U, 0xfbcfedeedb22caedU, 0xac1da6dc072aece3U,
  0xf330b3e23b1f300U, 0xebf21be9e81fe000U, 0xdc03e31f0f0126e0U, 0xcfed6e436e309ebU,
  0xc5e91feed7e6c5baU, 0xe4180938f018e001U, 0xa621fa0ff3e425c0U, 0xeddb1bdce9bf1e06U,
  0x180eedeb21f027d6U, 0xf1cff3120eef1221U, 0x1025f0f6fc1ac9edU, 0xdaece80fef0ebbecU,
  0xea00dff7001dfa19U, 0x2f16f9e400f70818U, 0x37fe1803ce16e923U, 0xf908bdeeee281206U,
  0x1adb12fe1ce41a42U, 0x11e003081a1cd601U, 0x19ca05091ce424d5U, 0x11105dc08efdce4U,
  0xe3eaf008eee7c8deU, 0xfa01dcf805ed12fdU, 0xf6e60af8bde4f4dbU, 0xd9e822f30708dadaU,
  0xd02fcd15fc2f1409U, 0xcbf8e83106da0cd6U, 0xfde402ebd9fd20fcU, 0xe024f9e6ff130602U,
  0xfa401814e21ad5d7U, 0xc310f914320af236U, 0x14011af3c1154d33U, 0xaaf2069ee302fa08U,
  0x1ae64e0c230e0919U, 0xe6c820f3f7221827U, 0x3e063d03dbb0f2d3U, 0x2f0df2cbe400229eU,
  0x21121fbc0fe9c016U, 0x113d80abd3fe2edU, 0xac2e1af7b7cfe6f0U, 0x414fcf1cde7cff9U,
  0xf736eddfe0f7ca06U, 0xe6fcfffefe11ff11U, 0xf4f3e3d3def40beeU, 0xd719b5de011dfb26U,
  0xf41c35d80e0d220aU, 0xf40eeb011102e106U, 0x40d0bdebb070529U, 0xec18edc9dd18d1faU,
  0x2cfd253e23143616U, 0x12ef1e30d617ff42U, 0x344930c400361210U, 0x32ccedd52df0f0c8U,
  0x250c18d7c3ade11bU, 0xf31bc90de811c3dcU, 0x3424c01f2fd02c0U, 0x49111cff03faec29U,
  0xee56a8d9d80bd7f8U, 0xf10b5ac5dfedf600U, 0x35b3d4dbcd20dac0U, 0xd608b4c71be303e6U,
  0x3e44011e5e8111cU, 0xf4fadb2a0c2b1f36U, 0x40414dcf6120b38U, 0xc10be10420e5ef1eU,
  0xd1d28f10d2effd6U, 0xedf915f9dc0712f5U, 0xfdd24ad2bab9391fU, 0xf3c8eeee150122f1U,
  0x26021edaccfce02aU, 0xef0e11eee327ef2aU, 0xe910044d00071c2cU, 0x60ae2eaec2deaf2U,
  0xea35dc3a1316f6d1U, 0xfbf4811ce4e1e711U, 0xe9eefddaf71033f5U, 0xb6fa07bbe7081efeU,
  0xc23ee1d06e20aedU, 0x14fded03ea1cfd16U, 0xf9e5ff0dddd7e523U, 0xc516dfca19fde031U,
  0xfdcf261723313b05U, 0xf021d11f40ee603U, 0x5d122b0bc9961af2U, 0x28e143e8c10802f0U,
  0x2e120a04ba2bc62fU, 0x19c7fad6e60ebb25U, 0xd0d2e3b010e1ae3U, 0x3e141f13ff2dbaf2U,
  0x744dc0cfceed80eU, 0xdafd85f6adf1dceaU, 0x20c0a5ddd1f3fce7U, 0xd741d6bda8b52904U,
  0xef10382808e60939U, 0xfec5c2dcf2f038faU, 0xf7e5decdb0e3c74bU, 0xbadd10c0bcadfd2bU,
  0xffc33a32303e451aU, 0x13e9d90504cad7e4U, 0x335229e5da03e740U, 0xc2f01cd1d02750e2U,
  0x8283be2b7e90e32U, 0xb8c3dbf102fcf508U, 0x61b2603f705f7eaU, 0x67f304380c1f9bb3U,
  0x1403cc29d4ed91d0U, 0xa154709c50e2e05U, 0xdfb1eea2e9d702d0U, 0xcf480cf2dff325b2U,
  0x242f562df3d51204U, 0xf0c4c0d3ffae3d01U, 0xf3c309d1c4ead90bU, 0xcbbf04ecaba3174eU,
  0xcf4dfb2700ddcbfU, 0x1cc5f11f9abd2b0eU, 0xd0ff0f1ae1cadb04U, 0xb8e7d4c1f62702efU,
  0x22df20c3e0fad241U, 0x1311e7d0c2dee0d6U, 0x3820e323e13511U, 0xfcbc220e0def052dU,
  0x12f1cb2dedd5df14U, 0x456df0bd91b400aU, 0xb7ed0d1d150511faU, 0xc6f8edf71f13ebb0U,
  0xc5fd1854d7120b4cU, 0xc8223e28ece31901U, 0x1d2c1bd3e719a3a4U, 0xf2fdb3d7fffc9425U,
  0x1fd6d0930cdad221U, 0x1bdc17c9cb02e812U, 0xd7b108cc2928c83eU, 0xb4dbbcb0ebd529e0U,
  0xebfa1a0c09340d23U, 0xe2db14e0e5abf41cU, 0xc42aeeea37160ef1U, 0xad05320fead80debU,
  0x7b0c11efacf20e5U, 0xff5932be1c100533U, 0xfef0e6301cf20cffU, 0x11fff72830d4bdf7U,
  0x9dfe13fddc092407U, 0xe431d1020802dfa7U, 0xb15e1edfffad7e8U, 0xdac0d4eae31eeafeU,
  0x2a0912b0e9fbd22aU, 0xeb29da23c9c929fcU, 0xb2e5d324ff39cf36U, 0xd2dc102fd9d3fcU,
  0xe70612ef054fdff6U, 0x19ea35f8049d1d09U, 0xfce9cefa32e6c22fU, 0xd721fbd3efefe50eU,
  0xdfe41ee8280e08b5U, 0x3337fc2bfad200c9U, 0xc421de0e0c0419efU, 0xdeb01e33eb21fcb9U,
  0xa0f1182ce82df815U, 0x23d71bd1f2170cceU, 0x10e7d6e4f9cfdeb7U, 0xffc4c41518d1e6e1U,
  0xa02ddb758793d26U, 0x441524e2c8c50036U, 0xd547fee62df7de41U, 0xe3ecfef33e02e842U,
  0xe3b2fe4ca0d9b00U, 0x1f2c041bd4b61df4U, 0xd005d2d1c20f42ddU, 0xd92b2639eeec1b0cU,
  0x6020de0171ff5f4U, 0xe4bf1c2a45ea4d27U, 0x170ae3261f1fda1eU, 0xd74ae5cc1f1016bfU,
  0x402e1b1a1cf73803U, 0xf9d7c3e1b0d45eeeU, 0x5052a031335eed4U, 0xfedafcade7049215U,
  0xef5e3a62e49d6baU, 0xd3d50cecd3063f0bU, 0xabf7fd2ffcd51a25U, 0xfd0012c3e4f3e5f9U,
  0x5c0102730c3b731U, 0x1cb0820b59c0242U, 0xb3ecaf07b8c0f9edU, 0xd6ce15db1b1e2322U,
  0xd1c93e16280f04eeU, 0xd9f4d6dfda35d614U, 0x181608fb17fbba1eU, 0xbdc9dde6d438cbb7U,
  0xc91e13e411fdfb14U, 0xd1fb3adc001143f7U, 0x391e2b0ad538bd95U, 0xd5bfd8b70ff997cbU,
  0x27ffc6a5e3171b08U, 0xcb0715f5b1fcf8bdU, 0x89e3e222223be5d2U, 0xf4eff6e71fbd1f0dU,
  0xeaecdf182600fff1U, 0x3616302f129a1cf4U, 0xfc6a0a834d012e5U, 0xc6d4e2dc0b0232eaU,
  0x1f9ffeb8091131a1U, 0xdff70cd2e520c8f9U, 0xe2f4cb2c07e8ee35U, 0x2cdf3836210da9cfU,
  0xceedbfd83a18dcccU, 0x122232e0e9d826d5U, 0xeb27170decd9b1d6U, 0xe7d9f7d4cf04f4e4U,
  0x6727ebe340fb48deU, 0xf2eaf9cfcbc3fcccU, 0xcd4f270a2f23f305U, 0xfa22d99bde375c14U,
  0x48004d2cc1f0d147U, 0xdbeaee2d500c0bd9U, 0x267f148eedbb3acbU, 0xfd01316afc5d1915U,
  0x1b20e7f60ac222c8U, 0x16cd05d3d25e5f2cU, 0xcae0fb192f030613U, 0xb72d02dee9e559ceU,
  0x6615231ff804332aU, 0x3f1010311d27fc5U, 0x42edf6f8ebf30db9U, 0xe009d3cacfdeb341U,
  0x4b09c7bd132d39e0U, 0xde14c3d9e4eb1cc6U, 0xda52cff1f1f11913U, 0xbed8c8eaf9471bcaU,
  0xe3d5d2cafee0ca39U, 0xbbfc0a0f21b2d9b5U, 0xfa1cbe970dac3bd0U, 0xc4254bfb382719U,
  0xc41ecb00f6c9ffceU, 0xe6cffb3422394f28U, 0xe108fc2524fff2d3U, 0xef10d9f8fcd1fa28U,
  0xceae7c41bfc1536U, 0xfef2fc13fbcdfeb0U, 0x1c2f3bf404e3c3deU, 0xc2dcc4ad2de4b420U,
  0x3fe4be9c0ab8f8faU, 0xb0bbf82cdf2efd16U, 0xd03799d018241daaU, 0xaa0999f1302fdefaU,
  0xb2dbca4bdab202deU, 0x2e490ddfda8e07d9U, 0x120d92b90be4ecdcU, 0xa618e819e5d20c46U,
  0xdcc1f2ee4bfe009bU, 0x429c35f729f73716U, 0xf814151003d2e2f5U, 0xbdabe3f7042cdddfU,
  0xdecfaac3052ac9bbU, 0x123d1a04fab3edb6U, 0x2bdf1f22ca2bd7c2U, 0xbcd9f7ba2f0febe2U,
  0xefc2c9e9abdf2fdbU, 0x240f08c4090d08abU, 0x4bf7efd7eaf7e6e5U, 0x5e4f705fa0af3faU,
  0x6f2f520c411a927U, 0x11bee9fdd628f4d9U, 0xe81a2342cee001e9U, 0x3a42c4e6ef43d4d2U,
  0x3625171cb7f8edf0U, 0xc4309eb8c30906e4U, 0xe7d8e0a1d7c540bfU, 0xc321ded684c9212cU,
  0x171deb12dca21fa6U, 0x5bdd6b4e00ed52bU, 0xc70fbdc9c2dfe734U, 0xd8f202dcb4da11e9U,
  0x13c3f1fdb51c15f5U, 0xe8eee10bf0080bfeU, 0xf95bfddce5520a0fU, 0xf5e7fbc1c852ee2eU,
  0x20e0ebff0552c639U, 0x5af00dc53ece3fcU, 0x1de50e0509addfb8U, 0xfa5fdee11b1af9f3U,
  0x142d3a0311daf8e8U, 0x10fdecc6bf07afebU, 0xf2dda1d526d30adcU, 0xcdfe23dcaac57feaU,
  0x4de3e429d4a84bcaU, 0x23c801bef1d4da2eU, 0xe4fbe6bfe0d3d5ffU, 0xfbfde5dcddd02de7U,
  0x19d2b5e412f716f7U, 0xd9f9dc29ebbce9c2U, 0xef3afffce437f9e3U, 0x29c61cd4f3422011U,
  0x31e8f22bdc120923U, 0xf1cfbe33ff32bdcU, 0x792b06021b08ebb6U, 0x4cdf1df50350cdfU,
  0xf8f548f9222f1123U, 0x250115f2140fe2d4U, 0xb5fc28dd20acd1f8U, 0x1cdc5122de153306U,
  0x1f0bcef4f01606acU, 0x242d09fd21e8db12U, 0x30e612ccddd315f3U, 0xcd0f28e9f3f3fae2U,
  0xccd4dd05b8d4f8c4U, 0xf9fdb6f0d3ebc8d6U, 0x222efddcc50ae5ecU, 0x8c604bfeff3f4fdU,
  0xf31af62eec1904f3U, 0x6c209cd2ff3da3dU, 0x81014ffefb60bfaU, 0xcffcebe7ff2114ceU,
  0x2d31000bcc03ebcaU, 0xeb0bf616eb26cc31U, 0xed0b0413e9c930f4U, 0xe2f9f90cc0ee38f9U,
  0x49caf514f7e6fdbbU, 0x1ad92801f1cb11daU, 0x7eedd0f9d01bf35U, 0xdff1e5dec8ccddf9U,
  0x17f79be526ceee32U, 0x7350e4508ed100dU, 0xd133d814f049ec11U, 0x2013dffacb3c06ddU,
  0x13eb07d644da02U, 0x6dd11e568ce100fU, 0x24e3d9ed19ab1dd4U, 0x1dfdd727ff06ffU,
  0x2f619fceef5e3cfU, 0x1809373d0e2dd4f1U, 0xb63e30f027e30805U, 0xe1c72315ece22bbcU,
  0x3bc707edfdd20cecU, 0x2c16cafd51ded505U, 0x28f231fdcd0b24ebU, 0xfd2f0f2db1601e9U,
  0x1ff3dffa23fb1934U, 0xfdae121428d009U, 0xebe20f183d38d8f9U, 0x6c11e7eb21e415f5U,
  0xe5dcf932ef27d0fbU, 0x2d2ce926ffebe6e7U, 0x170bec06fefa04c6U, 0xddf1cf1925e8d829U,
  0x1dff04cb1c1fe8caU, 0xbeca2416f91f1dd6U, 0x1a1e070426e20522U, 0xca1112f003fa42daU,
  0xfd0bce16f639f6caU, 0x13f305ef3709ec0fU, 0x50202dbd1e8f8efU, 0xbe5ff4f31fe0250cU,
  0x823bbd705df2430U, 0x31b31ae90615f6U, 0xdee5fa16fb5ce7ddU, 0x18f20f08edeadc31U,
  0xf2d7f03c2b2303cdU, 0x8061eea45eb2e2aU, 0x313def91cdee80fU, 0xd1e9eb0816d1002fU,
  0xe0cf07122625d8c2U, 0xf4e2e4f6131a0302U, 0xe40e10b40c8f2deU, 0xdb50a3ece1722f5U,
  0xb99bfba2e1de1ceU, 0x3f0eede019bd3cbU, 0xf31b4932d9eaf319U, 0xd50eccf82ee6d0f7U,
  0xeaf2eb1911ccd033U, 0xfaee982b0450f5b9U, 0xcdeab42d2dfdfaf3U, 0x51610fbf2e0f8f8U,
  0x6c40a06fad2bed3U, 0x8f93ce412db2a07U, 0x9c208292ebee32bU, 0x41fd2f401f0ffdaU,
  0xe5031de4053317b9U, 0x12d32d3009f6d61aU, 0xf82f0b0aedd805efU, 0xfe00141efafafdedU,
  0xd9b1d4d0e8de0efaU, 0x27f9ec2045f1e11cU, 0x1ff328e6c5f000e8U, 0xf622d2da12c2fef0U,
  0xf222db20d3cfd015U, 0xd7f9df17eb3a1007U, 0x23c30cfcf84418e2U, 0x2ff6e4e122c2d5eeU,
  0xeae7f920d7e7140aU, 0xf072e2141312a13U, 0xfdc5e21deeedc6f1U, 0xf8381701f8f80901U,
  0xd8d7031f153ff6c7U, 0xf5fe321b340c0406U, 0x1d1231e2dff6c1ffU, 0xc0cc17f62d3002e6U,
  0xc0d5f1cbddd4c2fdU, 0x29ecdb0613e5c521U, 0xf60a1c1bb60a0d01U, 0xc4f8cec7da07cbffU,
  0xe32a0643dfc5f03cU, 0xe828e31be133e8eaU, 0x2f5f83413b704e0U, 0xd1ad4f214daffbaU,
  0x9e8f40f1fddc3dcU, 0x901c2102514e31dU, 0xfef310061aecd9f7U, 0xe1d70f073efb0204U,
  0xe32ce909100deae4U, 0xedeff8f1e801c226U, 0x160342fddff6fb14U, 0x6071304ebedfd1fU,
  0xe310e2f71845cccaU, 0xfbe8311824e6d308U, 0xfee4ed15cffd3230U, 0xd2360cc108181fe6U,
  0x1215fe4403e4db1cU, 0xc02fee1fd0a1720U, 0xea050713f01ae2U, 0xfeeaf6f818f707c8U,
  0xfae20fdaeddee605U, 0xd527dafbf53605d1U, 0x7da161b06050bb3U, 0xd4e024f912de1af7U,
  0xdb22cadb0f1415edU, 0xe7ef0af2edfb1604U, 0x1b132f14f911e215U, 0xcc24ddf706eedfeeU,
  0xec1003d9feff08e3U, 0xc250a280efa25U, 0x2f7071df4030828U, 0xd815f4df0c29dd13U,
  0xecf2061cf8ffec29U, 0xe7c8e3dad92aecf7U, 0x1af8f2f5f509d9e4U, 0x1721dae51df2e2f5U,
  0xdf28ee03e5d70fd5U, 0xe722d927f63112f4U, 0xe2120b13d7121eebU, 0xd61b24da0bf7dd14U,
  0xed2deed812e5fddbU, 0xdaeb3316e6101cf0U, 0xf1f52f25eb05e707U, 0xc200e8f0f9ffe4f3U,
  0xff1ff9061efce906U, 0xf724170af61d071dU, 0xfde81ae1e8ec132eU, 0xdb1fe6f60ae8d9d6U,
  0xd7335301dd0c1cfbU, 0x17fa21020b09ee10U, 0x39061be703b21fd5U, 0x1924d1e02eddd6baU,
  0xfb28eddf23ce0fd6U, 0xf00c0b3dda1f1808U, 0xd8100637f0d90b17U, 0x1d00e008baf90909U,
  0x1543b610f60de705U, 0xe3f7caf8c5dde51eU, 0x407ecf5e853ed1fU, 0xdff8c1e6fa14d130U,
  0xa0416d2050b072aU, 0xefe212f6f142f902U, 0xfa04e93204f00e49U, 0x729dec9eff2f912U,
  0xe901520f0cfc28b9U, 0x23ef26fb12241925U, 0x22153cfdc2dd36d8U, 0x31eafdd5e91918fcU,
  0x2837df0cebd807f5U, 0x19f3e1f6d52ede17U, 0xf8253610f504061cU, 0x1f27251ff0e9db14U,
  0x194602e5df03f7d4U, 0xd4ffb1fbcbe4fffbU, 0x33e8d4d6ba200bd8U, 0xcb09fadbf2feed01U,
  0x1be7f80bfee5221aU, 0xedfedb0ecc210b09U, 0xf71af2fbd520ef34U, 0xdbfb010fe71cf9d8U,
  0x6230c0bfa1908dbU, 0xf4dc0201dde92426U, 0x20f63708c8f8e9dfU, 0xece207fa0e0b0104U,
  0xb251bfe070d0702U, 0x16f4d9f4d63008f1U, 0xf803322bcee61001U, 0x100002fafe17ccd5U,
  0xf238e1e3cf03d116U, 0xe01decdfc6201b0cU, 0x10ffbed6d2edf4e3U, 0xf202e6e9b60d0bd0U,
  0xfc06f3d3d9d20816U, 0x1f080d02d5e71324U, 0xfcdef716cee71200U, 0xd7c319fd08ff261dU,
  0xd1d4fa21f61215f6U, 0x10812f3091c1412U, 0x25062bfff0af1926U, 0x26e51c04e7ff1ef3U,
  0x251312181121fe0aU, 0x28dce8ebc91717faU, 0xffeff612eaf8132dU, 0x20310016f6fbec01U,
  0x13fa162e031fe40eU, 0x15258109f2e6d0f8U, 0xe3f4ebc3efe1e6fbU, 0xe231e40993c6fcecU,
  0xfced21fe18eff60cU, 0x1bf9f0fd050317edU, 0xf31704ee05daeef5U, 0xebe203d8f6d40f10U,
  0x12fd0b10fef8ede8U, 0x1800fdef09dfde10U, 0x7fa33fdd8c51c08U, 0x10ee25dded1e21f0U,
  0xd23e9fce609fb01U, 0xeac2ddf3e3ee0208U, 0x1bf31125001bf80cU, 0x3cec2e2eecfbe0f7U,
  0xf026fd1eefd7c816U, 0xd2f2b209fd100100U, 0xf503c1e6b9f7eec8U, 0xf528f4cac2c90bfeU,
  0xfb1b24fc0cee0c09U, 0xf8cf01cee9c72ef5U, 0xe9c305d8ffe1ed09U, 0xf8c41b15ecd30421U,
  0xfbfd2bf72705330dU, 0xde5d4f1e3e814ceU, 0xfb29ffcffd0efaedU, 0xcadefbe4e5251a23U,
  0x111e1aeae7ef080bU, 0xf8e31bfe11e5d7d2U, 0xf3143007f50e1bfdU, 0x2f2f8070e01e8efU,
  0x212dfcfa01d5d501U, 0xeceafdffe6fc04cbU, 0xf4fed3f6d7d22ce5U, 0xe328e7f2bde82dceU,
  0x2a1025efecf3111bU, 0xfaf0ded0f3e52413U, 0xdd906c0f9d90dfcU, 0xeec8e8e305f1f501U,
  0xbf11c01825f13d0aU, 0x170ecb284c2b03eaU, 0x3cd514db1eb52ef3U, 0xe9cd4a1d31222de2U,
  0x6f13628cf18011dU, 0x3206f10a95f1ed22U, 0xe732ce14ebf10d00U, 0x481ccffee92bef24U,
  0x14e4e24cea080c19U, 0x182eed3fcdeb09e3U, 0xf2f1c8f2fffeee1dU, 0xe1ede3d8fe22d7dbU,
  0xf6a5f5e715d324beU, 0x60434f9df2e303bU, 0xc4fdcdd912ee3133U, 0x2c33052f1ef6ebeeU,
  0x14f73a0d31f8c6U, 0x332930220decfd08U, 0x2093015fad6343dU, 0xffcf2c0bb41f03d2U,
  0x2b130fffcf39e711U, 0xdfdc29f1a924bf1eU, 0x50a2b45fda606ceU, 0x1514181d00f9b8c8U,
  0x1b3c0734f1fa11ceU, 0xd7ebcf03cde4c3f2U, 0xfbf606f2bbcc36c8U, 0xe12de2d7a3ae3e44U,
  0x1ce4f3fcfad93bdfU, 0xf3f107c901062911U, 0xf217cfc5d4e9f241U, 0x3c05b2d5cec0d404U,
  0x39afef2d2e0214c3U, 0x2c24d835c8de09b0U, 0xe3552506045c0437U, 0xf1e4e4b0c968ef35U,
  0xe92a2a130fe3d24dU, 0xd1c841123cdc24e4U, 0xf81b32dc0409f9d6U, 0x4335e0f5f700c3e4U,
  0x21032dbd3be0cf5U, 0xbd027f5f7541ce9U, 0xc2bec701d481fcefU, 0xcb200009a80c7cbaU,
  0x52fafd2fcef848d2U, 0x50e8b803f5ead804U, 0x2ff116d7f9d2adc8U, 0x3f9c1ffc8eb291dU,
  0x7ddb7dbda300eefU, 0xd7ed1d1adb26cdb6U, 0x37e302ef16284342U, 0x3fe54c15e519d01aU,
  0xd0d0714274d1220U, 0x30c9e4ebe72516edU, 0x3621f71c03f60a27U, 0x507ae240b1dd826U,
  0xdfcef93613db1fcdU, 0xe349fbdff70a0b28U, 0xfd35edd32ed33bdcU, 0xd71a031ee3e723dfU,
  0xf7fdfdf8fd2122a2U, 0xee0004e63310fde1U, 0xf6321eece9fa07e4U, 0x363508e1e0dc0adbU,
  0x1bedea1ebf151317U, 0xcf1b5eadcfe0bdfU, 0x3d19e9ded1f5080dU, 0x1351b308130329U,
  0xd619df0b1501d903U, 0xd7042efd26fbfc3fU, 0xfdf5c21419c6150cU, 0x1ce2a9300f440200U,
  0x20c42435ffeb02f2U, 0xdcdf23381ae208daU, 0xf9f4e7c90796fdceU, 0xd0fbfed8f3e74bf6U,
  0xe325dd1ccffe12d9U, 0x11bc090012d3e6d9U, 0xa25f6e606c112U, 0xbf06b1f411cf1030U,
  0x10f7db041bf5203aU, 0x2ef50820d40424d2U, 0xd254bc24f25e22d8U, 0x2e2afbe4c71ff347U,
  0xfbfcfcfbc349ca21U, 0xc0edf062ec3dd07U, 0x18dcbc2330f418aaU, 0xb1dcb0f24301833U,
  0x2808fd20d2d8d305U, 0x28d1210efee6cdd4U, 0xeb0eea30dccf09c7U, 0xc4cf1504101a38faU,
  0x39d8f7dec1e63015U, 0x2fe309bc02c6e03bU, 0xdd1b030e10f3000aU, 0xd80ae029f4cb2307U,
  0xb92ae3e596031007U, 0xc51afee31928efc5U, 0x2e21c8270ce724eaU, 0x2f3ef5f5eaf6f915U,
  0x29e821ff346c0626U, 0x42d839fee6004912U, 0x62eda7ff33f2ba4cU, 0xee15f5fc1eccf6fdU,
  0xf9dc4e1a463d2dddU, 0xf7df0b3e1ad2c0fdU, 0x2e35eb103ae5d21fU, 0x280e2ae6fe171a25U,
  0xdd7a3f45309f6a3U, 0x33313ade37d3f42cU, 0x13523b2e1d0fd7d3U, 0xe20bd819ec02a603U,
  0xb6c1ac0ba7fcbc23U, 0xea61e531be1b0ee2U, 0x1d49f2217031027U, 0x3281e0e211acc49U,
  0xe905fe2c240daefaU, 0x13cb42e94feaf641U, 0x4de2f70346c0b000U, 0xfe4d6d23b1dfdd6U,
  0xe8afed42132ae7bcU, 0xfaced02a252e9af4U, 0x18f0f4021deef0dbU, 0xe0c75717e400e3c3U,
  0xd9cadf200d19dea2U, 0xbdc32fe38dce9f3U, 0xddea313f0c1c080eU, 0xf8f021aaf0d8dedeU,
  0xf5b3cee3d124c807U, 0xb2ae22faee2d22dU, 0x2af1f008f55a230bU, 0xfbfc3ac32014bceaU,
  0xaf02a46311fec06U, 0x19ed3e055618ef1eU, 0x5a0c10210ae1eee4U, 0x122b03f837042b14U,
  0xdbf238fd320ff717U, 0x191929121f15d4c0U, 0x173e2932141b181eU, 0x14e2241af52ffac6U,
  0xed03d9d5fb241ec1U, 0x2d26dfd956cdd4feU, 0x5f822d9cbe9feecU, 0xce02e516c3d5f31dU,
  0x15290fd40e15f302U, 0xf3bce3fcba0d0d03U, 0xef1604f734de0ff4U, 0xc710ddb112d9e308U,
  0xee0009d513dcdc02U, 0x37fe27b9e5f0e5U, 0xe3ecdebdc4b42ce1U, 0xfce0faf8d3e806f5U,
  0x802c7de161fe7c3U, 0xe9ea0012fe18f106U, 0x9fddcf327f5eafdU, 0xfdeae820403abab9U,
  0xd3bcececebfc0a0bU, 0xfb07f20ee70230eeU, 0x35361cdee13904b9U, 0xd304a9ca26efa1ebU,
  0xdf21070fffc3c8cdU, 0xd827d5d8bfed1e01U, 0xed3e42bf5ef1efbU, 0xc19f6042d0405e7U,
  0xebd400261ee7d4c4U, 0xcf6092ea8f506feU, 0x9706ef14c2e7080aU, 0x6cf0607f8e02935U,
  0xfeaf7f32c1ef6d5U, 0xe121bfbb19cda7f1U, 0x2d0b1d22ebdef6fcU, 0xe1fabeff21fff5fbU,
  0xd5b90bff1a0b04c7U, 0x5052508d2f9cdcfU, 0x161b1010f011b306U, 0xbc9d0e80f1e9ddfU,
  0xd6f9eaf0c61dd495U, 0x17ee13d3bbeb01dbU, 0x28a301fbe30e12dbU, 0x20e5eee51bfd25fdU,
  0xecf40bfafefde9dcU, 0xf70328d5aae035f5U, 0xddeb2314fb07fc20U, 0x12eeae0e6032d0aU,
  0x270bebf9ff1027bbU, 0x32581d2c019e420U, 0xe6e602df08fce50bU, 0xfce0ceefcc09fcc4U,
  0xd6e1fcf31deff9c8U, 0xeada03fde5e8f727U, 0xff30d0f2ebf6ba15U, 0xecdcc8e43018b119U,
  0x530311ba212603f1U, 0x23becc04d5f722ebU, 0xd818d405fc0ec9e2U, 0xeccde9c9f408e33dU,
  0xdee0070bf6bac634U, 0xb3b3e12e3f712b1U, 0x3134d2c5f4ab38d4U, 0xd02ff51e0013daU,
  0xdae120c0f2d7d8beU, 0x1208071c2e2e16cdU, 0xf6e51a2918e3ded2U, 0xd22507ffe228d7b6U,
  0xf2d1ddd4ced40d15U, 0x1cd52cdcf504d1U, 0x10e2e4c8c404a6c8U, 0xf3ced2f310d3c107U,
  0xf1eec4fce3e504dfU, 0xe0c6ed09b3df1addU, 0xe804eaf2fbf91ffeU, 0xcef0d6af241df6fbU,
  0xecf0f42721c30013U, 0x1013fb0300d8faedU, 0xf4f4d7ebcbd7e1e5U, 0xffcde700120c212bU,
  0x26d4f227e5e40df8U, 0xdbe3f2110232bff7U, 0xf91ce32e16f3fd26U, 0xd7f111e60c1effc8U,
  0xcbe8eafe14fdfd23U, 0x1c32f4ecf100e2edU, 0x3400ef09fce9cfb4U, 0x7dcedc91622b310U,
  0xffe6c9e9ecee0bcdU, 0x1e0ef9f5f30419edU, 0x16b4f51c01dcf2e2U, 0xc4e3f5f9f1fefa0eU,
  0x13d40728fd26e21fU, 0x32ddf4e2bbb4edf2U, 0xbeccd5db1bbff3fdU, 0x1decc6fd23f3072dU,
  0x26ec1deef1161bbeU, 0xe72ce417e6f8b6f5U, 0xe1efeef72ccae405U, 0xda07190314ffd2c1U,
  0xfc13d32dee020d20U, 0x2c2e360711e50610U, 0xf801d1081df7ecdfU, 0xd6ddc0010aea04e5U,
  0x62d1e9ef34f4181dU, 0xeac3d6e6dbea3c2eU, 0xbc5f05c5020ecf10U, 0xaa0719cde9230216U,
  0xe33230f7cbe3ccf6U, 0xf0935e41ed01fb0U, 0x143cf6bbc3f642cdU, 0xeaf72ff2430ae6d8U,
  0xece92ad732d4e504U, 0xc6d760fc121d590bU, 0xd6e1060e0dc5ecb8U, 0xe10c29112a121fd7U,
  0x605e60dfce7f526U, 0x1438ddfccec922faU, 0x2cda1bdbdbe700c6U, 0xf6b9fabdf1fae7fdU,
  0x13dd1fe133f717deU, 0x1ecdd5eec20f03fbU, 0x10fa0f0a19fb08d8U, 0xc9e8f3d7f82cf0ecU,
  0xdfeef3f8160ecef5U, 0x13221d2f0da24ceU, 0x25f913f6e8b1ec18U, 0xf9e1060e06221d0dU,
  0x17fbe9ff16e3e5bdU, 0x1ff4fb0aeb42f521U, 0xddd01d2411dcf2edU, 0xe6da08222c021afbU,
  0xbf4e51bfc061f2cU, 0x27f62fe2cbbb2c1bU, 0x2c2422f10305f2e8U, 0xe6d3f3ed26e80123U,
  0x4610f7e716f9e01cU, 0xd208f814d012ee30U, 0xd4f3050a191cdf27U, 0x12024b60f16f71fU,
  0xe041f2007fee9d3U, 0xf202ec2adbf0de27U, 0xe51ae0f0e8c2f0dcU, 0xfff218e4281fea26U,
  0xdadb15302c01d6e8U, 0x131f1023012f0b1fU, 0xf807102c1817e8f1U, 0x12fbff1c0318f1faU,
  0xd9d018d7ed16e0e1U, 0x133500072d04ededU, 0x35e2fa20cf0af4b8U, 0xfd9f5e21e14e2f4U,
  0xe45363e39f3fa1cU, 0xdb08136b49524d5aU, 0xf4fff22dfbed101eU, 0x61eb03ee381e2f92U,
  0xcde94409cff81d20U, 0x10f0d637185126e5U, 0xe803ed6203ed2207U, 0x3ceb4335d60fe426U,
  0x404f9d2d94ac2c8U, 0xf8da0d28e00a2238U, 0x67c63af2ff72f017U, 0x2c24a60b5810e223U,
  0x352cf3d705032616U, 0xef4a28444a69f6eeU, 0x6eb08453a32395fU, 0x141c3a213f1116e2U,
  0xf31b32f7ed3729e6U, 0x5dd3ae2495bfa3aU, 0x39e71ac629cae5e7U, 0x48d1d6f353cf1b0dU,
  0xf19c6cde6fd1e13U, 0x2f451004d4301dc2U, 0x2314a08d72c0227U, 0x260d49e3eb1d06edU,
  0x121c05fe160f2930U, 0x2eef0ec3ed1c561eU, 0x8a73726f3172c04U, 0x232affdbe52e1024U,
  0xd00122c9ede71f4bU, 0xf7ecf84fc65e251dU, 0x163103ebf50a3e0eU, 0x4f143d20f712d514U,
  0x251a7e3b0929f32cU, 0x25f260fbf204113fU, 0x132326bac5201c1bU, 0xe62bee354bfde4cfU,
  0xfa31ddb91cd0ed11U, 0xcffe05490c55e6eeU, 0x1340f3e5f60a3ee8U, 0xbfb0b2abd2fefdbU,
  0x74be1ca00ede6e1U, 0x23df1802e0101030U, 0x4dda20101811251bU, 0x1f40ded7f7eeec50U,
  0x7ced3e215ee3839U, 0x1a382b2dbd5c111eU, 0x1ec43d426ed3537U, 0x23c6125018461c24U,
  0xdeca4d1a202c3af5U, 0x433801f0224f003bU, 0x2d171a0bcacde2f2U, 0xe9e001e3d9fbdde2U,
  0xfb1e3ff9e3f4ee15U, 0xe7b11812fd18fa1fU, 0xa4d9434ac1e91f23U, 0x3a1725dfeb22eceaU,
  0xdf5db6eddd45de13U, 0x17cc52fdf7d0251aU, 0xefddf2b09f3ef2efU, 0xd929e9e0ccfe2b4dU,
  0x333a48e417bf2331U, 0xf4fc2c442f3303U, 0xc9ccf6fadbc7074dU, 0x1b2bee1bab274638U,
  0xe70e12ea3b4ef310U, 0x3800ef1029c4cd17U, 0x452707edfbc9c7e0U, 0x18d9fddbb71f260fU,
  0x432d0517e3142d08U, 0xc3cbd8d42934bf12U, 0xc8f2f51a98e9e808U, 0x5f34913c3e8ccb4U,
  0xd9f0f0edd4ffc72cU, 0xd3321bc2080c17cdU, 0x1697919fe92bf2d7U, 0xfeeee6c1de083affU,
  0x2adc0cdfe99b0b17U, 0xfade410bc1b262aU, 0xdfb9c91203ac0a3fU, 0x1daee1cd7fd1809U,
  0xf9aefeef59103aedU, 0x1ca2f4bad9e2d1ebU, 0xfb3e20d8ffdf1edbU, 0xb3bf2bfc1029f5c2U,
  0x1946f2b5a20d1bf3U, 0xffeebec54034bb01U, 0x154212cfe22e4dadU, 0xdc32402cc915ab02U,
  0xf3f8eec7f8efa8e6U, 0x24f4efd4b1ec12f7U, 0xe9b7f80ab62d26cfU, 0x392ae5ede5e54221U,
  0x40213ce6b6950152U, 0xf10ec7e4ba15340eU, 0x1bd615a4341a2210U, 0x1f821df4efd7f330U,
  0xf9a3083b23401a10U, 0x3d02f70d2439ddf5U, 0xed27f4d1bebfdef2U, 0xe3faf319d2f208ecU,
  0x103c0ff2374e3033U, 0xef97d9c6d4d1a6f1U, 0x1decf80924511f52U, 0x3d17d91da445e0bbU,
  0xf912e735f7f2e839U, 0xebe4cde2a8d9e3deU, 0xea0114a8bd0734e6U, 0x1545c8d2badf0f4bU,
  0x251b44fc2bc0251dU, 0xa8fdc10171de831U, 0x9bcd16c23c8ee427U, 0x4ada05fbb816e92bU,
  0x1ad436de3cfc320bU, 0xe01adad2f2c4d7a4U, 0x7eb20defaacea44U, 0xbbbd2500b840ee1fU,
  0xe6f02cb7eb291de4U, 0xaa97eec731e3e2a3U, 0xef243cded417d90bU, 0x2bfb23f11f26dcc8U,
  0xdf8290fb5d8ee45U, 0xe2e1fa1501fd27fbU, 0xecfdb7df8d0824e3U, 0x20f2dea9f8ab4ff7U,
  0x460b172fe3b3e206U, 0x2ca7a8fef7f4e9d1U, 0x8e7f0ba1fa8500bU, 0x39cb09f1cc210241U,
  0xd7d5e6ca3c0715f8U, 0xe8f418c9ecc2c2c5U, 0x14f942e3defeb040U, 0x83e4f40aff13f4e0U,
  0xdd5f3f808251b2aU, 0xf6be00ed0ff4b881U, 0xe31525c5f8ec05f1U, 0xfd2406f6e72fbba2U,
  0xe23413bbe4e59c32U, 0xe333cef1ddfed9c2U, 0xda96dbf2b5d436ffU, 0x252bd5aed8e41141U,
  0x29efe5069ab5223dU, 0xdaabd605f6052d36U, 0xd2deaec83acee0ceU, 0x30ec213bedfb0910U,
  0xdffe550e44f734f7U, 0x1af529ee131f231fU, 0x42d0f53011ee2be7U, 0x4bf90a42d5f3d6d9U,
  0x5e71dbdfd040006U, 0x4ce8160dd71dfad9U, 0xc9fced2117e11ae1U, 0xfad1ed12431ae433U,
  0xf237cdc4f744dbd2U, 0x4302415ef25fad4U, 0x2ff4fe2bd353909U, 0xe9f60cbe23e7cb2dU,
  0x3f03903e1fcf431U, 0xda37cedbecf8db26U, 0xf92729f53e535a40U, 0x5f254440dde2fecU,
  0x3c2a68e2111ee2f6U, 0xf11854ec1a1d072aU, 0x264b32f632f120e9U, 0x8fbcafcea06e213U,
  0x25e8ffdfd2d5f801U, 0x1f121d36ea68dc06U, 0xf93739440a1e41fbU, 0xea07eb04d0e42deeU,
  0xffcd9d4c32d07caU, 0x6df2bd8dcdc3535U, 0x59b74f2ecc29230bU, 0x2c28c4033613e35dU,
  0xe420293c220e0449U, 0x5e4dc271a3b2a2eU, 0xd921fa09453bf71aU, 0x1a03fcfe413837ecU,
  0x48506bd5eef52104U, 0x2dece8483539ee3cU, 0x12e2ff1627f63f3bU, 0xf838c923333ced28U,
  0xe440eefc0fadfd0fU, 0xfd3925ffd02ddacfU, 0x24f3e316df3939ebU, 0xe7d2ef2afa042317U,
  0xdde427dcef42f0e6U, 0xebcd09fd392331f2U, 0xf131f7fa2dfb3e3aU, 0xe41e0ae5f7e40c25U,
  0x422938ebee271461U, 0xe8d9e4170a191900U, 0xe1ca3f35ea154926U, 0xfcd9f0124be1fceaU,
  0xe1c75ae7f82a07f9U, 0x383541203cf01916U, 0x7d0fcf1bbcf0700U, 0x19b82f11f704f6d8U,
  0x3b24e2e3182538d5U, 0xdf0af405acf0ce19U, 0xba3efd2eee242711U, 0x390bfed9b23dfd0fU,
  0x12ff01ee2332e7f8U, 0x19002eed15e443cdU, 0xf81425b1d738dfd6U, 0x3360ea2400ff7f3U,
  0x36150e0814dbecefU, 0xfbd7e4de0cd6f012U, 0xef262a1ed1aa0e0dU, 0x2917192909df37ddU,
  0x16c20fe04807e2d9U, 0x31c550e62425e22cU, 0x2d043dc1d29513eaU, 0xedc1db4616f348cdU,
  0x31f333e49af603f1U, 0x281cc00cd1e7a7e0U, 0x1b24e832a11b0fc6U, 0x60041bffdeef9eccU,
  0xfb162224f7f7cbe4U, 0xf60fd4ee0b2edab9U, 0x1dd9a4eab94e210dU, 0xec49f1981ab715dfU,
  0x454505f0f4bd4403U, 0xf7d4c8f42ee4412aU, 0xc808ff02f1d43448U, 0x47c22439bf01f4f7U,
  0x19ff2605ff09124bU, 0x409c4fed53ce272bU, 0xec2331cedcca1ee6U, 0xd9c8f7d2c21ee512U,
  0x290ee4ec96153d05U, 0x17f1fb3a41dbe7edU, 0x2d38032bcd2211b5U, 0xeacb23010716c40cU,
  0x3df7f5c3da16d20eU, 0xd9212b0b26d51c0cU, 0xdeeadcb4db5aeff8U, 0xde51dd0612ea2b26U,
  0xc172af2dbfe1151U, 0xe0218e0a3c3447e7U, 0x33ab25041825f4faU, 0x44d4f1daef2fd827U,
  0xf4ec2e32e0302de4U, 0x1054e21becaafcdcU, 0x2b03e2cbbff23218U, 0xea1e223ae131e5e9U,
  0x382918132c2f4426U, 0x25babfc404d7d301U, 0x17173e040a2d3362U, 0x6908df1bcceee7eaU,
  0x321ece1bcfda21faU, 0xfe3fd8d1c407e6f1U, 0xbe36ccf4b0d22dcaU, 0x1930dfdc90cc2900U,
  0xe9ed0a4dfed2180fU, 0x209913ec13c9d4f4U, 0xded7f6cbeca2e117U, 0x28e03e11ab1c4148U,
  0xcab628dc2e5b0e14U, 0xfbeddcc902b1d213U, 0xe92fedb1d9dcb918U, 0xb002856e3fe032fU,
  0x41beae4d5650c36U, 0xe3afe8c203b6a620U, 0x2512f018d21afc3dU, 0xbfe034df6e7e4d3U,
  0x2c263202c6bbd949U, 0x2bf7b313d209ebe5U, 0xa2f0ebc48306fdb0U, 0xe62900a59f9915f2U,
  0xe3f20cfabbe032f5U, 0x198adc9e540aff2fU, 0xd0c5eba8e1b10614U, 0x2f0f4c40f0092a4fU,
  0x6d1f037fa0e0742U, 0xf9eb20ef09ebcbd9U, 0x4e410f8b1cfa9f3U, 0xe6ae010f8717f2dcU,
  0x3a53e31db9e60639U, 0xf4b41408f81ed3d2U, 0x23fc36eec30b27ceU, 0x462e29fa3b25c78bU,
  0x39413b2edd0d8c14U, 0x7f4ea29cf2d00faU, 0xb6dfddeecd18faecU, 0xd1fe0881b4a2310dU,
  0x45da17479b101311U, 0xfba0aa05080a0602U, 0xebc6eaf8fbd61a0fU, 0x22e5fa089f1bd911U,
  0xf820af15dacdc3e4U, 0x50ae7d7da320dfdU, 0x6e605182ccf0ebcU, 0x10102f0e70803c9U,
  0xe6e20f081affe4d2U, 0x27cc2d0ca81afa24U, 0xa00af62bf9daff2dU, 0xf0faf8cacdee3ee7U,
  0x15d70af6e1c621e2U, 0xb11c6d8bb001746U, 0xe2052be4e9cf1202U, 0xbb05d1e7080dbcfeU,
  0x115caff211a0088U, 0xfe0b08f8f8f9d816U, 0x150fb7050502b61cU, 0xa847e8e81b27aef5U,
  0xd7f7f631d6a7cdd7U, 0xe42ddd28d820e1fbU, 0xaf7d740f23a31ecU, 0xe3f4da8febf7dac4U,
  0xec0de301183ceefbU, 0x50de0000ff90724U, 0x7f8153125eef326U, 0xd3eeb3ff1cf52815U,
  0x25e340f7190323e7U, 0xd818a721a3ff9c14U, 0xc2fe20fe03bad117U, 0xd6e7082cb1da2afbU,
  0x1fc8bcf1f30f12bbU, 0x21150b0d26ccfcdaU, 0x302e71db9fdd404U, 0xc202f3f7fa071501U,
  0xddea8521c8dbc9ecU, 0x934b3e0e5c5bbc2U, 0xf2c0ce040109c92cU, 0xf20ee8b8e4ff27f6U,
  0xfec7eb3c2556d234U, 0xe8fc03e63dc2e22aU, 0x21eb11063f0ff51aU, 0x2645a61e540d2d0bU,
  0x10f52f01bab2bdcU, 0x2319dbf2b3efe522U, 0xda1ad2030481261bU, 0xfd0453eab8c6059dU,
  0xe0f7e64d16fadf83U, 0x44fc23d4e1efe92aU, 0xdf39bcd9d6e00119U, 0x980412c5d7b310f3U,
  0x1b28f409f104fa87U, 0xdc05ee18aa2550f1U, 0x617d7eb2fed48ccU, 0xf0feab6ff00c520U,
  0x31ce5f5d7a9d4e9U, 0x21232f3edc1c3836U, 0xe91fe024d8cd33d3U, 0xe4baefdcb6c50333U,
  0x14ebccf7f7fbf4d1U, 0x11e6f2dfe100fa2cU, 0xcddd0170cd9e229U, 0xeec8f102d901d9ddU,
  0xfe02e40904efee1bU, 0xe423fafede19ff20U, 0x11fa3732eff3aef7U, 0xfa0690eb0b219ad5U,
  0xf006d81ee7dd0f10U, 0xd21ce8dcb6192bdbU, 0xfdc5f7ddeb2207c5U, 0x2e0b197f5d20324U,
  0x14f80b2927a5c9cdU, 0xf23109d40c0115U, 0xb0e080ad9bad2feU, 0xc5dc010c1113ef34U,
  0x10f1d5b6f91811a3U, 0x22cc09fffae4dc3fU, 0x35e4defb2811d0f2U, 0xb3f7ef3ff03cf9adU,
  0xc9c6cbbe1df6cbb6U, 0x3e372911f2e100eeU, 0x141f3b14c0e2a8e2U, 0xd4e5e4bdded5fcfeU,
  0x341ed62fd7bdec37U, 0xed0db60902272f05U, 0x3acaf5272c2102ebU, 0xdee8e0f40ff7d024U,
  0xf3fadb34e9d7cef9U, 0x2044161dfbf70e02U, 0xd9ec193506fceafbU, 0xe402d20a24dd0a05U,
  0x2d0beed50f2631d0U, 0x24fe17323d31d4f9U, 0x12060a463518dc10U, 0xcd152bee4cfbd0bcU,
  0xfef6d510282e19f2U, 0x3422fe101711c8f0U, 0x4dee4bfae114fe03U, 0xb015c6e510132823U,
  0x12dff614f80219d9U, 0xe10cce7f5be28e4U, 0xec35dfe9ec16f331U, 0x18dcf4e022f01607U,
  0x2f12936f5e8e52aU, 0xdd1a41f14e11ded6U, 0xff281a0419d8eb13U, 0xfe1e20033ef104f9U,
  0x2909132618d416efU, 0xe9fe25f52023130fU, 0x1ae80129fab8eefeU, 0xb6f7220525e1f1b2U,
  0x120801051f1be419U, 0xef507d0f9d736eaU, 0x321e1007c923b7eaU, 0xd1e8b7fe1abfdd19U,
  0x2128ce08d6ca03edU, 0x50e9c4dacc1270eU, 0x2cefeff23a040bfcU, 0x825f7a02ef51055U,
