/**
  ******************************************************************************
  * @file    tra_network_data_params.c
  * @author  AST Embedded Analytics Research Platform
  * @date    2025-01-12T16:57:47+0100
  * @brief   AI Tool Automatic Code Generator for Embedded NN computing
  ******************************************************************************
  * Copyright (c) 2025 STMicroelectronics.
  * All rights reserved.
  *
  * This software is licensed under terms that can be found in the LICENSE file
  * in the root directory of this software component.
  * If no LICENSE file comes with this software, it is provided AS-IS.
  ******************************************************************************
  */

#include "tra_network_data_params.h"


/**  Activations Section  ****************************************************/
ai_handle g_tra_network_activations_table[1 + 2] = {
  AI_HANDLE_PTR(AI_MAGIC_MARKER),
  AI_HANDLE_PTR(NULL),
  AI_HANDLE_PTR(AI_MAGIC_MARKER),
};




/**  Weights Section  ********************************************************/
AI_ALIGNED(32)
const ai_u64 s_tra_network_weights_array_u64[12620] = {
  0x281b3e2b0ecb81abU, 0xca8494d6818a9fdcU, 0xe97fbac16e24a7aaU, 0x853977fe479b393U,
  0xf1293236e3ff319aU, 0x9f91a68281283847U, 0x2bee1c918f929781U, 0xdb386506df7f1e99U,
  0xd373f681513c3ec6U, 0xe5a1c67fb2af1f1cU, 0x25254a14aa81e267U, 0x44e89cdf7fdb3872U,
  0x49d6f722e3f3dd8cU, 0x603365c2d3812638U, 0x13f3d81cc3bb5cfU, 0x1d0a4dc881fbc04eU,
  0x67f0d904db10defU, 0x4684eb0c679f8177U, 0x58104573acbaa29U, 0xcd9181e4b83a4b08U,
  0x554d9f4316e2aeaaU, 0xe74d81f2c2c6818fU, 0xf45fbf8304d7601dU, 0x3e044343e42e5a81U,
  0x4de0e11b91d68149U, 0xe381a400c7e060efU, 0x3f6781a56aa2f71cU, 0x146a1b6a1e322482U,
  0xc7f38281f69a9a81U, 0xf9819b5acc993b98U, 0x574798927fef838bU, 0xb0e2507332448bdbU,
  0x799fad03138114d5U, 0x1efd5716df7fcc91U, 0x5d44eef935ce1881U, 0x7f23c9f89e9baef7U,
  0x91813d4470687541U, 0x3f42c938178121c8U, 0xa9aee420c4fcbf41U, 0xbc55faa96c69007fU,
  0x6d1c0644d67fa2fdU, 0xb481cb01b84af97fU, 0x8d810337013ed452U, 0xd3104ce74d69e3afU,
  0x37a8121e7f8ead4aU, 0x7f5aad90960a38d0U, 0x9ff48126d9d35576U, 0x683ed2f553bf79b5U,
  0x69aa008d3c7f00c7U, 0x595710c3647f2637U, 0x88ec22b81c70209U, 0x1dd61f3eb636ce81U,
  0xd97f8a6e13e0119bU, 0x1cd4067f59ac4e49U, 0x3aeaf649bbee7b81U, 0xa00c0365e74fc311U,
  0xbb1240a027072f81U, 0xe181ab2c2f81fe17U, 0x982edbc3fdc2ff64U, 0xaf4316928daeaa81U,
  0x3ef9b3ddb9ce7fe4U, 0xa5c16ce6812e0c91U, 0x7fe1d85c69ace545U, 0x141cc481cc584eccU,
  0x10dcfa04b829eff5U, 0x8194c89dce357fd2U, 0x262bfa9d0d9da1f0U, 0xbd22c706d97f294fU,
  0x135d46a57fb0b65aU, 0xfe51ee948101e9e4U, 0xe6cfe62081cf11aaU, 0x6cb221a17fb1db48U,
  0x81e33146f6398349U, 0x68ecdeab5f54f19aU, 0x658149d561bb81bbU, 0x3eeadd7f9dbab80aU,
  0x8e19a081cc2cf9c8U, 0xd37a42dce9305bdU, 0x810e301799f5fb81U, 0xe127949c008bae30U,
  0xfc3754b07f8e5b48U, 0x86ea067ffd6c5bbbU, 0xb54b1b1c19be442dU, 0x7fb99076d3c31281U,
  0x4a2e1c0919c5151dU, 0x6de32ff42a7fbb01U, 0x40df8130ef818735U, 0xc28f0d30cb21fb9fU,
  0xa37812027f1eb947U, 0x10ca3ed62ee7ae7fU, 0x9cdf92c2caa69edcU, 0x4efc2cd67ab48181U,
  0x3a95813196b2a6ecU, 0xaa9c889c984237b3U, 0x9fc53af28f9eb881U, 0x6cb381152cb9be7fU,
  0x10b72a41b45e6c4U, 0x4e4ae736ee78b181U, 0x67f881ed4ceeaee1U, 0x81bc0d19e31d3e4bU,
  0xa7f99d315558fdfU, 0x19f6542a4618f21dU, 0x46bbdce908b881acU, 0x5e550517f6cb05bU,
  0x818fe32375af81baU, 0x95ec7bd04835c034U, 0xbad2f138b0c91581U, 0x92abda81beb693b1U,
  0x144354ac47df81c2U, 0x27813241b236397bU, 0x499a816e31bc953eU, 0x971e01e34e4cde88U,
  0x8815c82e9c81c2b1U, 0xd575f2d68124177eU, 0xd7f5c893181cd52U, 0x6c79e1ed4b58d2beU,
  0x436181c63570c94bU, 0x4b3d5d43d6af81a6U, 0x861db6ad66c8b9c7U, 0xbaee587ff09dad81U,
  0x284039490aa70bf0U, 0xcd2f3381f181fedfU, 0x81c31cc31f3e2049U, 0xab68d3ca4ebdc82eU,
  0xf28e6f81453e3d42U, 0xde2bee087f161571U, 0x1d3976081081be8dU, 0xb20fbdb11b8b813cU,
  0x397a0693ff82f12U, 0xcc953ce1f7c68194U, 0x16a1eed03ff88127U, 0x2119c35f3a7f2db4U,
  0x888102b481431d97U, 0x2e2d03ed16142ca2U, 0x928781c48ce96bc3U, 0x7f33f5a3349db33fU,
  0x7968627f01da1f18U, 0x6384e04381519b1bU, 0xb327dbe77f931708U, 0x3681db089ebc17cfU,
  0xb4decb41d11b5f1U, 0xdd1c3832d0d67fc5U, 0x81bfc93f81bff9a0U, 0x22f56a2f21239191U,
  0x1d500000060U, 0x1400000032U, 0x1c600000012U, 0x40000003cU,
  0x2c0000000fU, 0x200000054U, 0x11ffffffecU, 0x1200000055U,
  0xbe00000002U, 0x2500000032U, 0x10000001cU, 0xe100000033U,
  0xfbffffffbfU, 0x35000000f4U, 0xa8ffffffccU, 0xe00000009U,
  0x30000012eU, 0x500000019U, 0x2a0000000cU, 0xd90000002eU,
  0x14fffffffeU, 0x4600000021U, 0x8a00000031U, 0x1800000003U,
  0x100000028U, 0xc00000032U, 0x151U, 0x5500000038U,
  0xc00000003U, 0xd00000112U, 0x900000073U, 0x1b0000005fU,
  0xfffffffa0000003aU, 0xfffffffcfffffff8U, 0x35000000e5U, 0x27000000a5U,
  0x100000003cU, 0x210000000eU, 0x2d00000009U, 0x150000002eU,
  0x1d0000015dU, 0x1f300000060U, 0x5000000000U, 0xc00000008U,
  0x1300000011U, 0x240000000fU, 0x3b00000086U, 0x1ae000000d9U,
  0x5600000023U, 0x7f00000042U, 0x620000000fU, 0x2300000040U,
  0xa80000005cU, 0x1100000009U, 0x6cffffff92U, 0x7200000051U,
  0xab00000022U, 0x450000006dU, 0x5000000017U, 0x9e00000071U,
  0x1d00000003U, 0x3700000009U, 0x4700000064U, 0x67000000bcU,
  0xee02f8e0ce16f7dfU, 0x16e726e7060bdff5U, 0xfcc50b21b21fda09U, 0x62418f1ea501bc9U,
  0xdebd8f9f4f3d606U, 0x23dae5efeb1feec1U, 0x10f9162e3fc50ffdU, 0xd5b812e1e4f6dfcaU,
  0x1015180dbe2811f6U, 0xe902ed05f603301aU, 0x28f7e620f6d31c0fU, 0xfab10b02fcfa220dU,
  0x2400051c06f4fc0fU, 0xe400bcc016002cc5U, 0x39fb26f3ef36ca08U, 0xfdf105c80e23e0ffU,
  0xc26b2121125e71cU, 0x1001e0ce13141235U, 0xf4cd18d4fa2cb835U, 0xe9f309f907f3d714U,
  0x906130608d830dbU, 0xd18cf1dfcf0fae3U, 0xedf41bcaede322e3U, 0x5b8da201ec90bffU,
  0xec98ebc2fed9f210U, 0xedecc2172105dd17U, 0x23e9dc40a8dbf2a2U, 0xccbe0bdfe7d3e7eaU,
  0xe01c21e3bae718f5U, 0xf1ece5cfe00e1ff5U, 0xcf0c200a0b0f9c09U, 0xfc92214edf7161fU,
  0x1ead7f41fda191dU, 0xe5ddec0c13c6fef0U, 0xe3e1e3d52306efe9U, 0xfc091126ebf8f3eeU,
  0xf91f34e4ffedfff4U, 0xedffd9f3fe13daf0U, 0xdd08e70698f1f1daU, 0xe4e210fc1c1b1814U,
  0xfac492a8e5df10eaU, 0xdf7c8f9e6d80202U, 0xff190aeb1d101c08U, 0x202213e7f8edfbe7U,
  0x1eef1302cabe2931U, 0x1c200423e402cc06U, 0xc90dcdfef2fcb626U, 0x2e3df70de8f81af0U,
  0xf6bd2ac2d3d051daU, 0xc2fed8b2deebe7d0U, 0xcbd3d40ee2f9fde7U, 0xc0e4ded6bb383cecU,
  0xeceffbe0d60ec6e1U, 0xfadcd204e0daa3e8U, 0x7e6cd2813cde1ecU, 0xcaf4f7dfbc1ebcf9U,
  0xdb192741ec09e91eU, 0xeefa27bef4ea00e3U, 0xc5c6e1f41be42137U, 0x2831dfc3c71618e2U,
  0xd5e0f3c70be5c6f6U, 0xd20e13e6ecde210dU, 0x3de328c72ef71306U, 0x185adc2ae2efb1d5U,
  0xd60dc7e6d02d10fcU, 0x1600f5f21205ff02U, 0xf0cb0b31cc33dcf2U, 0xd80c0c1d1f62f1bfU,
  0x815e9fafb02d70eU, 0xff01d500190308f0U, 0xe5f111754200ed19U, 0x20072409190cdbf6U,
  0xf5261923161ce2fbU, 0x12fa18141236020aU, 0x11f4272f15e70efdU, 0xf7c7141c0b161a07U,
  0x161700fef3ecf0f8U, 0xf311b0d71f293cfbU, 0x1bcc1be23105e1d9U, 0xad7efe3041bffd4U,
  0x23e6a9faef10c7edU, 0x31e00ffceaf6f534U, 0xe53e03f9e323c932U, 0x2be7181910d3efe0U,
  0xfb0d160ee30bf61dU, 0x910aefb1fee2618U, 0x3fe21be11fc31e4U, 0x2ae3ec00f5d006efU,
  0x7f220a8f112eee3U, 0xf7e1db08ede90502U, 0x2dfe1642d5e30df0U, 0xdc16f11e150ce308U,
  0x1bfb14e5c41826f9U, 0x121d1ee2101003c2U, 0xfbfe2ff52be281feU, 0xf0e6f32c07e3f9dbU,
  0xe30836f7fbdb3af2U, 0x100d03c8e4ec0415U, 0xf7e6d6f6ef1afa2dU, 0xe5e6d1fce62716f1U,
  0xeafaff08ff1cebcaU, 0xc81af3f805fde124U, 0x6100829ecf0dde1U, 0xecfbe3d8081815e6U,
  0xea1ef532a0e2fc07U, 0xc510ec08d6e4d4eaU, 0xe2eef130c20e01cU, 0x3c10240204f4deeeU,
  0xf1e3e0e5f3c8d71bU, 0x5f732f4c6c7f112U, 0x1a3517dc19e10c02U, 0x1c36094fe5fe14f3U,
  0xdbc92ce1e8dd0a0cU, 0xbef600bbd4e5f309U, 0xdff6d4fd24051eefU, 0xc1cdead1f00b27d4U,
  0x113ecddd20303cbU, 0xecdeee0ae3cebcf7U, 0xf316dc1ebfe0d2faU, 0xfccf0222e501feecU,
  0xda191035f2d4e7e9U, 0x2e1d6e8d5fff5fbU, 0xc8d709083af0d82fU, 0x3e2518c0ece1c3c6U,
  0xc0e7c5c8e90bf5efU, 0xf8042811fa151e26U, 0x342103ed043af6f8U, 0x31acef312151402U,
  0xeae2eae20c0f1021U, 0x305fad3f609d721U, 0xf1ff21410110f208U, 0x42ae4ee0634f3c2U,
  0xed02d5f9f3e21c1bU, 0xf3d8cd0be127fafaU, 0x36bffd1d36df1014U, 0xdfcee813eac6e81fU,
  0x1319212e0e1b01fcU, 0x1ef845e7e03a20faU, 0x127370ae1240af7U, 0xebed110f33ec1006U,
  0x2fd0826ff03ec1eU, 0xe911fffcec125117U, 0xf9da4505fd1c2bfaU, 0x7dc12fdee3d0a03U,
  0xd40606272916050cU, 0x4260ac6f4e5e6d7U, 0x22f7ef0702b8ee1eU, 0xe5fde1dc0dff02bfU,
  0x180703051a2afef2U, 0xe8ebdff3e2d7d0U, 0x40cd2f1fdeaeff0U, 0xf1270e07ffe61bbbU,
  0xe5f6afdcdbc8c820U, 0xf020c92d0ab9041bU, 0xe5eb0af50503deefU, 0x1d153e2afaf9e5dfU,
  0xf50b0fd803f9221bU, 0x25f8f9b7f8f5defbU, 0xd80bf9edecdb0722U, 0x2431102a10210207U,
  0x2bfc2b11ee0f481aU, 0xd01cdfa4b5d9ebd6U, 0xfacdefeb399b0fdcU, 0x132a04d623dbddccU,
  0x10fb1f05f6e6e8f0U, 0xd4e8d9fb0ffffae3U, 0xff18f408a21cb81aU, 0xf52b16ff061416d3U,
  0xd2d3bcf41581ccfeU, 0x1e05f61bfba6f0ffU, 0xeb1bd0f22cf6bb02U, 0x481e2a1507ede6c7U,
  0xff16fdb421e53016U, 0x1df0bc610cbea28U, 0x7169411becc1628U, 0x3b2cea4224d300e3U,
  0xf9fd3dc0e6036422U, 0xc90800d9c90a1fc2U, 0xd7e10afe14ce0be1U, 0x262310d3e83727fcU,
  0x20000bbfe21304bdU, 0xb41938fa0ed8f9e5U, 0xe43f003eea20e3f3U, 0xe0fc109092df0fcU,
  0x71c1d4940cf07d9U, 0x29151fe503e6daf6U, 0xc9e1060868f7fe2cU, 0x5b4c38fde5dcdad0U,
  0xc6f91bdbe81107f6U, 0xd8c13cf5c7e82a0bU, 0xfd31fb34edf91425U, 0x3551dd600bfce911U,
  0xb2101ebf9e80200U, 0x2040307f1fde304U, 0xe60704d6fb1dd3dcU, 0x30df8eef712c31fU,
  0x2916f428fff0ea0bU, 0xeddfe026260fd1faU, 0x1e0b031bd43d1510U, 0x1806d2fc23b5d9d6U,
  0x15000d0c04e9fef1U, 0x61c1309f119ee01U, 0xb1f070ff1f7e9cdU, 0xcee4fb0c1700f3fdU,
  0x17fbeb1cfde82325U, 0xedfee7fc15dedaf0U, 0x1c802ff2015dbf3U, 0xe70529ccde02ea2cU,
  0xeb20c8f0e8efeefeU, 0xe3e60ee1c9051511U, 0xe60916ecd3e3e5U, 0x202224e7160ebc1dU,
  0x71e1ef21a111c1aU, 0x17e8eef71d31eb01U, 0x2719e9dcede6f40bU, 0x11c8ec2502f02608U,
  0x22cf07e4e8f10ffdU, 0x726e803e2f325e8U, 0x1a36fe2bf7fbd9e2U, 0xcf0ce6f42c24f602U,
  0xf7150cc3fee824f7U, 0xf1fc03dd1210eafdU, 0xdb05faf10507bb20U, 0x2a03131707051800U,
  0x2de9ec1522da151aU, 0xfcece4dbfad20d18U, 0xe0cce7f63aa9effaU, 0xfa13f1fefcdff910U,
  0x2ee228221a1f1722U, 0xe118dad517191806U, 0x211a1cc8c3eecff5U, 0x20e5f8f001fe29b9U,
  0xe8b8a8fe25e3df1eU, 0xf1e6b606e6080ff8U, 0xb2ffb0605fbde1aU, 0xe62d240109bf08d9U,
  0xf2281302d8b7e902U, 0xeafa2a22fbd9b630U, 0xb90dbe26bfb3ca05U, 0xd0ff61313e0ea1fU,
  0xdae8e31fdff40015U, 0xd5f923f6141802deU, 0xe2091f07170015b5U, 0xdd06e607eff3deeaU,
  0x1bcbf7021ced17f5U, 0x1c13cddacbf00af5U, 0x9e8b52ae035ccd7U, 0xe1f21e17f4fdf2e0U,
  0x16eae1cef2d729f6U, 0x3fc0a15e5e0fee6U, 0xecc808e916150814U, 0x1716e4ebcc1dd719U,
  0xfb1e24bff5062100U, 0x1d16fbee0bd1edf9U, 0xe00f7f2d5dbcd07U, 0x916d90c23d8f9daU,
  0xddd3230efa12ec04U, 0xfbdc06f71603bacdU, 0xe91de9f8c12724e1U, 0xdbd412180843eaeaU,
  0xfdde9a1608d8c111U, 0xec3e910e8efd6c7U, 0x2bfdee4bfdf21403U, 0xe707f7fedaede2e4U,
  0xf92708fe01cff023U, 0xebff0d090d022624U, 0xda04dac7140b0908U, 0x4d2a810e5031f0fU,
  0xfb1eff00060fe7e9U, 0x110ebddd140030afU, 0x21dbf9a729ffd3deU, 0xb6e1f1c9e41319f0U,
  0xb01fa110a111717U, 0xd23f3d006f31415U, 0x43eb0cf4d4010923U, 0xfe0906f80ee6d2d9U,
  0xf4e704300b00f82bU, 0xf0b321f228fee037U, 0x10d6cf0b18f6e834U, 0xf4f71b1f21fe0a02U,
  0xfa0d05edda15e406U, 0x8f6120925040815U, 0xf61239fa03f5f9dbU, 0xe8f3f0ec1ceb181eU,
  0xa1120e0d1f4efe4U, 0x92ff3dd02f51eb9U, 0xf0e102db09dbdbfdU, 0xcb0001eee819ee15U,
  0xf7d416daf0ee15ffU, 0x2407e09e1d01f4f7U, 0xe0befb210503baeaU, 0xc9012fbfe024ecc9U,
  0x22eae1d31feaed21U, 0x1e2fdafe1f052003U, 0x2329fdd41de2f100U, 0x28ccc4f914ee24f1U,
  0xed181e3ffc1fd3ffU, 0x1d1c1dd61b3e0c12U, 0xf516021917ff06d4U, 0x14f12905ebd411f6U,
  0xff1421e3d833d401U, 0x1cf9dcefd7d203edU, 0xbff516f018fe0af3U, 0xe80c20ebbafc00d8U,
  0x141e24113fe43815U, 0x205182f13cc2b3cU, 0xfbf7de0041f1e013U, 0xfcf3f8cf02ec26f8U,
  0x382714100d0927edU, 0xa020bf0edf8f6faU, 0x213007e90241ea2bU, 0x118cc2d0553f2f8U,
  0xcdb1612742aff3dU, 0x2dea321be839e414U, 0x2200f8791a451e0cU, 0x3315091438f1270dU,
  0xfd0d0c56f1ec21ffU, 0x10355a691507e43fU, 0xcf28f02fe0bf2815U, 0x14481719fd04f423U,
  0x1b0d17dd2cc639fbU, 0xf8e30ff40fb4cfdcU, 0xf033f4c91be4d72fU, 0xf3d3df031a2221f2U,
  0xc70e33daedfd08caU, 0xb6f325c0fac92ee8U, 0xe8132211cafe2fa4U, 0xd81b1ed51a1eddbfU,
  0xe139eb3af7040bebU, 0x1bfc42cdfba06d5U, 0xfeefbff505d1e53eU, 0x1b2b2aeba1dc9df8U,
  0xfb02d6be01b211d5U, 0xea05292dc1cbfcd5U, 0xf92e071bd8e05dcbU, 0x2a2cfd4b2dffeaedU,
  0xe41413e11cdb0a03U, 0xf41ed7ade3ce16dcU, 0xe1e8f620d721f0dcU, 0x180103edfbf40d0aU,
  0xdfdae4f9ed0ceaddU, 0xe22edaf7e9022002U, 0xedf0fbe6cae220f9U, 0xebc9df1e07ffdfdeU,
  0x1d14e13034d603f2U, 0xe383cfc021bf613U, 0x4db04f4060fdae4U, 0xf409dcdf1fe50de0U,
  0xef04fcfef32be4fbU, 0xec1bf1080de6cbfdU, 0xe513061f14b3f60bU, 0x14f70ce9d7fefe05U,
  0xe1bfaec00e0090aU, 0x1c17d91f151b08e4U, 0x2801018121e1d0ebU, 0xd1f5fb18f6d4fdfeU,
  0xcfe1010211720f8U, 0xcaefb6cd150affddU, 0xd29e1def43a0332U, 0xf50cdf14ebf31ff4U,
  0x20703cc421dff1eU, 0x2907f20bdaaec2d6U, 0xf72ac83811e4fdf4U, 0xec2004fcd0f7d8b5U,
  0xedd822bde8e611f9U, 0x1f024e2b26d8b1ecU, 0xb0f7ff02b1dae1ebU, 0xf411e523de50002U,
  0xffd60506df003b16U, 0xd6180cbbf6f1ffdcU, 0xe8c6c8fedff3ecd3U, 0xf4d207eccf0a0bafU,
  0xe8cdebb8cdf20b0bU, 0xc90724e7f8d8d111U, 0xe523db27e7eab60eU, 0xee3ac809dafe06b6U,
  0xfc010f26040fe9e7U, 0xcae60ad6ebc4e8b4U, 0xda0ac81aef05b219U, 0x1724eef0deccf2e9U,
  0x704dedb02180cfeU, 0xb6d80dccf2c1f1ecU, 0xe0e81b19ed1f30deU, 0x103acdfc12d30a18U,
  0xf9fb18ec451b132aU, 0xe5fe142c25f21106U, 0x2c2e02c40e0a2e09U, 0xd8df1c1ee31f0307U,
  0xf1200e1c0e24ff34U, 0x161ae7061d30e1faU, 0xf9f4f42ee3024824U, 0xe8191fec0507260cU,
  0x1232002ff4e12f0eU, 0x1d24f73ae8dc0e37U, 0xf11eddf21be502d2U, 0xe91bff00e53f1f27U,
  0xf107fe0628fb092fU, 0xeef5f00315100cf8U, 0x9342e3817381435U, 0xb07ede8271efa06U,
  0xdcf6d3e4fff80119U, 0x32f62602ff02e046U, 0xf9181b1a22040409U, 0x1022e3ec22f0d3ddU,
  0x11908f8f6d0fcf7U, 0xf024ab011af9f9e7U, 0x16250ee7f0da1d29U, 0x15f1fe0a1aea0ccfU,
  0xd0e0f9cf000dddf1U, 0x604dce7f3d2d5ebU, 0x26210d12dca0df10U, 0xec1e1eee17241cf7U,
  0x27e8e80cffeb2733U, 0xdf1f30fc1ef111d4U, 0xfce229e6e9d811U, 0xeae72432151a02f7U,
  0x2103f504190b00ffU, 0xb0cf6cdff0411edU, 0xe8ccfafb201d0afeU, 0xbbddcbd00805e0d5U,
  0x21293ae816dce7d4U, 0x1a10f50f07e3d9deU, 0x2c220d04d8d6d5f2U, 0xfdebd8dcfbe9e8f2U,
  0x4f8e9001910f20fU, 0xffb5ec05f3e809U, 0xe40aea51efcb200fU, 0x8f0f1dc0ecc19cfU,
  0xfaf91116e804ec1eU, 0x9e6312df30f1338U, 0xef09ff0ccc26daf9U, 0x9e40af6d70ae31eU,
  0xf8f209f0e8e70bd2U, 0x24e3f61b0abbd8U, 0xf3a72115f110f0f7U, 0xcdc26f5fb42ff0dU,
  0xedc1d6df04faffU, 0x2dcbbfbeaeabcf0U, 0x14aef86e0ab1f118U, 0xdd020329d72abbf2U,
  0x22150328c604261dU, 0x7f50002e435111dU, 0xf8ee06cf3a0a000fU, 0xfbf0c0c5fe0b0810U,
  0xd5fef40028f3b6c6U, 0xf6f4dfd01c1d44e9U, 0x4f04e2e0fc2edbd8U, 0xe609daf1ef2f010fU,
  0x1806e823f005ced1U, 0x28e6d9023e0d0251U, 0xf9f307d9f3e7e835U, 0x162ad4f248ffd5f8U,
  0x2cc9f4e940f104fbU, 0x1ddca10b28250dd2U, 0xef12f2e5f031ad9U, 0x28def2fa2bc6222bU,
  0xd0c722cce22a1823U, 0x9dcf216f72825eaU, 0x2a2ad83fcac113f0U, 0xf381ffe32419100eU,
  0xf52e2432f200e0dcU, 0x301bcce01e941dcU, 0x1eadb03f00597ffU, 0xbdb828efd63b2408U,
  0x1be6d7c7e417d036U, 0xd9f722ed12afd81cU, 0xe1d0dadcfcf0dc35U, 0x2825e6e711e5e505U,
  0x190ee60edfe4dbU, 0xdaf3ebf91b083b12U, 0xd4e0e202fae3dbe4U, 0xe90702180cf4fdbdU,
  0x5bed5b7cdfcbc11U, 0xe804a5eb0f0629e4U, 0x5f5ecd8f417fdd6U, 0x14fae8162804f70aU,
  0x2ad5f829c3b81822U, 0xd6050bd3100ecff6U, 0xb71cf819d9a8c313U, 0x4073fe8ec2b0fU,
  0xd7ec051224e332f5U, 0xeac80f0a13d9ee27U, 0xf912f3f435d31cf9U, 0x426d9fbe81011e9U,
  0xd3f4021ce8da06dbU, 0xe23226e9dcf8402cU, 0xe4e52f3df4153ce1U, 0x91b2ef1dd0122dbU,
  0xdf1712f32662d7e2U, 0x1edededff8fdd4e8U, 0xe503dc0d32e61b3fU, 0x3430e8d8c71410e5U,
  0xcceaf91a11fc10d8U, 0x30af20e10feecU, 0xfa1018efdfed13f5U, 0xe93d09fdeef1ee1fU,
  0x27ca2005ccda2bffU, 0xfded6d7e017e802U, 0xfe070a0100e2fbc2U, 0xf308fe1fc7d738f6U,
  0x6e2c7d61729dd14U, 0xe0c08cfdadc02fdU, 0x1bded05f8f9fcd6U, 0xfbfce623bc2ee908U,
  0x8df1fefc410de18U, 0xf8d817c8e603dfebU, 0xe3f4e80e2816ebf4U, 0x31d7f4f9c310fbfcU,
  0xde0818e01714bdeeU, 0xcdcec1f9d514d92eU, 0x2b27cbd7001df012U, 0xf5fcecc1d504bc08U,
  0xf2f1da00d6eae2e7U, 0x2e0e1edb1a24091fU, 0x19d6081407fdf301U, 0xf5190ff10ae3e3dcU,
  0xe1020cd7f509ea09U, 0xe50524e5001a11eeU, 0xf2fcf80516e32112U, 0xffead203d8e72425U,
  0x24efededd1fce1deU, 0x25f70f0810ebe510U, 0xeffa2415b50a34eeU, 0xbb9e1f605fc08feU,
  0xe91afe1fab1e07ddU, 0x81edabcd905e512U, 0xe41bf8ed28fadd0eU, 0xfdb110c9aaedd4dbU,
  0xb41b0008ea1e3200U, 0xe13c16e3f00d0e22U, 0xdf1dd031f8d91515U, 0x122ae22a04064b2fU,
  0xf8335112071a2cfdU, 0xf92743080b106704U, 0x2ae4b5480f281f08U, 0x2618e9fa20161505U,
  0xddff4741d51ffa06U, 0xeb0cfbd82ce00de6U, 0xf41c11f4fd2f1e13U, 0xfaeb15022ac208e2U,
  0x18f008d2230a0303U, 0xcfff2b03cdacf226U, 0x394e2a27ed124b39U, 0x42b10303f0afa08U,
  0x206390a2fde2d2aU, 0xde5f84ef8dc3821U, 0x302fdfc3270108d4U, 0x4ece0f313dd4943U,
  0xfb21371e28ed38fcU, 0xf1248ca2d181732U, 0x1fe1e62bda0afcfdU, 0x927d427092309f3U,
  0xef1819e82abc0400U, 0xf82b2ada0f1cedf5U, 0xe449ee142035f5f0U, 0x14f7230c41c5c7faU,
  0x221af11d23fa2b36U, 0xeb150072e3e2181dU, 0x1a40cc230adbec2fU, 0xfa14f726ffd0e908U,
  0xc8e1f7d5d507e128U, 0xf70fe8ccdf13f6eaU, 0xf6c9071ef810eddcU, 0xdff435fadc311627U,
  0xdfe7d50ac734f4e3U, 0x10dd33332c142ee5U, 0x17b5d80fffbcf302U, 0xfcbdc5ec25bd0b01U,
  0x13fcd90bbc28141eU, 0xd0702da043713e4U, 0xd2d625d7d0271bd2U, 0xd3e71b051ef10718U,
  0xee0612bdffe7f238U, 0x305d1cfe5f93c19U, 0x26f6f7f91ddf3711U, 0xddf7f0b6f808ea00U,
  0x1122e6e6061bcbccU, 0x2f92ae3e62bef00U, 0xfcd2f114d31ff801U, 0xf7efeced2620f4d0U,
  0x1ae4b9f012f512eaU, 0x10e0f8efeb0cf4f8U, 0xe4071cdf29c80c1bU, 0x17ace70addae28e2U,
  0xc0105f00aebe50cU, 0x6e1f8201ad90525U, 0x8f5ed0ef8ffd8c4U, 0xf3e6f428f7fee200U,
  0xe120fedf6db0dfaU, 0x1610b6ad0d1befcaU, 0x9e902cfed21e207U, 0xd5a52ddecad7e50fU,
  0x3107bedd0affc426U, 0xefe910d1f403fc03U, 0xabb050b10d2c7eaU, 0xee1c0a0e12c1c0e2U,
  0x19ed05d21d0eef10U, 0xddffbbf2f9f0f5dcU, 0xea08f6e6d4f5d508U, 0x21f9eb22e6f1161fU,
  0xda9bfadbf2d22411U, 0xe4d0b8f5dbd407f4U, 0x8040a34ecbfd201U, 0xc8ef120df1deece3U,
  0x1903e6e6e50328e7U, 0x1ff802acfd02b032U, 0xa7f8c2fdcfb59df0U, 0x28031918f1d7ee2eU,
  0xfb090ce6dbd523feU, 0xf9e705f829df11efU, 0x3091913282bf8caU, 0x2ea2f04dffc43f7U,
  0xee0e05010ce7fc13U, 0xed2ffdde0bf6e50bU, 0xfc13d43601fe01e0U, 0xf4323d2702210d26U,
  0x11370bf1fe4412fdU, 0x111ebe4d0efdbe9U, 0xe0162bc43bfa354eU, 0x3a28170ee5de1f12U,
  0xd406f61109070aecU, 0xeaf14107e7062e18U, 0xf9111ce9121c07e2U, 0x1b48ec2405f4fee1U,
  0xdae0f817f03929ceU, 0xa28fed4f53be43eU, 0x19cbe21ef43deb08U, 0xcee92d1208212ed6U,
  0x3300fdebccd7bf27U, 0xc329dd13cfc1U, 0x8b62e683fd3021aU, 0xf0de12ee0321daebU,
  0xe93b1d35fe2015f2U, 0xfb241305f83afe0bU, 0xe80c02380b0b182bU, 0x2cfd12e3ebf32c03U,
  0x242502f30220ddf6U, 0xf211b8c311f61fe2U, 0x21f549ccf525f9e7U, 0xf5eb1bdae32effc4U,
  0xf630a216f917c8f2U, 0x16f1fbf3121b2a1cU, 0x21bf1bfafd11f657U, 0xd2190b260435acf5U,
  0x2f2df4eb30fc0f18U, 0xdff2cfe52a0c0715U, 0x133f9c9442b22f1U, 0x11fce231e3bbf1ffU,
  0xf20c0806e8edd822U, 0x1fbc7110e122d15U, 0x37190e52aebb15b6U, 0xa5b9e512030cf617U,
  0xaed0111d00d1cfaU, 0xf5e4ded9ef040fffU, 0xe80f3027f20c99e9U, 0xf5b62009d9fbf120U,
  0x2d07d6ebfa1a0c1cU, 0xdcf8d3d7f9e9faeaU, 0x222cffed13f1f7f4U, 0xd1b2310e0bb06f2U,
  0xf3f147110b2f1c01U, 0xfe39e4ffe91cf025U, 0xee2708e8fa18f5e5U, 0x2aee0221170402c4U,
  0xf8bda2ee2b2ef7ebU, 0x2909c9081906d603U, 0x606f235f1f0e9f4U, 0x60a03002f0cfa16U,
  0xeb1beb1905e40f06U, 0xdce140ce16f3dc08U, 0xc1030d27f5d9e4e5U, 0x1f31112cde0b02f5U,
  0xd19923c587c25af3U, 0x9ee8cde9cedbb8cbU, 0xc32c11e0020443d9U, 0xb6be0ceda61c3f91U,
  0xf0b0e4a1cbe4c1d5U, 0xa9eb1ba5c7b8bcU, 0xafe10662f5edc4c8U, 0xbceefb01b328c1e9U,
  0xd4410d24ade813d0U, 0xdff0d0ebe0fa01ebU, 0xdf940bed6a010633U, 0x2231dbe497e903eeU,
  0xc1b0e6b12701e8e3U, 0xcdbb22fd00fd35e1U, 0x1f2b03ad1d3af9d1U, 0xba37f10af60192bcU,
  0xc9fa3212f5f2f1bcU, 0xe5e6e0b9e130fcebU, 0xf6e12af7c0450003U, 0xd0211904d96b4281U,
  0xfb08dfebcfdcc5ffU, 0xd9e91ed608d7baU, 0xf4e9e03919ae1518U, 0xd7f918f3c201042bU,
  0xe162223fdff90206U, 0xbd0f19e5e231070cU, 0x2ccf82a2a11df04U, 0x8c80dd11ef816fcU,
  0xd815d9e01a39fef0U, 0xd4fbca9ad9f920d5U, 0x2acc43f200452c23U, 0xff05edead713b9a5U,
  0xffcba260f0af601U, 0x23f01aead3392021U, 0x12c70807293ccc25U, 0x1be8ef2cf3f1ddceU,
  0x1f82d0be7e80d22U, 0x1e09bae8f10df327U, 0xeffce2e217c70f38U, 0x5101b12281705f2U,
  0x3e72be3dbef03ecU, 0x13e6da1f040f0804U, 0x1a14f82de2bc0b00U, 0xd0af81037ff06f8U,
  0x29f82c07be24e0f0U, 0x62ce7ac27fffe0eU, 0xf8ed4007feebbb10U, 0x1161032e6eb13f8U,
  0xf9e2fbfd20001dcbU, 0xebed1324dae3b1c3U, 0xf0180bd4c1f827d8U, 0xcdd5dbfbd0fefafdU,
  0xdac5d703eed6dbf8U, 0xe5b600e2e1d1e99aU, 0xdb040d1fe713e3f6U, 0xe61e19fdda0acfeaU,
  0xf919d90e3906f008U, 0x4c0c5fbf2cddbf3U, 0xd4c7dcdf0dedf621U, 0x241cbef2d40fe932U,
  0xedd0f9ef35e9fab7U, 0x7061e21f7ebebd4U, 0x26dbe7b5dd0ee6b7U, 0xea04e90b2803dec2U,
  0xf5c819d906df32f9U, 0xefe0f91d0210c2d3U, 0xe4300604d6d60dceU, 0xcffaf802e6f51eeeU,
  0xf1e3fce60ff4d0efU, 0xefda0901cde00dd1U, 0xf5232e211822fee9U, 0xf1360401d41bc3edU,
  0xf2241c315b13ef01U, 0xecfb15ebe10c07f1U, 0xcce2faf91d0deb19U, 0x4121dbd3f5ec05dfU,
  0xeef0dcf933f7f402U, 0xc8e71cf5e101e8ecU, 0xf5f9ebc40cf017dfU, 0xd53de72d43f5c795U,
  0x60015f6eee32703U, 0xe703f60ff112f5faU, 0xfd19ed0ef6f8fb05U, 0xe00df3051118160aU,
  0xfef2f5dbf4f2e906U, 0x9122808e3e9f405U, 0xecf70322f4120005U, 0xc0fe123ddfe1606U,
  0xeefc2e1c37f9f7faU, 0xe70422e7dbfcf506U, 0x11f2fa1b21f3fe10U, 0xefdfb1000f604daU,
  0x207eaedff1a0808U, 0xebe5f803fb0b020cU, 0xf90ffbe3fff139f6U, 0xf30ffc191cf1dee3U,
  0xece8fcd303dd1afaU, 0xd4edc9bfb0cee8fbU, 0xeb0acaf6f8c600c7U, 0xd3cbeeffd6f017d1U,
  0xf2e2efb8c2eef6d9U, 0xe20909c4ebdfdef1U, 0xecfff900ede9c6f3U, 0xe212ef05cd0401aeU,
  0xe7f80609ddcad6f3U, 0xe2cee0e2e9d1c5d7U, 0xcedbdafa08e4cf21U, 0x1625e9fef9d4e1c7U,
  0xd0edd99ee3eafee2U, 0xd6d307eca091fffbU, 0xe4f8f8edd8db10f9U, 0xf91de218fdf3ced2U,
  0xeef62ed3f3e32d02U, 0xf30900a1d30e1704U, 0xfbe9cc11dff216c0U, 0x204efd8f5192cf6U,
  0xf1fcffe8d40efbfaU, 0xe11b15fa0ae823ecU, 0xf60b18fd181bfffcU, 0x11f81fef412f6c3U,
  0xda1d193917fac0f2U, 0xdcfd04ebea0d05f2U, 0xfeed0f071807f517U, 0x212e05ef14bf0b9bU,
  0xe1f2c9ccd5e80505U, 0xcdf315f7c1d41609U, 0xd41a1c0b16db4103U, 0x1308e125e0f1fbf1U,
  0xf4f713e6e40bfbffU, 0xe1120be6ebfdfa1aU, 0x11cff8f81dfade02U, 0xfcf9ffddf9e72904U,
  0xedf30c11000905e8U, 0x14092413170f01fdU, 0x8fdf3cde3f604f4U, 0x6e4c624ffda00e0U,
  0xfff9f81e0b0be1e4U, 0xf0107f6f80b0c08U, 0xfa0a1003eaf0e4d3U, 0xe9df1009fbfd0dcdU,
  0x4f804e9c412ef15U, 0xbe305fdd9fbe011U, 0xd01a0a08f4da30fdU, 0xf8e4f9efd0030ef2U,
  0xe001f7e1ccfffefeU, 0xfa0417eccdf93609U, 0xfaefe41d10e402d4U, 0xefa0cfc05fd0fd5U,
  0x1b0b00f60114eb09U, 0x1b480ff70c1712eaU, 0x2208f80e0ceafcefU, 0xf7e305f1050803aeU,
  0xfa0cf40cc5d6dafaU, 0x32414fe0efa0607U, 0x1200220c1017c3feU, 0xf10639e22cf9f8faU,
  0x1714efc70419db36U, 0x5130f07e6efe707U, 0xf800f412fce32213U, 0x141ff516d907eeefU,
  0xb0a01021d1905f9U, 0x1105f611def721ecU, 0xfada130a2007f7f4U, 0x521e3fdf8faf9U,
  0xf7f11d070720fa12U, 0x43a0a1a0d1d1d17U, 0xfcfffcf811f5eefeU, 0x1701e31f16ef1f0aU,
  0xc15231c0cff0feaU, 0x3101110fb1afc19U, 0xff0607fe180a06e6U, 0x121523fa20f001cfU,
  0xb0801e1e1040205U, 0xfa1b0fede40a1805U, 0xdd10010a0bf511faU, 0xfc10ed13f6fa0319U,
  0x411e7150bf7e21cU, 0x7f6f1faff140311U, 0x16e9fa051df6ebfaU, 0x11609101dd3fff9U,
  0x1d03ec1a160a1c07U, 0xc1306f8200c0527U, 0xfff801ddfec9fd1bU, 0x21dff5f821bc22f3U,
  0xeeda0ef312df0bfbU, 0x240ff2fbf6070509U, 0xf130903c7130dc0U, 0xf0bb0c1710fa17f2U,
  0xfff0204ec000517U, 0xff1be6e613fdfff2U, 0xf90dfd1ce9ea1503U, 0x11cd00e1f4050327U,
  0x1bdf66c8ddcf6905U, 0xc8e70716a4d8f0efU, 0xfc1bf4540ad234d6U, 0xf1f7190e05fd7fd9U,
  0xf4e206efc31feef3U, 0xf1eb12271fdb3b1fU, 0x606af4c2baa0e0eU, 0x1325f111f6380a0dU,
  0x244f3d74f3cc13ebU, 0xe41619cdf60ef5feU, 0xe12014ef6a47d01dU, 0x33601af708cb0bd9U,
  0xe1d0f7ce5c43ecfdU, 0xecb83afcd3cfd924U, 0xf65c230759126d12U, 0x1a41e11807d2e1e9U,
  0x1e17fa14f1f105dbU, 0x11fb07e1fcece5feU, 0x9f3edff1900edd1U, 0xe5effb06d3dee7deU,
  0xcf4dddbe6fb011aU, 0xecfcd60510e3bf24U, 0x1700d0ddf4c9c60fU, 0x8c9020303c6f909U,
  0x7f1150beee90ed9U, 0x222011c50ee9d211U, 0xe1f0fd18f421f8ffU, 0x30cf0f2f5bd1dceU,
  0x16eeea15ccfe16f4U, 0xe1e0f8ddf31dd70bU, 0x23ea1a18df2203U, 0xf1c2f8e5e1e0df02U,
  0xf813d7e8d800eae2U, 0x60ddde5f3f01010U, 0xf5f6ffea14df02f7U, 0xe9d2111d15d0bbbaU,
  0x4f5d1120503011dU, 0x22f1eb0419ffce0cU, 0xdbc5eb08d110f8U, 0xe59ef3e90ecf10d9U,
  0xe8df09dbc3bcf715U, 0xdde7efefefe6f2ffU, 0xed130cf7e104c2d2U, 0xeab4f21c07fefd27U,
  0xf01313d62ff7d4f8U, 0x10e2d0dff2ea0be8U, 0x2230317041ff7cfU, 0x11d016bbd5eb0a0eU,
  0x6032900e7041417U, 0x35e1051a1eff0b1cU, 0xf01e3c1b24f71a0eU, 0xb81b2100fc382616U,
  0x1831202bff08f41fU, 0x16152d13ff19dd10U, 0x1afa062b4b07eb12U, 0x9d9f5f32afbe247U,
  0x221cfe2806180b09U, 0x332114121607330cU, 0x5081a3df32334ffU, 0xeed8ea1c260d23fcU,
  0xe711f70ffefdfd00U, 0x29090119d9fe0115U, 0x161614001a3b3917U, 0x38e3e5e0241f24e7U,
  0x202af01dfe16dfe0U, 0xd02031c2f1b002eU, 0xf8ffdb0ee7ff1b1fU, 0xf5f107044ef502f3U,
  0x3734f40eeef1e50eU, 0x17e4de0522240ddbU, 0x32103be43e0111edU, 0x20fa17fff7f2e51bU,
  0x7cda5dfccfe090dU, 0xdfdde32ffa1031f5U, 0x1408fc20aee3c2f4U, 0xb1d10510281f0934U,
  0x2d031f1a09f70526U, 0xf1eeb0c6f61700d0U, 0x1f1a22e318f4ec11U, 0xabe13f4eb251605U,
  0x20f5cff2f5e81801U, 0x28d4fef0070c00dcU, 0xea1fe8e816030007U, 0xc31efce030c5d3f4U,
  0x37120e2103f00aU, 0xe708cce820e8b4efU, 0x26c1ecdddfd41602U, 0xf009f007061e03e5U,
  0x10eface0bcd21721U, 0xc40fc11509e2090cU, 0x14e6f6c6d39dedebU, 0xae2f905dd1dde31U,
  0xef216fa2fe7f830U, 0x231eddd82325e613U, 0x2614ce13c7f7e335U, 0xb0d03fbf6010124U,
  0xee19d9e71ff9b12bU, 0xe30de3bff1eff52bU, 0x11f1d7dd2ef00a18U, 0x150debea2707ffebU,
  0xe423110e10fdffd7U, 0xd721ef09f30b22f1U, 0x20be3c827fb10f8U, 0xf1f00607faa0e711U,
  0xebe325e6f3f00f07U, 0xf800f61e04d51cd1U, 0xef0eda23f901f2dcU, 0xded52826fdc8f014U,
  0xf4e20b02f6000613U, 0x1615f2ddfbe91514U, 0xe3030e0f2404130eU, 0x13c5f0db15f31703U,
  0x2defe520d8100c1dU, 0xbf8fb2d13f001eaU, 0x110de13306e403f1U, 0xf6e41efef708e4ebU,
  0xe7fc0207ce090212U, 0xdc17ed001110c33bU, 0xf9fedbd700e113fcU, 0xe414eedfcf1b3025U,
  0xe9ddeac61223fae1U, 0xea131c09e5ecd1ebU, 0xe710edca1900f90aU, 0xf812eeead3f1f1d4U,
  0xdee7dedccd26e5f1U, 0x8dcfb17de34dce1U, 0xf8210323e305e700U, 0x22251a01d0d9091dU,
  0xdae849f4fc1555fdU, 0xe0121ef20909dfc0U, 0x9f3dad3dfe339ceU, 0x1af7c6f9e40638eeU,
  0xcfeaffe7fcf3e409U, 0xb110bfcf6c70b0dU, 0xf2f3d634dd07e1c0U, 0xa252cfcb4180604U,
  0xce5bceadef21e05U, 0xc1ea93e0f1f7bd10U, 0xf2d1dbd819b3c53dU, 0x3331f3e1c128fc27U,
  0xddd2e2f106f1e0f3U, 0xf1fe030124dcf9e7U, 0x1a1ddd29db25d4b2U, 0x721100020c4e719U,
  0x292b0cfa0c1736U, 0x3ef1300ed14181fU, 0xf2e905e33e14ef1fU, 0xe12d09e825fb1903U,
  0x19235b1909fb10dbU, 0xf8ff38e1f9e5e4f5U, 0xfc24462e37e011dfU, 0xffcf1210406fa0dU,
  0xede719f3ea08e619U, 0x815db2ad8e620fcU, 0x2402ff131de9fe1fU, 0xf6d93ee511f90010U,
  0xeefb00fce61d0925U, 0xf0e11e2e706ea2cU, 0xe97df5ff0e1c21fdU, 0x16f108fc0a22e3e9U,
  0x3bf0e412040cff09U, 0xece329fee7032331U, 0xe609e2e23de1072aU, 0xf505fef5030fe8f5U,
  0xf216460217d5f319U, 0xf71df8f9fd0840e1U, 0xd2270208e63727e2U, 0x1af70503fde127d3U,
  0xe81ae6220c140efaU, 0x2ce92715f1ed0be1U, 0x1825f321fd0f08fcU, 0xe5fd0a1106d8d7f5U,
  0x1e001b1902ed0f35U, 0xd211d8e0140bf12fU, 0xe455f62ad6e714e6U, 0x3ec9100601daf4f8U,
  0xf101daf71dfbdf22U, 0xdcf1f307dff2f2d4U, 0x4071206f6130dc4U, 0x21e527dc03c3c517U,
  0x151725ee09081f06U, 0xf50ffa0d1fe71a09U, 0x131afeecc5dbecf9U, 0x12eb0cfff2f500ffU,
  0xfdedc5d2efd7fdf7U, 0x1024fde2f0fa2123U, 0x11eb1c02f90d1fbfU, 0xd7e011f2fe0c11f3U,
  0x1509ea24e6f01500U, 0xd8f2c3eae42bdf0eU, 0xf706fefcd8de0a13U, 0x32c3f8c5e92316f8U,
  0xfbcb2fd834e70ff2U, 0x1911ed14ec2600beU, 0x709ff0d2811ffdcU, 0xdd031109f01a20fdU,
  0xded431ed0af2d6e3U, 0xdf1af618f809dc23U, 0xdc21f8ff374b021cU, 0xe131f60fc8f40b19U,
  0xd824030726f0e9faU, 0x27e027f10df410fbU, 0xc6ac22d0f8f2f2f2U, 0x1f0d14facd02f3eaU,
  0xfad6f1d51815efdaU, 0xdfe00d0a0f141c09U, 0xef25f725f8031befU, 0xe73ef81c11f8e3f2U,
  0x3410ea0709ddeb24U, 0xe6eff715fff4f0fcU, 0xdebe9eefdef0e3bU, 0xfe0704f5252f1400U,
  0xd1706fa3919fed5U, 0xedeb34fdfa123cf8U, 0xb211d2f2c2dd3f5U, 0xff32d308fa29fa06U,
  0x13464425143a0e28U, 0x21e40cdc13f60cf1U, 0xfdc092404313000U, 0x1811f504eff81d15U,
  0x1e192113faf823faU, 0xf51a181bf02910feU, 0x12ef01f921ee1d28U, 0x9f6eb201734f002U,
  0x1e14d71b3ced0608U, 0x20306fb0a31e9f7U, 0xfc00f4db3a1cd5f2U, 0xf710e8fd0a29e008U,
  0x10230803dc1a0102U, 0x19e3ed01eef2c208U, 0xfc0ee9ef29f4032fU, 0x220711260bdef727U,
  0xce227f12006f808U, 0x11edf8f6161915f5U, 0xed13e6f4ed09dde5U, 0xbd5ede5e1dff109U,
  0xfddaf448b9fd1be2U, 0xdcf90b0a1005ed46U, 0xe71f3cd8e805c517U, 0x38cb1dcd04f0ee11U,
  0x7e0fcee43d4fbebU, 0xbec1f331e2c0d1b5U, 0xc926ebf50c0d1b06U, 0xc9c8bd2b050cde1aU,
  0xddc72ee31ade24c7U, 0xf5ddebe3afbea3c8U, 0xa81e2924b86ccebaU, 0xbc2ff7efd218b70bU,
  0xda03f8ecf432f4f5U, 0xd0e10ce801f3f3c4U, 0xd9a8dcd714d7ea2aU, 0x16f9dbf99111cae5U,
  0xfcaf06e2fdd0f9ddU, 0xc7cb4c4a1e13ff03U, 0xeb14fad6081d23b3U, 0xf6ffcb3625f91407U,
  0xbbbb26c303f90fc6U, 0x7e00c032902bfd3U, 0xc12dfc0cda090a0dU, 0xc009dae0d32827dfU,
  0xd6eafce0c3d2e2fdU, 0xd7cbe8e8c3ffd8a6U, 0xf40c3b0b14380a0aU, 0xe92bfe09d23ea2f0U,
  0xed470c1b3f35ea1aU, 0xe0f904f2ff18220fU, 0xb3c1250736201c17U, 0xf31a0fdc4c8e7e9U,
  0xe1e8ebfe1733dbc3U, 0xf9dcf6f0db1051f6U, 0x22c807811f3b06bbU, 0xd2fef6050c25e0ceU,
  0x13d61f00ef18fcdaU, 0xbd3e5fbd819c111U, 0xf509ea0ac8f113efU, 0x9fcdf07df202db9U,
  0x6fee80c24bffecfU, 0xf0c118dbbed1fdc7U, 0x1e1918321b211905U, 0x402e51e09dfd7fbU,
  0xef006e312f0306eeU, 0x1ddae729d910eb18U, 0x905d239fe05e5ebU, 0xecd1e616ecfcf9f4U,
  0xd7f01317ed1503e8U, 0xcb06dcfefce62ef4U, 0x2ff62dd90a0fecd0U, 0xc1cd07f90be6ceecU,
  0xf113e62ae41b0a1eU, 0xc141ae9e4e6ed00U, 0x15eb1333e8e3e7f0U, 0x1efbffe9f6d6dce8U,
  0x3221cdce1e91507U, 0xe2ffffae3fee0fbU, 0x2208e5faf5291b04U, 0x231ad505dd122928U,
  0x20c806bb01ff1bf0U, 0xf6fff820e609312aU, 0xebf8fa171620fed0U, 0x130807fdf4170a14U,
  0x181af0180d191e0cU, 0x3e4121ee1f8e2dcU, 0xc50b0b04c7f6c2f6U, 0xf9ec180cd60f02U,
  0xddf3f7e9380f4af7U, 0xe3cdd206e706d9ddU, 0xf4230eec2b2d211dU, 0x91cbe090032031bU,
  0xf9f800fe13eae8eeU, 0xc6ea28f2e9f00fdcU, 0xbb3823240945e704U, 0xb84b15f62141f711U,
  0xf4250012311bdee8U, 0x1bd8f925dac5f0c7U, 0xbfdb5293700fb0fU, 0x2e490ef1c50de0efU,
  0xdfd9ea2623f30a00U, 0xfe165bf822fd1d11U, 0xf006f50edc29070eU, 0x1f21d00c34f500fdU,
  0xcbcef906daf63405U, 0x20eae2f43112ebfbU, 0xf414fb26fc1b02f7U, 0xed2dd17c6173cdeU,
  0xd2d5c4d9e5f6fdf4U, 0xdcbc0edfb7dd1fe8U, 0xe3062f1d42da230eU, 0xffefe2ffdd170423U,
  0xc3364a447f31f920U, 0xedd74a13f23916ddU, 0xe9cd060732efe537U, 0x27fedfe6fbf004e4U,
  0xb9f9d9113a00d2ccU, 0xe6f0fe0cc3132300U, 0x4af04ab4fe090bfbU, 0xea2ddc2d064bd1e0U,
  0xff0adfdc0407b10cU, 0x331cfed7ed0ff429U, 0xffbf24352406f4f9U, 0x2224eedef7bde8U,
  0xe61538041b0523e6U, 0x1289feb001130e9U, 0x16fb2ee12d1625d8U, 0x10e9ee18edd50330U,
  0x23b925e0f6e91808U, 0x5ffc8f5020f2b06U, 0x81e1026bce6f5d9U, 0xade633251df70cfcU,
  0x16fc1807c3f626e4U, 0x19f51dedd70c19dbU, 0xd73305e1eaf1d80aU, 0x21020330052109ecU,
  0x26ecfd0cfaf8021aU, 0xf5ecdcca1f09e241U, 0xf1f60be9241fe427U, 0x13f7d4ef0310d905U,
  0xe3e4310c24212dfaU, 0xb2cbbeddfd7fa07U, 0xd82c1d1bf2000402U, 0x50ce6e32812f40eU,
  0x33e9fbd923082805U, 0x2cc9df04e6c8bffdU, 0xd61ff036e7f3ef01U, 0x1a4d13e9f9d1d9f2U,
  0xf6d820e800d5f5e9U, 0xfbdb6916f6cff4f9U, 0xe322f5fddaced720U, 0x1b25d71f09e20a09U,
  0xecc1bcbdecc0dd8U, 0xe3dee3c0adefe9c3U, 0xffdbd01308dc12f6U, 0xfe0ef6e6f1fa25f7U,
  0xc6eb02c6d517f9deU, 0xe4ff13ccfbdfd9deU, 0xf51f08eeead0cbf0U, 0xcd02ea0cd41d05d6U,
  0xf2221ef028ceccf8U, 0xcbd247edd2d702c2U, 0xeff1f0d6240be10fU, 0x281cf1d3c5ace0c8U,
  0xefbfd2d3d70902dbU, 0xdde4faecadc8fbddU, 0xed14fa17f3031de0U, 0xfa3ecafb0a03cdeaU,
  0x1f0ee8e32034eb0dU, 0xf521ffdeca401729U, 0x20de1d06d921c6fdU, 0xeae6f1f909240997U,
  0x22f08dd1f060105U, 0x302df37fe00e50dU, 0xee1601fbfb010d32U, 0xf8d80bf009b609fbU,
  0xde412835f02cee27U, 0x1cf0181723eb0e25U, 0xef0b2615aeeff5d0U, 0xdaee0ffde21610e3U,
  0x20123dbd046eb0cU, 0xdf1db88ce2f446e8U, 0x2b1c380537131be9U, 0xe0ddecefdd3ad70cU,
  0xff0ad20b2812c625U, 0xe9efe4b70f142921U, 0xeccff9300806daecU, 0x30ff3135f2bbe8e5U,
  0xfbe21b06191b1d21U, 0xea1ff01818f1081bU, 0xf649b6be24eae60bU, 0x10090a0c2e0c30d6U,
  0xeed2f3c900d61e08U, 0x100f2bec0bf6d403U, 0xf81a2737d30124dcU, 0xe73519322ed624d8U,
  0xee23181ae2353106U, 0xfbe04ec0e0e9ce06U, 0xf90a3723f8b5eb24U, 0x253c25170a180a18U,
  0x1b0e08e010e8241eU, 0xe5ebe3bee2d701fdU, 0xedf0d1ed2d17ea0cU, 0x10700eae31802dcU,
  0xe20c11f5e3301ae1U, 0xeef31cd30ef60a06U, 0xed0d0105b52ffdf6U, 0x30f4dee4252ce3d7U,
  0x1403f520ff160ee4U, 0x17fc3616e4f0f7fdU, 0xebfc0ce21d1a1edeU, 0x2d17ffff36bf09b4U,
  0xe8efd402cf0afd2bU, 0xd9070adfead9eaffU, 0xfe0de3201302e5daU, 0xf534fe2cf7e21702U,
  0xe3fbfffced1a1014U, 0xf7f3ebd61312f2eeU, 0xdf2cf703040a4f30U, 0x3e4ef28e92ceefdU,
  0xd8ee11e407f2dc1dU, 0xe5ccfde50c0c08e2U, 0xd9df2507ec0b2ad7U, 0x70d17c9d437d4eaU,
  0xd92aeb09ce11e81eU, 0xf6f503e8ec1a19e1U, 0xe20018eb1325e225U, 0x40bd413ec051cfcU,
  0x1ced04e914dde3d5U, 0xce807e2d4e7faf9U, 0x234d22fbe6162f09U, 0xe914f0082a14ddc5U,
  0xe122ec02d815ec09U, 0x101213de31221ce5U, 0x3e800f50742dd14U, 0xd10b22fa022c1413U,
  0xf30aee02faec01e6U, 0x25c90c051f17e408U, 0x8f5dbf7f21122fdU, 0xf4eed7fe02defff8U,
  0x328344a11f01720U, 0xe71f28fe0ee81902U, 0xea0fef12fb23e2feU, 0xc6ff06f5031b251bU,
  0xef0ed6e728fa0eeeU, 0x317f122fbe614dbU, 0xf5163de0e80927f8U, 0x9e3f7e9f7190ee5U,
  0x2519002b290f2c06U, 0x160dffe325f812f4U, 0x236e6cbfb271f06U, 0xd80001f81bcc12f4U,
  0x5ef31f71bed11fdU, 0xee131f06fa0527f4U, 0xeb3e1cd5f243feedU, 0xef1203f5ed5415d6U,
  0xaefd4d119df092dU, 0x8d6ed2a1ccee81aU, 0xfe0aeffbeff4e300U, 0x283f13eaecfaee13U,
  0xfcf80f152ae91627U, 0xffe71e01fdd4d40cU, 0xf8360cf5d1f523e1U, 0x153efc1c11fff11dU,
  0x10ae1fbf3c4df02U, 0xfc1adaecfae30be4U, 0xdfaafd12fffae6f7U, 0x25fcf2dae0edfe02U,
  0xeceb0001dc0314e1U, 0x13f4fcd10810132cU, 0xe7ddd50ad981fbd9U, 0x6c8b5ed09ed10ebU,
  0xf3f7ffeaafeae302U, 0xc90409c1fa1b11d1U, 0xe4d40bd2f40afcecU, 0xe7ff1e0d04d112d6U,
  0xed04dc01c80df00fU, 0xf2d90af1c9d9eaffU, 0xd720fc12e6cdfb0eU, 0xf5c2f8b19cfeee26U,
  0x10eeea0bdbc9fae9U, 0xd4ed0029e4f41de8U, 0x1238f2cf051724ddU, 0xedd3fee410fec61aU,
  0x11114e80c17e4e3U, 0xefe4d0e6f407ea03U, 0x14d0eddeaa18f508U, 0x150510e50d0a13U,
  0x19c1acfeb9c30b07U, 0xdde9080fdff3d4edU, 0xd040cdec8c1f3c3U, 0xf5e607f1170bdd0aU,
  0xecdd12f31c07e500U, 0x8f2d10ef028040eU, 0xc0eee1cdcf9db01U, 0x12e0f4de0df006dcU,
  0x26ebfdee3612U, 0x19fde728f7e90ab6U, 0xd81a09e703ef2beeU, 0xea1102f9f7ebfe06U,
  0xe3e4e5fffbdbf308U, 0xf1f9ddfaf90104U, 0xcffeec11dfff0c17U, 0x81e11d7ed50d226U,
  0x6fd051733ee2ae0U, 0xf3daf40ed7dce502U, 0xfedcefdb05e4f014U, 0x12ebf10fb7fcdefaU,
  0x16e7fcd431f122e5U, 0xee3de21f2e71ae0U, 0x2922eeddf60516e0U, 0xdde407d704f1dcdfU,
  0xf26dc2beb23dd23U, 0x2712fbe914021710U, 0xe1fdb1a1012c128U, 0xd9f412072917c11eU,
  0xf0c4912fc33091bU, 0x121fa7043f21b545U, 0x1ae012ffd90200efU, 0x2ec4e50024f91818U,
  0xfde4faccdfec231dU, 0x24e5d9290e003513U, 0x170dd7f7f6be1303U, 0xe8dd15ec23131014U,
  0x8fcf525ff17060cU, 0xed0c040c12f51d0fU, 0xfbf6e83ed30ee013U, 0x280feef6c9ef0938U,
  0x1b26da0c14f1f61fU, 0x8f50e16daf216edU, 0xae5f6d927e70921U, 0x221e30006e1c834U,
  0x911f0f508fc2701U, 0x618caf5f0eef1e7U, 0xd03e7e0fce7ecd0U, 0xdc0121f409d3030bU,
  0x4f5a6d1e2e1e3fcU, 0xeef8c6f01a0a2101U, 0x2e4f3caffeeecd7U, 0xf7dc2822e0f80d0dU,
  0xfa000fb616cfef2eU, 0xe15b5f51e08d809U, 0xd41cf22ce809f30fU, 0x4abe504f9f529faU,
  0xf1092fec1aed4237U, 0xda05dc06fae8fcc7U, 0xf00302e007e51716U, 0x1709fdf90006143eU,
  0xd51324f1efd31d08U, 0xe7030dcae5ce0ee0U, 0xe8dbe4080e1b0bddU, 0xe1f429060a39dfc6U,
  0xfb16de1d1b02ec1dU, 0x2dbd4efeacdfadfU, 0xfed1c1fe0bfe17U, 0x3351613cfe8e6fcU,
  0xf6e1191b44c2fcfbU, 0xe4080b1e15eeee04U, 0x3b37daf0ece807f1U, 0x151f040dfdf51be0U,
  0x39eba8fc03ea94e4U, 0x3b2a29b1e13fe5e4U, 0x13ba0f2ce11bccedU, 0xbd35fd0b330ff7f9U,
  0xf0b0caf945da4024U, 0x17e8e5fa1624010aU, 0xe025d6d2340cb6e1U, 0x171704e42dc326f1U,
  0x1706fc42bd2c1dd4U, 0xfad8f71ad927cd22U, 0xe2c505149a0fddcdU, 0xd3c7cb310dd60deaU,
  0x4330cd071009fa17U, 0x1e000ab5f003e9e7U, 0xca09d1f912ca0bd1U, 0xe0003e1f3d3cfe45U,
  0xefdcb208c230a2aaU, 0xf913241f06260b35U, 0x2c332d0a1ddc0ad6U, 0xe930e8071fa8c8e3U,
  0xf810b1c8cff9e5e1U, 0xd2f7cbd9091114fcU, 0x28f6efe9dc1cdd34U, 0x23d823070dc23438U,
  0xe511e4c22d4a44bbU, 0xfb2a11e8f0051745U, 0x32ffcfdbd9ccdf7U, 0xe9e5f812f1f91738U,
  0xf1e8f2d4070ce3f3U, 0xf20bd2e839cdd2bdU, 0x932d2e222558dccU, 0xf2fd3bf3ea13b20eU,
  0xe906e2fc2ddffc11U, 0x141114baa4d71eeeU, 0xdae523f41c11c0f3U, 0xde20d7fb3bc2f4c9U,
  0xef1824d73615f108U, 0xfd35d1e622ec10f9U, 0x2706ad9fdbb1ed1dU, 0x31163830f820ff06U,
  0xe93819e01f96fe0aU, 0x235ede51adee606U, 0x22f1d4f9fbd6cf06U, 0xcfde2f323016cd2aU,
  0xa40311f1a02f13dU, 0xe83316d91bcf0f17U, 0xcd25fc291e06de0dU, 0xfa0c1f1ef6ddda29U,
  0x15e5d8e532d7c4daU, 0xfae7f53d4303e505U, 0xb0f1cefe6e60a43U, 0x81a0b21efd3bb4aU,
  0x2fb89f13021aed25U, 0x1be2bae92ce81e19U, 0xcaf0fd061c4605feU, 0xf625ea3df3f6ed20U,
  0x38e7b9cf39f4e7d9U, 0x1ad03f06260fdaf6U, 0x3431e915eacb1eceU, 0xd9f1c42abffe0e27U,
  0xf81bfe50ddcffccdU, 0x2a1d0439e320f9f2U, 0x8c3190311f2b301U, 0xe640fd18391945e9U,
  0x98a0f124d713d2a7U, 0x26eafc1e431daf02U, 0xd63e3b1cb90c4212U, 0xea20110401efd2e6U,
  0xf3d9d9e7d8aef6e6U, 0x18dbf7d4e1ef1dd1U, 0xddb1e080bd6e3dbU, 0xd515e7eab44bb206U,
  0xf93e06f6cf0f2328U, 0xe7d736e1d5ff1900U, 0x21ecd6a4d735212eU, 0x3100ba0bff032836U,
  0xd92a0b2670fed8d9U, 0xec01f8d812e2f981U, 0x51cce98515f92705U, 0xa203d0f8102bc811U,
  0xf4161d36ac4518fdU, 0x9fbe42423273e26U, 0xbe44dbe00a2a0aU, 0xdae329150add1cfcU,
  0x163006f7f31efee3U, 0xfef7f7ec040225efU, 0x32ece30b07b02cf9U, 0x3e111fb28ef08fbU,
  0xdc321103e74cf906U, 0x151ef730fe1e113fU, 0x3f5b2df831fa1ae4U, 0xd4ea47ca26304b14U,
  0x400def112f615eaU, 0x150d97fd16e41dc5U, 0x340038d7f2301129U, 0xdacd1ac4da34edc8U,
  0xf1fc173b1c04d529U, 0x41e032d8f1f32dedU, 0x6e31ce44cafdf3bU, 0xe37f41739cdb318U,
  0xdbe8002753242feeU, 0xd658d7bf12f1e007U, 0x3a4f53a316270717U, 0x82f1618070a37c6U,
  0xf091e2fd4a150bf9U, 0xf40cf5ea0811f4d5U, 0x50f61df8c9d4dcbbU, 0x243b0c17f62bbf2aU,
  0xb3df12cebfc0becU, 0xa1602eb03c0bd30U, 0xe8fece38a99f1210U, 0x2b34fef309db4642U,
  0x30c334aaedbfe30aU, 0xe7de05eb19e61eeaU, 0x120c7d60baeefd8U, 0xd5c5c192021a24e4U,
  0xd6c61cd623f317f9U, 0xcd14f5e7bcbbc501U, 0xdbada328b9eeeed9U, 0x17fb9cd4f020feb4U,
  0xf2d2021ece2fb51dU, 0x27eae0b4e6b6e5d0U, 0xb8b2b3cce50736e0U, 0x444716c9ccb2be82U,
  0xdef5bafbceb9e2e7U, 0xd8ff37e0ef0ff014U, 0xcf4cd81defc12c30U, 0x3e1ab3e7d8b5102fU,
  0x2e190407b11ac416U, 0xd6030008bbd2fecbU, 0x33e5fd05bdcea3ffU, 0xfdad3af5e7f91cfbU,
  0x2a09ca0cbd1ad528U, 0x109eee91b2f03f4U, 0xd8e6afd5d4bf05f1U, 0xfec41a08ccb7085dU,
  0xf1092829a90333d2U, 0xe0112ad41a36d809U, 0x6d7f2fbbf0e3401U, 0xe8e5d8ca1ee1fb26U,
  0xe709e3f19950b2f8U, 0xd11f001d1014f2d0U, 0x105d23d4081c2ae7U, 0x10aa15c3d3f50ab0U,
  0x2401adf5f925ced4U, 0xe5091a12ec1f000fU, 0x500ddfa2dfce735U, 0xe7edec1827e4cef5U,
  0xdfdd3707082c1ee2U, 0xe418c1010501022dU, 0x7ed1fe1e007e025U, 0x29180233252e1741U,
  0x29f321d10fff1b17U, 0x181030e5ff01010aU, 0x2fe0d52cdd0904deU, 0xabc91208f3dff709U,
  0xdfc1b24fb10f3efU, 0x16122ae90013dcc4U, 0x1edf34f7210fb9edU, 0x1407201136082406U,
  0xd2f5100e2ef51602U, 0xfbfeea1731eef7fdU, 0xa0ee0b602ae05e9U, 0xfe27d2fe0513ec29U,
  0x12cb03efd330e1dbU, 0xe31310edf4ed1417U, 0x50c031ff02031fbU, 0x1ee60fddf5171904U,
  0xf4121f185e3dfa09U, 0xaf00f09d6f310e9U, 0x812dc223fe00e29U, 0x1313ead8fedffe0cU,
  0xa0dfc372cbaeaf8U, 0xe0f50a25e6e6d3fdU, 0xf4eee40705101225U, 0x2fbfef6d301f2f7U,
  0xdcdb51beefbb0d13U, 0xc8cdd4f40cc021ceU, 0xed04ca24042432f1U, 0xd2e60cb6fa1f0355U,
  0xc90c1fe8fe0d1cc9U, 0xeef926cef10019d7U, 0xc8eff11e0610f2a2U, 0xdb02d6df2919dcc3U,
  0xf31c032bc844e215U, 0xd1e148d2d9f925dbU, 0xf6090dbb40ffe055U, 0x330de7ddf2d400e6U,
  0xf5efbbe50dd0bd06U, 0xb5d91d63efc32003U, 0x210c221802284514U, 0xf0fdb708da35da0fU,
  0xe410fb16fbdd1814U, 0x1ffaf6140ee20df0U, 0xe1f300104ced0a5cU, 0xfe011f1024fcb4e2U,
  0x2d1c0ffbed043208U, 0xfd2085f7fae5d3ceU, 0x91cfbcb18f60c1dU, 0xf64906c320f6fa1aU,
  0xdaf5d3ec1025f810U, 0x1f0ecee8f4111003U, 0x3f12600cebef9e1U, 0xd4091b0816da3d23U,
  0xe407fde0282cf8e3U, 0xff201cfbdce5d4deU, 0xe31df7111221f91cU, 0xf9063ffde33af0U,
  0xf8e2f625eee53cefU, 0xfcf6de2539df1bdfU, 0xf7290ac629e8f71eU, 0xde9ba12070e032dU,
  0xeb392c12f4b3fae7U, 0xfbc9fb0cca16ca06U, 0x1dc91501321406f6U, 0xfe15ebf82820031cU,
  0xdf601fe3a24fbffU, 0x25ce1a041ed10fecU, 0xf9e900181fe6052aU, 0x212403d6bcd8e5fdU,
  0xd0eee419f3eee7ebU, 0xd5ec094deb43ffefU, 0x350c04d1b50c230cU, 0x5ebd62a04f0ddceU,
  0xc7dd4bcafcce1201U, 0x3010a08d7f7fcd6U, 0xdbeae312140e1fedU, 0x50bde34ea30391dU,
  0xda02f00be02bec0bU, 0x4db27f0eabf07f4U, 0xe602063516fa34c2U, 0xf229ebf0da2c121aU,
  0xcef430222830cedbU, 0xd7deef1208f2eae0U, 0xbbc605e448f7eb24U, 0x121af3f2b6db0afcU,
  0x10bdfadf1d00daf9U, 0xdadbf63fdef930daU, 0x25ef21e82fe8fec3U, 0xfd03ff050115d6f2U,
  0xf024f9c1d9dcf5f6U, 0xb607efbf91221a17U, 0xfd96d20b11a5f7e4U, 0xe92eec0d100c06d8U,
  0xf40228f11b443603U, 0xbc1fa5f211cf82fbU, 0xee259fe3e1b1a827U, 0x6f69e0cee001ddcU,
  0xf8f2dc04edb4fbc3U, 0x60fb7f60cc5b1ddU, 0x29f0260ddea9d808U, 0xec0c2015f4dfece5U,
  0xefeef19ca2e1ee18U, 0xd6f732c5c2eee302U, 0xbccaf32700edc4e1U, 0xeff8e8171dc8f107U,
  0xf109f7c8e6cc0e1eU, 0x93fec6aadacdf9f1U, 0xd5bcd4afe7a1e5a3U, 0xbf7cae2e6dcfafcU,
  0xed1eeac9e40101beU, 0xe9f4edaa08ddd818U, 0xb137b7309cd0b8f9U, 0xdbdfa90d0df8d6eeU,
  0x23d6feec0a81f8baU, 0x22acbac61ddd97b5U, 0xdb1fb71a12dcf21fU, 0x303bf5f3f1bed79fU,
  0xf3db09b2cbc9ea0fU, 0xf4f1200aedcbcb19U, 0xd90298edd31701fcU, 0xedf8e22101cbe319U,
  0xd1ee3fe51ba73124U, 0xb9eae51808f2d98dU, 0xdfecdd1d02181fb1U, 0xb4d2c3029dfb314bU,
  0xa9e7febec2dad5c0U, 0xe2c3f9b4ebbe8fdfU, 0xaad03400e609c1bfU, 0xa6e82704eb27ab01U,
  0xe026f0fb0f2a0ef6U, 0x1cebd6a5d9fcfae3U, 0xc5c4f7d41d10062aU, 0x807c0ccd001f6faU,
  0xf7acc540e5fdd5d4U, 0xc8bd245dda12292cU, 0xf5ecfc12ee2805ceU, 0x3ffbf2f0827d1daU,
  0x23fb202a1a1df6eaU, 0xf40a1f1bffe205edU, 0x1e3241d71f012e1bU, 0x1823db051c13df35U,
  0xf0c3091a26273010U, 0xce6c6d803ed1ce5U, 0xe3e524fd3a55fb1fU, 0x1a235020ef15b80bU,
  0x33dad5030f353e0bU, 0x4e2ec0fe9dedfe0U, 0xe4fcd4fc39c6102cU, 0xf22be829db231210U,
  0xfe12172b221930d8U, 0xf0c7f35fd11e7e2U, 0x304f015ef3ced0cU, 0xf85c33355e0e133dU,
  0xd51afac6efcaf3faU, 0xecd11cec0423f2deU, 0xcc5e226f8e923d5U, 0x2313182bee13f8b0U,
  0xf7e605e12ecdd4cfU, 0xe811e202101b03d2U, 0x29ee17f425f517dbU, 0xe42f2bf70e20c512U,
  0xe7eaf232c2fb01d0U, 0xd7ed17d3272b25bbU, 0x2e6292229fbd523U, 0x1af20b180edc1b11U,
  0xe1070efc1706dbd6U, 0x50a09bcc6031ef8U, 0xe1283ad82b2b03dcU, 0xee2ce5ea3d0bff2cU,
  0xf52afde1130c0d06U, 0x9f2fff5a1e92d1eU, 0xf5810c0813f7b809U, 0x1f61afe11012b07U,
  0xeffb1514e804e311U, 0xe042ee5f501e7f2U, 0xe822fc1605fed62dU, 0x15b2ffb00fe800d6U,
  0xd6f2ed35e0f2ee03U, 0x1c0bc8c41fd6d6ebU, 0xf524fc022712061cU, 0xe130f2e218c72207U,
  0xfe1b0fe0d7c82406U, 0xece05f0e7e20617U, 0xb5f90426fccdcd08U, 0x4ff1d9edddbc3601U,
  0xce11e50f02100c00U, 0xf1d5e5e824fd3b19U, 0xe40fd3f3250ad721U, 0x17f3d930319cd8f2U,
  0xf9f50c060dc81003U, 0x32041a15122d1e11U, 0x1102f8baff31f92dU, 0xe336ed0c261ce5afU,
  0x23cdf4ece311f528U, 0x25e9c9ef2a0e1929U, 0x26fae2f7c2d101daU, 0xeef12e240927eb34U,
  0xf12b380124d616dbU, 0xe1e612281ffad3daU, 0x231cd615d70f9be7U, 0x282ae7610d17f735U,
  0xe3edf501cdfb060aU, 0xe80733f800043224U, 0x2320d4402a36003aU, 0xb3e10af518d7d7e1U,
  0x3b23db02eddb17e1U, 0x72ce3fa033306deU, 0x32271f0cbdc22f34U, 0xd5e017e609011004U,
  0x1a25f3fde6a8d92fU, 0x3115f4f1f7e9323dU, 0xe013f3f6fcfa0fdeU, 0xa4f05170a34d435U,
  0xcd8db340ff9fafbU, 0x1e312c01f3d7d617U, 0x11d91bff2a232a11U, 0xefe62cdeda12d812U,
  0xede9eb41e421d32dU, 0x2f091edb3f20f2ceU, 0x20d4070d190dc926U, 0xaf840fad8cff2f2U,
  0x2709de02edf9e8f3U, 0x3c09da43130f3e1cU, 0x15f6f8d923d7f547U, 0xdeccf2012be20f39U,
  0x23291208da08dc00U, 0xec4120e11d3a26fcU, 0xffe10becf21a1fe7U, 0x11e0e222ff3b0ae0U,
  0xef1dee01ff140c27U, 0x3347c41811e809e9U, 0xe2b738f523303640U, 0xf5e53cdec52b34c1U,
  0xf220f00610231c29U, 0xd4241a3008f3091dU, 0x25000cbfe4d02fe2U, 0xf0e927f529f60f0eU,
  0xeed3d90536f1311dU, 0x1f0cdd170aff2228U, 0x24f7d1e0dd1af1f8U, 0x193ff7d706121cf2U,
  0xcf019e8d9eadf2cU, 0xe8fcfbebbef914U, 0x2209f4af0823d6efU, 0x15f5c936e92a0bdbU,
  0xf9f33a000921e4d6U, 0xa0543cd241e0619U, 0x152918002f0207d1U, 0x23f62b2609c13e32U,
  0xdc22fc70b1e11dbU, 0xc8d8f5dff501ee1fU, 0xc6e8f9d5e1eff80dU, 0x2af812f4eed14bccU,
  0x1ce9fd15e32ae2e2U, 0xf3e10c0a02e520ccU, 0x16ee19def7ba2208U, 0xd8e7210ffb04d034U,
  0x1b1dde15000cedfbU, 0xf2eac80ad5ef00d2U, 0xd1e6dee0feefd8efU, 0x1e020a11ffd91dd0U,
  0xca0e07c3f7f0f2fdU, 0x15d819f3efcabf13U, 0xbce51a0307dbf7e3U, 0x113ff031233e7d0U,
  0x4acbf7c9e625c5e6U, 0xf1fe3cffd22be005U, 0xdcd2703bcebd4c8U, 0x1ac914f114f7e4bfU,
  0xdf7e1dae3e9be0fU, 0xe320f3f3f6212bf2U, 0x1e4d1ef315c9d41cU, 0x29d127601be41807U,
  0x12cf0a0632f710e7U, 0x2afe16eee5531137U, 0x30b0d1eff4032cfU, 0xf7d2feeae4e6fbcfU,
  0x17e511c2ec4b0615U, 0xeb05ecd110edd80cU, 0xbd17dff148f919f2U, 0xcf033eb90dfa1ce8U,
  0xce9e7fd1719bbebU, 0x5f40c1217d4d1fbU, 0x143e0f1ceff91d0eU, 0x1fff290ff8ebd9ffU,
  0xeed9e505fc0dfb0fU, 0x600e226d2fb221eU, 0xf91529c9ec2d1b01U, 0x22e0ee4de07e91cU,
  0x27d5e6b138223014U, 0xf1f32729fd25f029U, 0xafa2627d2df05d0U, 0xfebfe41acf2432f9U,
  0x12122d0bfbf305f0U, 0x170cdd122b2212d2U, 0xe8a514fdfdf9b3e0U, 0xd3fe130e21f3ee1dU,
  0xe2cb292001f503efU, 0x16fe290af3e2afd6U, 0x1e422abdeaf81d14U, 0x1c0ef4fd1b1ce5d7U,
  0xe4ded40304e3dc00U, 0xded6e8dfcf06350bU, 0xd30020faef03ed0fU, 0xd91c2d02c348da31U,
  0xf52ee80c07fc12faU, 0xef05f2e80eeef5ebU, 0xefbcd5081c0be402U, 0xe904c210e8011d0aU,
  0x7081f260016dbU, 0x1a0eeb010720f7dbU, 0x18e4d9d3cf28dae7U, 0xc0fa08180e090d16U,
  0xe7c840f7d9cc08edU, 0xddc2d581f8b6baccU, 0xfa08f8b0fbb2fb22U, 0xf7f9ace6ff171be3U,
  0xdce806ec0fdad9f7U, 0xace42ca9dbea09ccU, 0xadd9e9430bf5d0cfU, 0xb5220705c033f7b2U,
  0xbe341601e3e8fe0dU, 0xcfb1b3e3caa4dec4U, 0x16d9ae182ff0d830U, 0xfd1409e5a6dcaadbU,
  0xda09d3f20eb5e9cbU, 0xcfe11616d2bf0503U, 0x2c24dacec5fee9e7U, 0xc529bdf716e6ec2bU,
  0xfde5180b01c7efd6U, 0x12e6f3de09f010abU, 0xf914f9e600d20bfbU, 0x40cdfc7240cdb1dU,
  0xfe0ae70815f6040dU, 0x3ed0701fd03f6faU, 0xa07fe10fcee19f7U, 0xd5080dfd07fd02dcU,
  0xd805ddf1eef3e6d8U, 0xea0bb9e207fd04ffU, 0xfdefd9ee16e1ddf2U, 0x160c17fff5dbe3ddU,
  0xef1217ed13e9f3f8U, 0xd4011408e3daf2efU, 0x1e05c20af1e0001dU, 0x1920e200000e230cU,
  0xdefb07d9e8ef3700U, 0xbbdbcbb0dac4febdU, 0x5f5eac8e9bf18f5U, 0xdcedeac6e8f51511U,
  0xde02dcc7d905ea02U, 0xced31af6fdc9cdc7U, 0xcee6ee15fc05e3f0U, 0xec18b6ffe7faf5f9U,
  0xf3ecff23d2eee9cfU, 0xccc3d303d7dedac7U, 0xc401d8ef3cbfcf03U, 0x1728f0d0ebc3f5c3U,
  0xf7c8e5e1fdd5e6eeU, 0xddf1e801bebd01ffU, 0xc12cfe0fbf10df2U, 0xef0eec2aeed0d6e5U,
  0xf6f83ee9f6dc01ffU, 0xb8accbf9e7e0c1b1U, 0xb602e2b9e3d61ab5U, 0xd3c3e5bdbbf81112U,
  0xdfccdbcca8dee0daU, 0xbd0917cdd6eab8c3U, 0xdae0ec0bc8dac3bbU, 0xc7fbe306ce31fef8U,
  0xce292f30f7e3d5faU, 0xc3acbad8cfcdb7d1U, 0xc7cfd0c809dcd321U, 0x9f5cebba6c5a8e4U,
  0xc4c8f0e0fbb4e4bcU, 0xccbd0c0dacea1ce9U, 0x2502cfebebeb0ed5U, 0xe31abf0105ecc4daU,
  0xf1f315f0c90f1ce7U, 0xfedbd4cedad0d1e0U, 0xe7e6fbb9d5f003f3U, 0xf4030205f9eef7e6U,
  0x1cfdd06daceef0eU, 0xfaed10f2fcf3d4c4U, 0x216063a12e6e3e9U, 0xf0fbf7f9f92edcfcU,
  0x40203eed2eef9f4U, 0xebccdef605b609cdU, 0xfde0d8f11cdad41dU, 0xf81dc8f2fc0fd726U,
  0xe3efdbadeacf05f4U, 0xe6dff3070dd7e1efU, 0x17debbffe51210f4U, 0xfeee0000f9e60600U,
  0xdacd00d7bffd12d5U, 0xecdddcd8e6f1f8e7U, 0xddefecfdde10e8U, 0xc7f3e412f41610f2U,
  0xfbebf2d5cee6eed5U, 0xcad209efc7d8d7caU, 0xe813f60104f8f7d7U, 0xe4ffddfbe529e6caU,
  0x2f7f425d307cb06U, 0xe9c0e6ee09d3d4e5U, 0xf4e2ded0310dc826U, 0x330ef003e8d9f2fbU,
  0xf1e0efb8ebeed2ebU, 0xccdaec22ede909ebU, 0xf9fef9e7e00613f5U, 0xda1ecd2ff4ecdedeU,
  0xf5c608ddffdd22e6U, 0xc6eddaeb1dcfddd9U, 0xe9ede605dbf217e7U, 0xd8d8e8e9ca2b163eU,
  0xfed9efd2c4faf4e9U, 0xc60307f0d4d4bf0eU, 0xe4d4d329dae3f1beU, 0xffddd5fed600ed06U,
  0xf22bfdf50108cad7U, 0xcfd6e9fefac2f2dbU, 0xf0f0ccca3620cb00U, 0x260cdbe1f1ffd8d6U,
  0xd1ece20afdf8efdfU, 0xc2d02b16c4baed1dU, 0x2008e1dbe104fde8U, 0xddf9d124f0eee2e3U,
  0xdff0f5e6ede7f111U, 0xadc0ef7fc09c834U, 0x23030dbbd90fded4U, 0xf623111cd9c6f2d6U,
  0xf90a29d50a1a21fcU, 0xe9f806e6e8fdf9edU, 0xe40e1ebe302f3faU, 0xe642eb1ccef4f6fcU,
  0xf7d033f35d331707U, 0xd9fe1e06e7b835cdU, 0x18f2f16fc727dd04U, 0x15230f261e1df70bU,
  0x28dadfe415cc2e0cU, 0xfbf939c4dbf4a6e9U, 0x18fbd4e20dddcb1aU, 0xd1240fee14061813U,
  0xc6080bd4e7cb3e0fU, 0xb2dcdff1b8ead0e9U, 0xf43fc24f5d01dffU, 0xefcdcbf4e10a33cdU,
  0xd6bb17dbbb32d90dU, 0xeefd0cf7c2ef2f23U, 0xfd1342000856e5caU, 0xcd44e3cbcd3de6abU,
  0xe74b0e3340edebd9U, 0xd3f51411c4ef00e8U, 0xd2df09e20c3f9f29U, 0x4403e018d0d6ca99U,
  0xfdd9d0bfeac50603U, 0xf3063cb8c5b086ccU, 0x922dd610dda722fdU, 0x1444d424f1cef3b9U,
  0x1410efd9001cde03U, 0x50ebf512f02ef80eU, 0xf2c6e83bfe32ef19U, 0x992e109bea4950f1U,
  0x272d17f9c9e805efU, 0xee2e31ebee09df15U, 0x222f21d72742fa5aU, 0x6309a211000e7f9U,
  0xe8214b4a46fdd6d4U, 0x36ea52c9f110f22eU, 0x50d1652d925c1faU, 0x6fa06111ef73a8dU,
  0xc7eef317df3730c9U, 0x18dc2311f2dec7cfU, 0xc2083fcff4c34be7U, 0xdf212321df40fa3U,
  0x14dfc9ecedd4cf28U, 0xde15e808f91d1d01U, 0x24e7eac72ce1db1eU, 0xf8f411cb29b6e0faU,
  0xdf317e625f80113U, 0x12f4c6f60af51001U, 0xb131ef2b4ff0727U, 0xe817f037f3ec10fbU,
  0xffd306dc26d7f909U, 0x251ae80c16c0fbefU, 0x8e0e7f5f8a8e116U, 0xdb3340292039fcb3U,
  0x28dfe4caf6f53316U, 0xe00c37f031fbc8f9U, 0xe2dd092cc3edba13U, 0xfc53f22104b3ececU,
  0xd2de2fd0ced11a1eU, 0xf70d16acdce022fcU, 0xc80ce227f622050aU, 0xe903ef13e7e35bffU,
  0xd40222bb14db0ef4U, 0xdeec16da0fde110bU, 0xfe222f24e1d506d9U, 0xd226e81adb24f7c8U,
  0xfb2ce2451dcbc50bU, 0xe1d9f4f4d1082b12U, 0xbf9061e1a31e003U, 0xf50ae714ddd2e4fbU,
  0xee0cf7def0f0cf09U, 0x1042dd8b8b931edU, 0xbefe2fe717075ef9U, 0x1909d214d41febdbU,
  0xe807da042a1bdaacU, 0xeeebe3d7f4cf1f27U, 0xffd4c6f8e1139ddcU, 0xf9121cb92bea5cd5U,
  0x15ffded532f306deU, 0x1a070e0b02dc15eeU, 0xee17f6b0bff7f80cU, 0xb0bc039d1e1f3abU,
  0x14f9e0223cccbabbU, 0xb2c0930070af90dU, 0x3de43043f118b7d6U, 0xf1dafd02fdd40e91U,
  0x17e4f3bac2051e14U, 0x1a10e0d9cdffc2e6U, 0xa2d707eef6c70d0dU, 0xecab1dbcee04e9efU,
  0x1504f01d182ae53aU, 0x16181bd8d10c2be3U, 0xfc16fecf18cbe30eU, 0x4218ec3224c3dc0cU,
  0xd1835003818240cU, 0xe008a9d50cd01c17U, 0xfe16f3dcf6fdd315U, 0x15562dfcef0425fcU,
  0xf9deecd013e009e3U, 0xd8f1c13513ece512U, 0xe705d0030995e613U, 0x13051924d5ec0320U,
  0x1a12eef90abefc43U, 0xbff2919fb21b530U, 0xdf059d06bee2e93eU, 0x4b23e4334f2113f9U,
  0xf6ebfdf5def5382aU, 0xcbdaefdce20fc9c9U, 0xbe19e8003a081ef0U, 0xbaeb1d0fb431dc00U,
  0xd493d0d10318e0dcU, 0xd011b3e4e2fab2fbU, 0xc75df725cdd8cbb7U, 0xee150bf2d850dae9U,
  0x52ddee835b807f0U, 0x34d11deb0de5df1eU, 0xb2fc29be39d71d3fU, 0x2712f41787ed100bU,
  0xc5aff6fdf8edff06U, 0xd2f4110ad9104113U, 0x2de821d5253718baU, 0x2b4508ffde0fd1cfU,
  0xc2eac9ed0541e8f2U, 0x18222efa084a0212U, 0x2e030344e05315d9U, 0xdc0a2deb2437e7dcU,
  0x1204e1ebd9ebb0edU, 0x4304c901ea08dcd4U, 0x3ec137042bf41f39U, 0x40ed26f9eeb22b31U,
  0xe436f5340546ee27U, 0x320b3f332540142bU, 0xf5f61043e1fa0104U, 0xd2bfe91bf5170a12U,
  0xfa3f08d5ff26e018U, 0xf10b81f1291a36afU, 0x2fa84afe38081905U, 0xacda02942a030fe0U,
  0xf4f7ed15ed19f506U, 0xf2fdfcdff604deffU, 0x130b1713dc0d2ff6U, 0xfb0ffc2304f6e7ceU,
  0x1039e8fb19e70800U, 0xe4d2dc10e7e103d8U, 0x10e114e6030609ebU, 0xd10d0f23184a0525U,
  0x14240902eee1f61cU, 0xdd264312050506f6U, 0xfbe43ae3e9f62212U, 0xe0f8c81b0af42301U,
  0xeeff0717ee1413daU, 0xffec031113e51cedU, 0x2206f6cb22e8f710U, 0x719f6e30025dfd2U,
  0xe1051c130c181bf0U, 0xde81600d6f6d1e2U, 0x1830f60c161729U, 0xff50a1ce4130b07U,
  0xd8dafbed04e5dc23U, 0xf0c6f12ccb010513U, 0xd4e2fc3320f725d9U, 0xd7070fe2d12ddcfdU,
  0x5f4310001e60802U, 0xe1d9ec161607f0e1U, 0xfbd80cceffc9d320U, 0xf5f6a603d313f3f5U,
  0xf6fd1a0c1b23faaaU, 0x1409cd111f0dfac3U, 0x422fea715eb0615U, 0xd1d6dde92c0403e5U,
  0x1dcf44201bec36edU, 0x36fafb1d09ffbb02U, 0xdaee10e6def619f5U, 0xea05e902f5351617U,
  0xddf6c9de0cede225U, 0xdffb10d316d4f5U, 0x8cc065432df21ecU, 0xe7e4f5dfcc020b22U,
  0x1d2f2cf3384914f8U, 0x50e260eed1805f0U, 0x2b9ebcc25fd0d1bU, 0x1218e0ffdff216f8U,
  0xf10c05ede620ced5U, 0xf91ec031f3f727e1U, 0x34f225d50118eccfU, 0xe2f51cdadc03edc7U,
  0xf20c01e202cf2312U, 0xffe7ca1501c508bbU, 0xe2cff9a0220fd727U, 0xd40bdda3eb0cdffbU,
  0xf4effc12e02ffbf8U, 0xd440ded4eaf59728U, 0x1402f609ddf5efd9U, 0xc09e3bcf119f334U,
  0x2ff8b5cce5f91defU, 0x2ddca10b08a6d5d8U, 0xd6ffeebc0cc4ef05U, 0x38451c0e02c5c4a5U,
  0xe91bfbefe2e4fe27U, 0xadc72e1f8fffa30U, 0xc93eeb2ad8fb0330U, 0xff39043df3b2161fU,
  0x19f533e2e0e5110dU, 0xe6c7adca9aebfa01U, 0xedbdbbeff606e612U, 0xdb08bac6e709fdc0U,
  0xd9f522eaf12ffbd4U, 0xc2fa27d0f8fb8e37U, 0xb02af11528cb07d4U, 0xbbf7e0e2f9f40705U,
  0x1024130effee07c2U, 0xc6bdec0ae6c5e2e4U, 0x9f0c41e1610c222U, 0x15342f0f09a5dadeU,
  0xd8d0cec6b9d70306U, 0xf6fd44bfd8d3e613U, 0xcf16ce21c0f4ed0dU, 0xeb51d72dc2b0eff2U,
  0xf7e906ceddd52911U, 0xd4cfb42b13e6f6ecU, 0xf5fcc6e7e81a05e9U, 0x96cbdad6c2fe3de6U,
  0xfdeeffc6b31de0c4U, 0xd8f0fd03d6e481f7U, 0xfc1aed2ed5ead3d7U, 0xe2f4d1fbde3ecb0cU,
  0x8171a152800fcd0U, 0xd9e4b7b2f2cd04e4U, 0xc6c9fdda14e6d416U, 0x1a2306e5d1fddcc7U,
  0xe6d0c80fb8e4d8f1U, 0xe3ee05fedaca212eU, 0xec27060ed8fb1ffcU, 0xe917de21dad7dbe3U,
  0x2b23c6fa0d08e0efU, 0x29fa05ff0518dffdU, 0xec43142af4aa3bU, 0xf70fec374cf0e3e8U,
  0xf5f637185118502eU, 0xe004c41f39290e09U, 0xd4ceef6d11001edU, 0xb02e03d27cbf0f2U,
  0x2cca01eb17f70f24U, 0xf8e6e92519df0001U, 0xfd161c2efbdb05d9U, 0xc81e103708fed6f4U,
  0x452d2421b0340a07U, 0xf9106dd6fde6e0ebU, 0xf12df303ece9cefeU, 0x214a0a550e0e1b28U,
  0xd014d1f8f9fcf912U, 0x29f6db8ef721fc35U, 0xf0ad00fc1615c4ccU, 0x1bf8f9fddb06d7c7U,
  0xfde903dcdbd2dd0dU, 0xf1d9c7f6f8dbd2c5U, 0xd2e4e5cdc023U, 0x15fae50917c800eaU,
  0xecb5f1cd07fedad9U, 0xbc1eafbfddbcbdfU, 0xeb03fd271edfdd00U, 0x111bea1ae2d1dcd6U,
  0xf2d9ccd2aa111afcU, 0xfbf9fbf3cae3d0f2U, 0xdd22d5d8e501b4c8U, 0xfdff0709dae60adaU,
  0xe8d3f3fafcbc19f2U, 0xe2cfbec58fd012c7U, 0xf1f9e8dce8ddeae5U, 0xc3dce5fafc112de4U,
  0xf5b9ef01dcff0af1U, 0xf5d4d4d6c1b49b20U, 0xad0113f7a8f2c3aeU, 0xde28e1f2cf13ed1bU,
  0x6d7c30ddcafdcd2U, 0xefbdb3ebf2c9edd1U, 0xd6ffc09607c5d2f5U, 0x1430df02c3c0a0e7U,
  0xdbe9e4d4ebf5251bU, 0x3d309cff6e1db00U, 0x627f3dad9e31bbcU, 0x409c8441ceadd16U,
  0xe302a901bbf1962fU, 0x200febcee3e60a17U, 0xbe4f8f623ebaef8U, 0xe903f006e8cf91ceU,
  0xe30241ad308d735U, 0x310e21dd528f20bU, 0xfede07cca9da11d4U, 0xf9a639bad59e24d1U,
  0xe88311d3bebbf31fU, 0xd411d4f3e9e60225U, 0x1d18fee69aecc8a7U, 0x9ceb100aeef4d923U,
  0xf202f9b3c6e8eaebU, 0xdc1bc7a019f0ef3aU, 0xcc6201120100cffdU, 0x59eaf40009ed2b1cU,
  0xe5f1a323d6ecf6f5U, 0xdedc0ebfd3e32cfaU, 0xfed3f101e605f3d0U, 0x16e1d8f021bab3ffU,
  0xfc120d08d80e2b28U, 0xec03d816f80813f2U, 0x1600bad4d2c1f0f6U, 0x1bd3e9fd1ad225f3U,
  0xeec2c2c5a6b7e2feU, 0xcfd8c1db0cebe7d8U, 0x12de2be1eadce9U, 0xbaee0ae82815c911U,
  0xdc0417f702bd00efU, 0xfbdbe2eae8c90a20U, 0xdb1317ffeae1abfbU, 0xfbd5e80cdadadb16U,
  0xdafd0f2fda0af8eeU, 0xee6f6ed0f0f080fU, 0xaf7e6ff06f81128U, 0xd2fbf70de100cc26U,
  0x2b11e100e921ed29U, 0x9d6da0e1109e528U, 0xff982204ade7fa23U, 0xd6be47e1de29f808U,
  0xf5c0bfdbca11e72bU, 0xfc13eadbd6d90e22U, 0xe4e2ed09e0f4f9eeU, 0x726010b2830f211U,
  0xcd1af40c26d8c8deU, 0xf0fcc3fb1b0f0ef2U, 0x23ec1016dfdbf901U, 0x26f3e6f7fa0616d1U,
  0x1420cd12fafbffe8U, 0xf7141ebef613080dU, 0x14a7e828ffebff05U, 0xd1de1d01127ff9bcU,
  0xeb1af619fdcb0812U, 0x5eec9e6ccdcecd0U, 0x21f6da4c1be5f808U, 0xc3f21c32d712dfe0U,
  0xcd2f0708a7030be5U, 0xb5f70e04dff3ede0U, 0xede8e4ece4d51309U, 0xf902dada18120324U,
  0xfe0bd2c63d2005fdU, 0x12f0d0a9d2f540e1U, 0x1f00fed71030fbdaU, 0xe309fdfde512f9f3U,
  0x1e0ae500e4e0da26U, 0xf913ea0b0829f1e6U, 0x4ed170c0dfbf221U, 0xde0509ed23d8c508U,
  0x12f4e909dfe11e10U, 0xfd10f803ddd6e1c3U, 0xfc28edd3e6efc802U, 0xf30e1514dcddeef5U,
  0xf8dee1e8eaca1de9U, 0xfa07ddf7ece01110U, 0x1a05e400b4e427cdU, 0xc71cdbeb1215f6ecU,
  0xe0e19f3f02f19f3U, 0xd1fed00db0c33ecU, 0x8052811163da91aU, 0xe9141013cdd0dce5U,
  0xd2e83defd8184a01U, 0xc82020f4a416e815U, 0x130b03f12fdcfbc9U, 0xe6dbf7fce1f023f6U,
  0xf0f2906ebd704fdU, 0xccf61c1213e31a19U, 0xda13bcf5d0e2cbc5U, 0xf31504f4fa3ff311U,
  0xe3050210bef6f7beU, 0xd7eec0f1dce0d200U, 0xf4ead0271ff0cf4eU, 0x163c21fd10f911f2U,
  0xfddaeea903fd0525U, 0x9f85dcf22e0c6f1U, 0x207fddd372adfd9U, 0x231ee242d7fdc7e0U,
  0xf3021fc5d2162132U, 0xef02dea50d0922d6U, 0xaefdb0df3312b0bU, 0xecf823030b3014caU,
  0xf32917ff0feafe02U, 0x1dd30fe9d912fb08U, 0xf2d7202ff50f1a04U, 0xdf13e3360330eae1U,
  0x1461b32a40de903U, 0xde13edd6d01bd713U, 0xffe51dd90b2c0143U, 0x3825fa0ffd0e2406U,
  0xf511cac808ece5f3U, 0x8cbf7c5d30a2c10U, 0xed3824d70f223204U, 0x3a44cf1508df0cfaU,
  0xd93109f606f21d1cU, 0x10e1ebbe21f1a22U, 0xf6bff417163fe805U, 0x2cea1704314b33f4U,
  0xfbede5ecfa032009U, 0xd18ed08eb1af308U, 0x3708381cf509ea06U, 0x1a11ed031801f220U,
  0x1551f3ef70fde0cU, 0x1833042b101728ffU, 0x90036ff0dfa291cU, 0xf311ec1305dc0fd4U,
  0xf5ead9c6bf21ee1bU, 0x26f80302dfdb5929U, 0x12272df12525f618U, 0x23f92636f334ee12U,
  0x60307ff26201c3eU, 0xfc3406dd100e0e1aU, 0xc040a1aeb34d11cU, 0xdd82ecc2a61102fU,
  0x2a0b3a2f1231fde5U, 0xec092d043441cf0fU, 0x373e0b3af2f83317U, 0x1b03e00c141dee00U,
  0xfe343d2331e31015U, 0xf31a01fae61bef02U, 0x1cf923190fec0b05U, 0x264fe1ea13d4210aU,
  0xe9f8db25fffff01fU, 0x223b2eea1930f2U, 0x243022242e2936ecU, 0xf74f0a4d05e12e17U,
  0xd8da0505ebc80cdeU, 0xd7d7ef2d02deeebeU, 0xca06f11321d52914U, 0x3013041c1cefee04U,
  0xd7e8df091b0222ecU, 0xe91de0e1ebef0209U, 0xe2c0ff07f5290cdfU, 0xf931e9d61918d124U,
  0x18142616e013f9ecU, 0xeff718d2daf5dceaU, 0xeed3dadd17ec1113U, 0x12212110bcd9e410U,
  0xed1cfefe0e232c11U, 0xe1d53ae7e028effaU, 0x11f311f3fc110a04U, 0xf50eb2311bfc180aU,
  0xebf4060bcede25e6U, 0xcce5ef00e0f7d6fcU, 0xe8eddff805f0f212U, 0xe0a2814fef30f0cU,
  0xc7fd020cee01e5fdU, 0xebbd1e0bcee620e5U, 0xd8cbab25f4012b01U, 0xe42cf2eee3fbd8e1U,
  0xdf34122bc2d01f0dU, 0xa5e2f5c3dd2a09e6U, 0xaec0bdcee12ff25U, 0x221bc4daf01ced06U,
  0xbdeee62f1d27bfd0U, 0x7001001ee2f1e06U, 0x11fc1cc9221525f5U, 0xefe8fe081decceU,
  0xdef3071a141cf6cdU, 0xff72ee6f00ad7ecU, 0xd42d1bf0c41fece2U, 0x9e6f82eda1d11f8U,
  0xfceab8f60909df14U, 0xe707ae22ea15ed0bU, 0xfec6ef25f4f2f51dU, 0xdbe820de0816f721U,
  0xfb091d01f61a09e3U, 0xcc0fe3e90c110a01U, 0x8cffffbe90ada05U, 0xed0bd8e7d9ea04ecU,
  0x31527fb011a170bU, 0xfeee6e1e7fd22e3U, 0xf8ce1bf6ff1ff6fbU, 0xcb08ffd5fbf7f800U,
  0x36e8f5ef24c51ff2U, 0xccdbdff3d0b70feaU, 0xf30bf59c23dbf145U, 0x15f0d8d52409150bU,
  0xf3d80bfe221902eaU, 0xf51de6e01609c3dfU, 0xd23ffce0ef48aabeU, 0xdb16b80d1f2bfc13U,
  0xd903d3f7f1ca01dcU, 0xe8dbfa1dffddd9c1U, 0x2ee8a6de06c7b222U, 0xfd0e0835cfc3b9abU,
  0x132e1fd6dddafef5U, 0xe1263ec2d90feabaU, 0xea09d2e0c6f7d5d7U, 0xf045fd2829c62f35U,
  0xe8aafb12f7b9fd0aU, 0xdcc6bd3bec1ec7d4U, 0xbc3af9fcfcfb1de5U, 0xeceebe7e403172eU,
  0xf80edfd0dbe1ebf9U, 0xd2d721fcd9fafa0eU, 0xbb1000c32f50adeU, 0xbc25e1d8c2f8b90aU,
  0xf90900070c6923e9U, 0xbdf11ac8b80609ddU, 0xdada15bef1010234U, 0x2e16cef0e2d202f5U,
  0xa4d8e02b09fbbfc2U, 0xddda1d3eec3234e0U, 0x17e5f7b0112b19e1U, 0xd5fcc11c0afffdcaU,
  0xec0c05d019142201U, 0xf2ea15082008ca20U, 0x82ef5e9b32c00eaU, 0xac5ef11cff80413U,
  0xfb1eeff6fedcd5d3U, 0xf0b0eff6e41d16dfU, 0x27f73bf7f3022a19U, 0x13170de80711f0f0U,
  0xeffb30ef53f101fcU, 0xf6e60818e91422f3U, 0xaedf2050713d403U, 0xfa0db8f0fa160100U,
  0xf61003fe291ef6edU, 0x4d8fc1201eee90dU, 0xf0051fc8fd2818e2U, 0xcaf8d1e0422706c8U,
  0x4b1cd91e402eec15U, 0x11f7f01a2b1f2758U, 0x1c2bfabcfd02ca37U, 0xef39d9e6420d0a02U,
  0xfe0d381c2a013a08U, 0x1c28d4edfcfad203U, 0xff431b030035f945U, 0x2539eb18fe1b2130U,
  0x1de12e0a571123f2U, 0xac4c60047c9b4faU, 0x1e32d9560fccefebU, 0x50d0f12c6f1eaU,
  0x1f17243efcf02cf0U, 0xf2f33cd8d1fa0003U, 0xf5f6d208b6dce2f5U, 0x112721590cbb005dU,
  0xee9c0fde0faa29fdU, 0x96c79b0bbfdfbb92U, 0xd61cc5fc2201e794U, 0x9ee3cfc0e5021c27U,
  0xabcdf1f4d4e7f9c0U, 0xaaff1baebcabddd7U, 0x94d4af2a071caeb2U, 0x983dc0c6b714b3dfU,
  0xd02d0d17dbbf01c7U, 0xd69deccaaff9bcc8U, 0xa5a9cca50dedea09U, 0x21c01b984c0acb7U,
  0xbed8dbf1f801f5ddU, 0xd3c71022c7e134c3U, 0x2eee0dc9000904ceU, 0xe90aa4fb1af90a18U,
  0xa1d80c01c8ce20b7U, 0xfccecf0515f7b4c2U, 0xf706f0df9f0f09a9U, 0xbfdbde0ead2b28fbU,
  0xbeecaabc97b5a9dfU, 0xf2880e00d8eac0a2U, 0x1ede92e271cfae8U, 0xd20d23d6a4ffc81bU,
  0xf405180a1740fde5U, 0xbbf50ec5e41a0503U, 0xe09e0efd17f91503U, 0x2010ccccfd1e1602U,
  0xc2c4dd1235dedfceU, 0xc8bf3343caed32dbU, 0x90b1193000af2daU, 0xc106d9fa2d2baa81U,
  0xdef6f52ce5fbff04U, 0xafef0f8f0030edeU, 0xfde8eafa0eb2ebfcU, 0xced4100f02d9f30bU,
  0xebf101f70ae7e9f9U, 0x1645cd080aedf902U, 0xf91b0ed4dce41331U, 0x3313d2080706d716U,
  0xfbe7e7f24608ebedU, 0xfa1f0df6fe08cce3U, 0xca1ce914d3abfa0dU, 0xeedfff20e1edf90aU,
  0xe0e7e6c1e6c503f1U, 0xff0cfc0fe5e6f505U, 0x4cde2eae8ccc90cU, 0x2d1018042f21dcebU,
  0xe12424020e143bf4U, 0x14ee111d09ef171eU, 0xd62c1dfbfc09152aU, 0xf21505130ceaf800U,
  0xe51f15fe0d051606U, 0x52a24e4e8ce0ad4U, 0xe5524a0bcb3b05dcU, 0x1736f634f2540affU,
  0x1a360c277317ebfbU, 0x2ef82e080502ebcbU, 0xf708113606f7d442U, 0x609e630d80cdfddU,
  0xd6e321f600ca0bd2U, 0xdff8150e12ec1effU, 0x1434fffe10c637efU, 0xfe5be23b432812f0U,
  0xf7c957f122c35e0cU, 0xe8f5f32b0ef9e4e1U, 0xde6dfb37ef40412fU, 0xdddff803d8564a1eU,
  0xb6de10d309d50403U, 0xb8ea2ff7a7f4d1e7U, 0xca283c2c2f2b3ae1U, 0xf8311509021fcd1fU,
  0xe34f1352437a1909U, 0x1dbc152aca3bd20bU, 0xb9b4db4e0ff4f946U, 0x4c33bcfbc5ea1cd5U,
  0xc3bbe821553314b0U, 0xb3c1510c02273ee1U, 0x33251af80f3312c3U, 0xca57aa6b351be6d6U,
  0x16fb0102efe3c007U, 0xf31be6e8f61ddb19U, 0xf9d23af803d8b232U, 0x3e080af2e6b8e9d7U,
  0xfbf507fa20160e2fU, 0xe9e5c5230de54020U, 0x1242e020230f5f6U, 0x2e110b16d8bcfaf3U,
  0x2ad1e5f710dee829U, 0x12d2c806f6f126fcU, 0x1731fd0bbfffe0cbU, 0xceee28e40926de0dU,
  0xf9deddf7c4e60a0bU, 0xe8050dba1700e21aU, 0xc838ff1a02efb625U, 0x22c4162e15fa1924U,
  0xe5f9ce122f0df208U, 0x25cfe4c9e1261cfaU, 0xdd15dfe13ad3bfeaU, 0xe42903cb1ee60207U,
  0x2c16f11700121114U, 0x1e25c410fa0806e6U, 0xb0713cdbc1fd7f3U, 0xf52eea27dae23cdfU,
  0x28f9ebf15820dfe3U, 0x34dbec0819bde30dU, 0x170df852eaf3c90eU, 0xfc0cf8fcd3d9e2d1U,
  0xefe1e3d0ab25050aU, 0x151a58cfe6dee906U, 0xb42bfefbd3e5cbf7U, 0xfb260153059a00e6U,
  0x13f830c9079441fdU, 0xaca1dbe2cbbe16c0U, 0xf00cf8c826b7def2U, 0xdaf1d4bfee0013c9U,
  0xb8ed07bd192210b0U, 0xa733e4a614b7d108U, 0xb250c020d446d8caU, 0x142fd8e404fa00d2U,
  0xca2214410cd2daf3U, 0xf4cecdc8c0d5bfbfU, 0xc8e4a9fa41f41049U, 0x484c40f3a59983b6U,
  0xd1f1e7b8ffe72debU, 0xb4f773baa9d804e7U, 0x907ebfef6e12715U, 0x277fda6516eefa38U,
  0xdaf3f503ef11d000U, 0xde0132d1fa26f90fU, 0xfafef7ecf1dfce14U, 0xe3320af1364722bdU,
  0xfc171518192cf506U, 0xf7f8b228e0f5d8f3U, 0x29ea0317d2c53425U, 0x3d91aeaedf011f6U,
  0xf7f4210e03f0d915U, 0x6f4d42cecd41f0eU, 0x1cfa0413f9e218d6U, 0xc8b0302ae5250ae3U,
  0x6eb17e8ffe829U, 0x1620abb31fe4310eU, 0x5090a263ff9140bU, 0xf2e5e0e923f1e415U,
  0x15efac05f01ae5e8U, 0x16120bdb00130a26U, 0x1bc6f8f6fea8c3e7U, 0x42415faf4f6b5efU,
  0x1edd32fd12ecfe1bU, 0xe4e1ca221322d906U, 0xff2dd4f3ce1de139U, 0x1be0fd1711c525fbU,
  0xfcd5a2fb32e4deffU, 0x1939da08ffe4dce8U, 0x112e4221c5d11be5U, 0xdcd51a2b021408ecU,
  0xe1f5fbc2ec0af7e8U, 0x1f0a29f702e1e80bU, 0xdbe50bef0cbfd41bU, 0xdbdf1f08e81d12ddU,
  0x1402e40f1ccffb2fU, 0xf10fd0ebbdbb0af1U, 0xee230ae5f7a30fdbU, 0xfc03d2d521f1eac8U,
  0xdbcc3cef22fc38deU, 0xe814dfb3f6cc0001U, 0xf31ce929a10dc9efU, 0xd128c61b222b229bU,
  0xef190aceeed2dc09U, 0x20defced08de02d5U, 0xe71cfd19e0f6e004U, 0xe70c262a1beec1fdU,
  0x18fdf3de2bf52613U, 0x131e46d2d0eb0de7U, 0xd10fef08adb90e00U, 0x272bc85304e600f9U,
  0x18e1d0292e05f0fbU, 0x1721f0170826e2f6U, 0xef000d08d6ff26d6U, 0x10e70629f6d40813U,
  0x8fdd110eb05121eU, 0xe4f912d3fff41b32U, 0x25ef28d4f1f2b120U, 0x3927e83ae0f2f446U,
  0xffd3d8fe12050410U, 0x1ff411f3df1922daU, 0xe91be6f60af5332bU, 0xf829122ff723fdefU,
  0x52103e705f7e5f5U, 0xe0f80200f9f421U, 0xe2071cfcd5fdf8fcU, 0xe108f1f11408dce5U,
  0xf3ef2f2cffce4007U, 0x1f9cdd0226b410c5U, 0x3502e5150a5207U, 0x15f4a7fcf11f0fecU,
  0xbdbf3e7f3fc020fU, 0xac372910ccc50b1dU, 0xb9202b23383837b5U, 0xb15030dcec33efceU,
  0x51d1713001709f6U, 0x8b5c035c3ee15beU, 0xbf4bce4550fe34bU, 0x4249eff89ff3bbfdU,
  0xf151e3037fc0403U, 0xccfb28d8da2228fdU, 0xb1c1407e90241ebU, 0xeb20c4564e091d1fU,
  0xd6a734e898f208c1U, 0xbbc0c0ad282dbbdcU, 0xe5cd2de020feebU, 0xe9f011dcc43e35c9U,
  0xe9ce29daedab8caU, 0xd0bb31e8ebecd1dcU, 0xe400f72800ec20dfU, 0xcaebb40e9733bbfeU,
  0xb9375a50cb29f1faU, 0xe4bd06c5b80003e1U, 0xbaa211273e0adf12U, 0x1823aedfd0fb1abdU,
  0x9cbec406dd08c8c8U, 0xc0e6d5fdda3630e6U, 0xfe1913e4422b10eaU, 0xea0eb20ccb2ae9bbU,
  0xa11efe5e50ed426U, 0xed2320cf000529f2U, 0x1331603faecb2f5U, 0x312824e90ceab614U,
  0xff3318f12fedebe7U, 0xf422021915f8e633U, 0x2b0912a3ae03490aU, 0xee072717f6a6fa00U,
  0xffd1d7ee121805e6U, 0x2e1a1314ecccf3ffU, 0x25ecf7fdf22ad7f5U, 0xd22a1efa054211ebU,
  0xdbf701e2a327f82fU, 0x623e4f8282aac0eU, 0xf41fe30cefcdf227U, 0x302617fdfbd22317U,
  0x352cff172af73a06U, 0xf6101bcf0b0024edU, 0x1b1e23c914b6ef42U, 0xfefcfe2900d8f8e5U,
  0xf0f23f260c09fe0eU, 0xcafff6c023f0dc1fU, 0xdc160ae5ef30dcb6U, 0xed1e03ee27e91a15U,
  0xd9c3e00528f40d04U, 0x16a0f100e2c403cbU, 0x1f12d31c3106cc04U, 0x3444fc1ef90e9804U,
  0xeb141ae1eed60ddeU, 0xd001fc409e1cd17U, 0xd4fb2f2eb0719e5U, 0x1047e54a33ce03fdU,
  0xbaf240ccb5a9080aU, 0xb7c9d5a1d1f2f4c7U, 0xdbcfd111ddf506d9U, 0xbd03ffc6bb0644ecU,
  0xe8d922c2de45cbeeU, 0xcc10fee2d3ef8146U, 0xf01ef6fdc6aaf1cfU, 0xd9e5b3def211e4edU,
  0xdef63535e0e0cbaeU, 0xbf9f6f0c9f9dfbfU, 0xccd115d637210513U, 0x25211ad8f6ac06c7U,
  0xa1adb98daf09e92cU, 0xd7cf0ed1a012eaf6U, 0xd7030713fc0716c2U, 0x619cc01e39bdd1aU,
  0x380fb40a1502da44U, 0x20f60a02e3d9ea02U, 0x2aef05190dc31009U, 0x38f5170a2a93bf24U,
  0x2e23fd23f6243005U, 0xf305060816eee400U, 0xf8f6e9c4071d2106U, 0x22131401eeb11717U,
  0x27a4d8ca20e22e00U, 0x1d32383612f6da13U, 0xe51d2b2fb05218c1U, 0xcfc3e6ea1af0e20bU,
  0xd1125edd0d502ffU, 0x250ed2b4f2ed931eU, 0x25bc5ec12d5ea25U, 0x5d101ff0403fcf9U,
  0xe705df1627fcebeaU, 0xf413f9ed38d0ff10U, 0xd710ee1a26e00ef4U, 0x1722f1e50fd4c7f3U,
  0x14ae2d01f5cce705U, 0xb1dd722faea24b2U, 0x140b05d7f83bfae5U, 0xfa3d14dae1f41fedU,
  0x16febcaf140df4f4U, 0xce1e8d7e53ddc1fU, 0xd4d404edeadaf619U, 0x222e1d21f1e8f613U,
  0xf2e32b302af4fbdbU, 0x2beaeceadc07b625U, 0x10d7dcd6f6eea4dbU, 0xe227eaed2d281ffbU,
  0xe0f906d0cedbe310U, 0x16e6dac3c214ff47U, 0x120cdddb0f0207dfU, 0xf6dcd81fd8d300cfU,
  0xdf320212f3c1fce1U, 0x1504e7f7fce4f5dbU, 0xede72af1f9e10911U, 0xfef30e14d72cd1e5U,
  0xf8e2dbfbec0a101aU, 0xede5090ac8e6ebd2U, 0x2b12eb1bf0e1e127U, 0xfde5dcdbf2cf0df9U,
  0xc807cd420e1408fcU, 0xf9fef3d6e9d51ee3U, 0xb20e8c9f2eb0adaU, 0xdf4ecff05f3e4d8U,
  0xddfc012af720e0f3U, 0xf6fd2a0a080eeaeeU, 0xfbae21bed4f91631U, 0x717d6260022f2d6U,
  0xe3e3e519d8f1fa1fU, 0x9ddc5e21d07f6feU, 0xe3e01cf506cd2416U, 0xbdb2cd500c90d2cU,
  0xe3d432f9eab72939U, 0x6d4a21516c62f01U, 0x26d9ef0fe7d5e2dfU, 0xc5c7eb2a0708e0f4U,
  0x30fce5e328fc0ce3U, 0x725b9ef030aff12U, 0xf9062504d314e6d8U, 0xe7cb2bb1e8caf9f0U,
  0xd3e9c2dec90ff90fU, 0xcc0c1eabfcf016f4U, 0x1ae815b214cbfd1dU, 0x2dddd9e01ae1d60aU,
  0xff241fd9062a0c0eU, 0xf6e8b1ccf6e2fb14U, 0x10f1fdcaf704d4e4U, 0xe00a06e51adf1328U,
  0xec9990d290cce9f1U, 0xfed1adfb0aa602ffU, 0x19f2d18bff9ef311U, 0x1115f9daf9f1d1f1U,
  0xf80bf0f7dfe518e5U, 0xd61dd6d3d2dfeee4U, 0x21385e2bbf8a6e3U, 0xdc0df7ccd8001803U,
  0xe30b0bdec6f50e32U, 0xedf2c481d2aceaebU, 0xfcb4bd20e7c23b07U, 0x3d0300da10de10e4U,
  0xec2914e1d32a03ceU, 0xe93df3def42de934U, 0xf4fd0a1a10f20103U, 0x2be5062024101ee2U,
  0xf1e113f211e10a05U, 0x1422dcb804faf81bU, 0xe20916f70f08abffU, 0x2d1c1d1be4def7edU,
  0xede60de2dd01dc02U, 0xbd31693ba92c926U, 0xc84df6f7f5ea1c22U, 0x2b2603f7f5edf2daU,
  0xf40d2014c41f1912U, 0xfbe3eff9e12cf1fcU, 0xefba0ad6e20203c5U, 0xe928fcf4c15620e4U,
  0x1d0cf2f4cf26f4f0U, 0xeddc15021707d51bU, 0x2bfbd741e899ee2dU, 0xea9b17dd0b10d9feU,
  0x1220508cdd6dbe9U, 0xbffde0c4ebf5ef0dU, 0x18191afb2e0b1029U, 0x18250af512ece7f4U,
  0xea17fa15c3facbe0U, 0xf10fcbb8190cf243U, 0x361e2917080df60fU, 0x1a061be597e81ceeU,
  0xe6e6b6fbd82db908U, 0xe90309fdfe02e809U, 0xf6022013e6cbf2feU, 0x50614fc03e5b608U,
  0xf5f4f61400132fffU, 0x152ab71120e7fdf7U, 0x22e002e200e4e3c9U, 0xecab15250ab4eaf1U,
  0x20ecbcc89e21191dU, 0xde2de31c0adfebe6U, 0xc24f8d9d6ce0fb6U, 0xb7df201b1519f105U,
  0x1ff6e317e40cf320U, 0xf0ebccc21325db2bU, 0x900d521152bb6e7U, 0xffab04f602d11608U,
  0xfc29e9fff22fe912U, 0xdf253f0b1b09eef5U, 0x243a2a0e080de81bU, 0xe8022515f200dc20U,
  0x2e61018f50a212aU, 0xdd1af94009210cd9U, 0xe62cefdad8f91b03U, 0x3006e94714041321U,
  0x17e30dc008021a2bU, 0x1713e222f3dc22e8U, 0x19e81e27e2f731eaU, 0x1d1927f6112d15fbU,
  0x71e2825f203f6f8U, 0xe20721d9230bf52dU, 0xf70fe82e020bf3e9U, 0x215f828d41af216U,
  0xf1d929ee03dd2900U, 0xdff80d302512c4beU, 0xd84f1ed6ea0a2d19U, 0xe4c8f918062d1213U,
  0xde12bcfad9eddcf4U, 0xf4ccfb18bfe2d2daU, 0xd9f3f86ff70a05ccU, 0xdaec2fffc251d211U,
  0xfc04bc1ed406170fU, 0xd6bde034e20ed51dU, 0xe110e50d29cbfc31U, 0x4e0db612d726df12U,
  0x15df1de0500e0aa5U, 0xe41909ef2e012be7U, 0x40ebebf2db350fe3U, 0xed32e7eb35082bd1U,
  0xcef92ee8f9241cf9U, 0x2d0ee7be0dfcc314U, 0x1fd209f0dfe11afeU, 0xe2d6e600116115a7U,
  0x23eec8061df8be06U, 0xf7f3f808010824edU, 0xe002d83e49b21aedU, 0xfcc32415d1faebd7U,
  0xfc43384de910102cU, 0xed0610faf41a211dU, 0xf2eb010f011401edU, 0x2ee5fa09e4f4ef09U,
  0xf813fdfdfe0a05ceU, 0xf4e48493fb0d1cebU, 0x52151deb1f1a05cdU, 0xecd0fdccf5f9f9ccU,
  0x11607eef1140421U, 0x92e1f14da134112U, 0xea12e6e320c4f6ebU, 0xed140717f626c20cU,
  0xf8210d0dfae1faf2U, 0xeae8221ff71919d5U, 0x1001c8faff19f301U, 0xf103f2472c0aedf0U,
  0xe121e6e3f628021cU, 0x20230cf3fefef0ebU, 0x190c16e9d50141f2U, 0x16ebf60526e930d9U,
  0x6ee06e9de00d9efU, 0xef26d71215102318U, 0xf21019e101dada25U, 0x2c1617d7e41e201fU,
  0xfbc80c04f5f6c2e9U, 0xbbcd05dfff01cd04U, 0xdcd0e3a800f8172dU, 0x5ea1d72603e8f7f1U,
  0xbbb6fac42607edbfU, 0xf9bec9d9d2ddd646U, 0xf2b0250d81a8cec0U, 0xb4012cd9ff06c309U,
  0xe3c0e2bcbfb3d3fbU, 0xfed58905e182c5ddU, 0x27e9a8c3f10ee017U, 0x4fbf922f0d19440U,
  0x2617d6aaf8f41e0fU, 0xc1dec8f3c991dff6U, 0xbdee9f15aed7f1f8U, 0xcfc404ace6b0be09U,
  0xf901ec0501dddefaU, 0xf0dc0dd30ec5d748U, 0xfcd8cc0ef300c03aU, 0x24d7cc2204292a31U,
  0xd30eead0aae7a5dbU, 0xffce3e241f0c1ef3U, 0x2232ec2fcfcfd45U, 0x8f7d8f7f7d2da28U,
  0xdd21033b26f922fdU, 0xc7eb21d5d038d22fU, 0xcfece866e8ea0ae2U, 0x7cc102223e90fdcU,
  0x15f9eacb39ecdcd5U, 0xeb14a71af3d22dd8U, 0xe230e5d8f1f6f12cU, 0xb6a206afd340c8d7U,
  0xe2e10d22e6fa1823U, 0xc2db02420be81af4U, 0x111a5df6092c242fU, 0xcbf7c022d50a0e2cU,
  0xcc11ef18e9cac426U, 0xd917eb14d6bed5e1U, 0xbbbf2fd0c104edfcU, 0xd32ff701f2050231U,
  0xe3ded8e10ed322cfU, 0xd5cda80502cfe425U, 0xc2bc14c0ffff07c8U, 0xd08141ba2fff047U,
  0xd4e411103818fcfdU, 0xef1941e0161fd52bU, 0x51f50fc6f2e5d9f8U, 0xe9403209fe0c1e02U,
  0xea0d19e0edf9e81fU, 0x4ed9f72f121bf4e9U, 0xf21c1fb7571c483cU, 0xf2d8db581dc6f95fU,
  0x170a2efbf2d630ecU, 0x30eba9e0e623e4e1U, 0xfcf624f604313810U, 0xd60371b41cffd33eU,
  0xd6bf38ec0e48fc11U, 0x32bd8a1006bc2703U, 0xe4efe518c6faf5d3U, 0xc3b21916e1f70248U,
  0xaf2fd34dc2b0201U, 0x204d142fe1ac930U, 0x2aefcb180a2eb029U, 0x64efd0f1229231d8U,
  0x2a162d1425e1d1dcU, 0xf4091110471a06f1U, 0x917ef110f3ffd0eU, 0x55eb17341541d7fdU,
  0xde90500ffffee2cU, 0xbad2ce500d75bf8U, 0xe8dd763eeb2f29d1U, 0x2126229ce232c12dU,
  0x111bed220940f41cU, 0xe6f4224be42727fbU, 0x50d001eff2512f4U, 0xcebd1ef9d532e9f8U,
  0xecf1331610e81cU, 0xe0b0022232361d5U, 0x50e8f0c50d1fdad7U, 0x30fd03192e22dcd6U,
  0xfec1e3d716190de5U, 0x45e5dcdf1fd212f8U, 0xcc150dd4dfcf523fU, 0xb2c16f81c0306f8U,
  0xe5deda0703e22825U, 0x16c9feecfe0f1632U, 0xf2c96322504c3c08U, 0xf72508f8041bf90aU,
  0xc506f5dcda19d720U, 0xbdb0fc33f0143ddfU, 0xeae5ea26ce32100bU, 0xf207f3fd1eebf1faU,
  0xe50b140764e2f0ceU, 0x19fef312391e3cfeU, 0x2bf03eeec513deebU, 0x261ef03e1420da01U,
  0xf7ffd0d4d9050946U, 0x29c2dfd74ecb2441U, 0xcc0210acecac175cU, 0x3a019425f7cdca34U,
  0x176e1ece11000df3U, 0x1127dff2cd0a334aU, 0xd916f50ce5f31a09U, 0x52548e72f24f1dcU,
  0x3802b8031cd8cd19U, 0xc30fb30b2ac002dfU, 0x2e08e22d17d630ccU, 0xdde824fc1ddddc11U,
  0x1327cb292fae1729U, 0xdc05190d07c8032dU, 0xd4f8e43fbdc7ca02U, 0x4b2edbd217a6e336U,
  0x1df5f49c149e04cfU, 0x4990be6c7ccd60cU, 0xb1f8d5c3f9d8403aU, 0xdbb8acfe03fae3e5U,
  0xcc3006a2d515f5bfU, 0xc841f6b1ada1e82aU, 0xe4e2050e1cf3eba6U, 0xdd21fac7b80cf4dcU,
  0xcb40c9ffe8daefe4U, 0xd3d2b6e2e9fcaeeeU, 0xe4d60c093e0cfa4cU, 0x921e4b28aacd10cU,
  0xb39adff44de902dfU, 0xf9ca28ddfb1600c8U, 0x18fe2ff3ff0422faU, 0xfb11dae60313b612U,
  0x9ffdbffae1731e8U, 0x35cec8ba1d19060aU, 0xc1eaee050ee73020U, 0x2be7c8c3c2f630e6U,
  0xc16a32dffe2e0704U, 0xfcec2e05bcee4215U, 0x17ef0f0168e7c0ebU, 0xbce4edf0dde6e1fdU,
  0xd0223d29b3e9fba4U, 0xc12a2facfbe1d3ffU, 0xdb0fd42ed21fb61cU, 0xe70efed022e4e4daU,
  0xc5c2fdc01228a211U, 0xe8def2d10202260fU, 0x1fe61df5f9ed1126U, 0xe7fbe3d9d8fae315U,
  0x2f0cfc13510edb1fU, 0xa0b10ead7ee262bU, 0x2e1919c708d6c61dU, 0xe62ef1e4f0a5ce06U,
  0x627091011d1fdf7U, 0x1619b901051cfa19U, 0x103421c6d6382b0eU, 0x5ffdb3d1bf414d9U,
  0xf1efcfcb3a510cf5U, 0x803df090d1e00f2U, 0x1cfedc44f8daebefU, 0xf219df1af5e11814U,
  0x150d1211ed0602f1U, 0xe7f64f12d9ddbceaU, 0x72cb01bdcafb820U, 0xf61b203917200d2aU,
  0xf20436dcd0c7ee1bU, 0xeee3bebed4f11bedU, 0xd7fd0c1de7c0f517U, 0xc9fe07f8feea190aU,
  0x2a0cf6c8cde6e0f1U, 0xf51a04d60a040eeeU, 0x1413be37b8f4d4d6U, 0xa3ab217e300e6ffU,
  0xfcdcf0ff3defc028U, 0x21001c7bcd8f4c7U, 0xc5d1ef031ad40016U, 0x33f5fef1c4c6e504U,
  0x3f5b0e700dd2cU, 0xd4e826c3b603f3dfU, 0xf33beaf1ea0ffe0cU, 0xe221fb23e8fb12e8U,
  0x281f03f7f2072ec7U, 0xd5ecdee6920c1520U, 0x1403e2f8fb0001a6U, 0xdfc1becf01531f9U,
  0x26cd09f7060c060fU, 0xcf826fbe5f11dc9U, 0xf480902c7271023U, 0x2008e02bdf02199fU,
  0x282226267017e2ebU, 0x2de0e11be0f6d7f6U, 0xeb14f54b4416d0f2U, 0xf3f8cfe0daf106eaU,
  0xdedaf8e3f101270bU, 0xefc19d6e7d509f8U, 0xc0fd00dde5f817e9U, 0xcd021511fe20f3efU,
  0xd31bd2d52f09daf3U, 0x29fbdeca0a10f1f8U, 0x14b6e4f4d7da15edU, 0xdc191b13e2cb98e1U,
  0x10c10be5e0cf251bU, 0x1d07aec1dbf3ca0cU, 0x32a13f8d8fdff1eU, 0x242a1b2ff8e1eb01U,
  0xe5f50de857d516e5U, 0x141700d20fc2ed0dU, 0x5f1d61317ba1312U, 0xe911ea2311e5f229U,
  0xd5e307df12cf1a21U, 0xd5d8d4d4d7aaf3eaU, 0xfae1fbedebf8e706U, 0xd7f9eaf52ff1ddffU,
  0xe19fde2c1fb00f9U, 0xb40ff098ad15dbedU, 0x40aed6ded4dbf8d2U, 0xeb030b9bc9e6dca4U,
  0xe4d0e1ead5eaebc6U, 0x15efd4d0f1ec8dffU, 0xe726df04bdd3f62dU, 0xdd0de707e304d7c5U,
  0xed28efef18ebb0caU, 0xd430d7da00ddddedU, 0xd3f8192f1ad6a52eU, 0x1d041fdb39cad299U,
  0xebd805bfcb21e229U, 0xbef82ba1f4a716fcU, 0xecd2e6ef17c70afeU, 0xd8e72625ccc5d603U,
  0x636f2dc361a3c06U, 0x3fd3b84126e307faU, 0xe40ddf0bf92b0ad4U, 0xd2f7f2de08391921U,
  0x34eae80ef5053c08U, 0xe600222beb0fc2d8U, 0xe95a36382b25f80cU, 0xfa30caeefa06fce5U,
  0x280a1f2a45dcf9f8U, 0x3ce73817e409f100U, 0xf4f3e63703ec353dU, 0x21f6f731e4fd02d4U,
  0x2e8220d112b620aU, 0x1d0f1a2ee8fb34deU, 0xf3c20a0b2cdf2ce0U, 0xd703e227f908fe39U,
  0x825c30e18e7f92dU, 0xc41a1bb0b2d0f0daU, 0x2ed2e8da0dbca3d9U, 0xc600ede300b0b1eeU,
  0xd80b0905f734182bU, 0x1effe5200afcaf30U, 0xe830dfadb6ec12d8U, 0xd90aebc709abeafeU,
  0xf9b4c0da2695d5eeU, 0x2e186320cacd718U, 0xedf4e3b7fddfd2bdU, 0xc1201e06f318dc01U,
  0xdfd501af81b93422U, 0xe4ff17db11f8a526U, 0xa313a922a6c1ac16U, 0xf9081006d39beafaU,
  0x101ed0fc1ee71a2bU, 0xf926ede2e6f40d21U, 0xbaf3b301300d9e4U, 0xa31929f309dcc1e4U,
  0x14f5211bfbef05ebU, 0x3516f2f53330bfd3U, 0xf24f7eab7a9d14cU, 0x51ef081142113405U,
  0xe7eaf50120d2181eU, 0x3ffa0e15fd07da24U, 0x16390f291ad8f711U, 0xe6172610fb0c13d1U,
  0x32fef906c618e70eU, 0x24ee3826e8ded515U, 0xeff1f226d4e3c603U, 0x1f2c3422f5e5e6f0U,
  0xe3e01ef9240430f1U, 0x19c9ddf5fbd6e50fU, 0xe304ece336f7372aU, 0xd50dbe14133a2317U,
  0xefa91e3510f623fdU, 0xf81807cee501ceedU, 0xf4efef01f23c00baU, 0x28082f020d3d2dd0U,
  0xd803d531d1200e2fU, 0xefbaa050506dcf5U, 0x1e2dd0f70ab7f217U, 0x393ae9f5bd19d00aU,
  0xedfffef94214260cU, 0x21f626fc1bdcfbe4U, 0xf9fef41ef80021f8U, 0x141912341fdf2017U,
  0xfd1ae2f00a1a1a19U, 0x202cf0ae09f9e31bU, 0x24ced2ae22fdf31bU, 0xc72d18051be8fd20U,
  0xfc461eff13b0fef5U, 0x21bce8e9174397cbU, 0xd3afaf1ec1dee3eU, 0xe818de13f31e01ebU,
  0xe9e9e403ffc8cbf4U, 0xece0e3e1e4073805U, 0x4261f5e1fc6f31eU, 0x150902e623d933f6U,
  0x802e6d2acfb311aU, 0x2f0c12e7edc8e301U, 0xf0fdff0310f4c30aU, 0xf4ff2e18f3ea2ee6U,
  0xf10d22e33ac9505fU, 0xd1efe6f5c2f228b2U, 0xd02001fb1ff9bc25U, 0xb705b6d91a0d39e2U,
  0xfc3555e71ad030e3U, 0xceeff6cb15fad1fcU, 0xfb0abe33b008fce4U, 0xc707c516f603f681U,
  0xc430cf10f7d7021eU, 0xdf1d31cdb991404U, 0xd4cc03de50e9f247U, 0x4f1b40e60fe1b5d5U,
  0xf60beedf03c31006U, 0xe5dc54bd0ff22438U, 0xf145f11dfe000f29U, 0x2b46c63de9e71c1aU,
  0xdc1532e7d6023e32U, 0xd2d7ece0b71223f6U, 0xfca4a90918ded0f1U, 0xcef7fcd11cfb46fbU,
  0xff0845f8fbef04edU, 0xc41630e01cdecaebU, 0x1d0bcf27cbcfd6f2U, 0x6aecd04feea13cdU,
  0xe01a094a27cdb8ecU, 0xaf1100f404d2ffd2U, 0x180dd72b1a11a521U, 0x2b4425d11debfcb4U,
  0xdce1ffa894d9dc32U, 0xf5e5e4aff1e8f43fU, 0xdf59f3fcfadd33ffU, 0x41f8f303b3c608fdU,
  0xc90a13e811daecf8U, 0xbf11e3cdedf10b37U, 0x1ecc043c2ebfd4b6U, 0xe5eafec5f00ef1d5U,
  0x1d0bd3f1f13d1fd6U, 0xb2837021bedccfdU, 0xf31bf1d4bbd4e407U, 0x3621b831f6b626c9U,
  0x17163e15e5c2fddcU, 0x60e3de206eabe17U, 0xf8f6124afd18d1f2U, 0xf414ff0afbe9e4cdU,
  0xcde27999622f714U, 0x171005f002d3c502U, 0xbdda0f28f6f948f4U, 0x12fc0d1db8aee519U,
  0x19100e1303c70aefU, 0xe90fc402ffece1e4U, 0xbb8cb231faac0ceU, 0xfafcdedae3f024fbU,
  0x5102bffec0f32e0U, 0xd40219dc0fdef1deU, 0x1146ba05e2c2852aU, 0x251cdd3ce512f798U,
  0x8d2bbdcecbde3e9U, 0xdfee0c04f424beccU, 0xce24e930d72d1f0dU, 0xf8332ffaf6a503eaU,
  0xddf4fdeed5f4102bU, 0x1f954c218c3b941U, 0xc40ee5360ed1fbfdU, 0x223a1702e913e4e7U,
  0xfa17eafcfe24ee11U, 0xe3f7ff1a07fafc39U, 0xbef1152e6f1f3aeU, 0xd2fd02d5f6f3fc14U,
  0x5f400e1060c0be4U, 0xe004140b1e0126fcU, 0x13eb02d9e0da0830U, 0x3401fc1508bf19faU,
  0xe4d30bf8f41c231bU, 0xf9fa1dc6f63b09eeU, 0xf2f70c1af7ed310fU, 0xe31c39f315e50b2dU,
  0xe418fac7e8edff0aU, 0x1bfd120a18dde01bU, 0xdee1e09ede71ce4U, 0x3b061bd3ec2cfaeaU,
  0x9ebf302210109d4U, 0xe3131003f6200600U, 0x12d9f8e0ea3d0dd9U, 0x14d00408f70bdef1U,
  0xf4c4b51a3dd8e437U, 0x3abfdc3ae6342cddU, 0x1febd6eef9fc2b3dU, 0xd61af12f0ae41c05U,
  0xe82f1d43e3070e13U, 0xefe91efc1413210bU, 0x1cdcfdeafe09e6fcU, 0xdde1c62cdfe9fe1eU,
  0x24e615f1f9040bddU, 0x1c10b7c218d814e2U, 0xfdeb09e7fbdc1ffcU, 0xf2de1cb2490ef005U,
  0xee24dfe7fd4ab4e0U, 0x2913edbedb1eda1bU, 0x3ae1e4d801fcf60cU, 0xef130dcbf9e8f0e6U,
  0xf707eb043c10040fU, 0x3108e52d36102cc2U, 0xf83322cadde71beeU, 0x24d807221dd333dfU,
  0xf6ccfd01de17ed27U, 0x15ef04052222202eU, 0x3af10a2dabc0eaceU, 0xda06f8ee43251e13U,
  0x2b2ef9e2be273becU, 0x1df6db94f7e7d5e1U, 0xd4b7f9031ed4bce3U, 0xc906330ff7e11505U,
  0x9e2d6ffe1f707edU, 0xebebf6a903e92232U, 0x21d41beffb05c8e1U, 0xf636f8d8f3efecdfU,
  0x3cda2a004735100aU, 0xf753110320fb3f08U, 0x2c1edbdbeaf6d0dcU, 0x1124cd2d05cc3be4U,
  0xf90ae5cfd6b312ffU, 0x1132f2dafc1e30faU, 0x2ee8f5d8e016f5d1U, 0x10e0bece418ffU,
  0x172e1dbb11041606U, 0xf7330f9f08e4db14U, 0xe102c733dbf4d412U, 0x2d0aeaf212e52f45U,
  0xedfff7faedf30802U, 0x120d1bbef8141503U, 0xf8d7f5f5fb050e17U, 0xee14e5f9f2f1edf8U,
  0xfc031a1714e70918U, 0xf5d80c08f6f5f9U, 0xf5d8fdebeaebf5ebU, 0xf40203f60c0bf4d9U,
  0xdbe5ccf4ccf0ef0bU, 0xece6caef00b9110fU, 0xcf3ded4e6d0c503U, 0xf32c16e7e7fbf70aU,
  0x1402fce713e601f2U, 0xf0a00d9e8cdfbecU, 0xc0cf718dbefdc01U, 0xfff30700ec000e07U,
  0xfc0d05f7fbdf18ebU, 0xe3fdeed9dd0108acU, 0xfbeee70608e8e6ebU, 0xccf500f90806fdf7U,
  0xf7f40feffdeff300U, 0xd0aee0a060fc702U, 0xe8d5dfedece1eaecU, 0xf9c8d8cf04e10ef0U,
  0xe2e4e1fac3edfceeU, 0x14e8ecf4f5e0e6f8U, 0xf8f6ef8117ebdbfaU, 0xf30eedecf4070ef0U,
  0xf7070fd9e106f1f6U, 0xedfee6deea03f0feU, 0xe2e40002ff02ef09U, 0xefff1f5e7f7e8ffU,
  0x13faee0704ff0307U, 0x70610fe140cfae8U, 0xf1c508f9fc08edf2U, 0xdf1903130412fff1U,
  0x1d1b05eef209e6efU, 0x6f00210f209d5f6U, 0x7ec09ec11c9f701U, 0x8b502f712e30b16U,
  0xefafdefe20dedf2U, 0xee13f7e004f4f3fcU, 0xfcff060000f9f4ecU, 0xf8fc121523fbfff8U,
  0xf21cecfce217edf1U, 0x100dd0e30ffded0cU, 0x9110efcfc0fed1eU, 0x1ecb1cfacf02f5f2U,
  0xdc1609e4e5ea110eU, 0xea12ffcefcef19e5U, 0x16abea03e9fcfbd7U, 0x18f220e7def211f6U,
  0xe020bfecdfcf1f2U, 0xf1335dd0fefd000U, 0xfedfeb14d6b6cb07U, 0xaf0c6ecfcf7eef8U,
  0xe0b1c1aeddcf1dbU, 0xf20d2ed40304da0aU, 0xdff115e7002aea13U, 0xf0fcff01f5d002e7U,
  0xf7ebe9eedf12ef18U, 0x1000f0c02ccf112U, 0xd300fd1615da21f0U, 0xff10f1e4c4daf10eU,
  0x1bfeeae90fe0fd12U, 0xe60fdde8f4da17f2U, 0xebebe30a04e8f801U, 0x40803ef08ece107U,
  0xfaece6f3ea0415f0U, 0xfdeef8eaf2f9fa03U, 0xa14eef5e210f8e5U, 0xfcfae4e013f71ffbU,
  0xf6ece5f9eae0faefU, 0xfd03d20302ddf500U, 0xfc0e1cc41903f703U, 0x2fcec0b08e60ddaU,
  0xf7efece7e3fcfa10U, 0x81211ef04f8d80eU, 0xf4f4f319e2ebdefdU, 0x7f3fd1510dd0514U,
  0xf00ce105ea1df105U, 0x150502e5150e0cf9U, 0x19f9eb0205070c05U, 0x260a190505efd606U,
  0x1a09fc00fa00170aU, 0x22e8f5f3130bb402U, 0x16f4fff1e9071411U, 0xf4d5fbf107f2fd11U,
  0x11f606f0d60513f9U, 0xe501f0fd06fd14f6U, 0xf2050bec03f1ede5U, 0xf6010ffa1b0609f9U,
  0x816f300cf020207U, 0x30fd8030eebdaf6U, 0xe31d0a11e5fee514U, 0xffa1cf1cae3faf2U,
  0x1b05ea10e7eefff8U, 0xf6fd131003e103f4U, 0x7e9f5f408d8e5e1U, 0xe2dcefe6f4ec011fU,
  0x1402000df40213f5U, 0x4ea0c05f914f215U, 0x14e5cf11e4ff0f12U, 0xf0db0f152001f812U,
  0xffe3edf3f0d20ff3U, 0xf314e20523d2f50fU, 0x12f0eecffce1f50fU, 0xf301051712e905faU,
  0x1cfdfbe3e404f4ffU, 0x1f1de01104fbfbebU, 0xebe2d914f80802eeU, 0xf80311e1ede321f2U,
  0xe1700071d02eacbU, 0xa0b070fd8e8f3fdU, 0xf2e6fdd7f0e10f09U, 0xe7f6f5f0f8d6f3fcU,
  0x4ecc2100df6fd11U, 0xf0edf9ee000de6eeU, 0xf2fff5ff0901f5edU, 0xdf2091818efe903U,
  0x16f4bff0e2e2fadeU, 0xf5f7b4fe13f6d90cU, 0xf716e9ff04e3dafdU, 0xf702e506ef0103fdU,
  0x10010fcdeeed0cecU, 0x712f6ebed0eceedU, 0xfcf0dc04fde5cfdbU, 0xd8dd0df602dc0df1U,
  0xfaf5000eef0718e7U, 0xa0af3f11005f6faU, 0xf9dcfdf8f3f110fdU, 0x2fe1b09fb02ede7U,
  0xfe03e10cf413fc08U, 0xfee5fff7f4f2f108U, 0xdeee5fc0dfce312U, 0x120dfb0ef8ef0006U,
  0xef7f403d7ec13f9U, 0xfdf4e403ed16f014U, 0xf2101cf0f5e6dd17U, 0x1514f30511090b02U,
  0x804f3e2f3f80e03U, 0xceaf0ec05eee107U, 0xd5e6f8f5e5f1eefbU, 0xe4031bebffd00d17U,
  0xf0ce15cb27f722c6U, 0xf7c5d81306ede2f2U, 0x22700e3c7c028d8U, 0x9dd118aff10cfa12U,
  0x17d6f216ded7e7f0U, 0xf308f0d6e814f1daU, 0xf3e2632abf707e6U, 0x1939e445f451d3e6U,
  0x11e222f55eff0302U, 0x25cee303f8d9dbdeU, 0xe3d9fa251d011304U, 0x1633ebf2f7f909acU,
  0xd8dc18d614c30601U, 0xefe20e2fd30ae6c8U, 0x15d3d0c5c3c80ad8U, 0xc43fdf08f124f402U,
  0xffe430daf0e42d00U, 0xf6f30eeb0f0fdd10U, 0x1739f937f60235f9U, 0xfd1be7effcf03ed3U,
  0xe2511d301f915dcU, 0xfe144dfceee8fef4U, 0x921282d0c140ceaU, 0xf439d410fc58fdbaU,
  0xd355364f62179bf1U, 0x19103aef09daf713U, 0xf8fe033e4840ca4fU, 0x410cfbfc03b0fdabU,
  0xdbd9ca131b0fff15U, 0xcae31a1fe1b5b808U, 0xbc1ff20805a26ae1U, 0xe37fe2547071dc3U,
  0x30041af71b140eefU, 0xff0cde2c031c0af9U, 0x11fee832eeef09deU, 0xf9ec34abe6043209U,
  0x33caf5e8f60512eeU, 0xf51f1f1e0705ef06U, 0x1f49ff140712cc1cU, 0x2023c13cdfedf9e1U,
  0xd57123834da0945U, 0x402f48ea1002f430U, 0xfde6ee051a01fde3U, 0x1a270509fae52cd5U,
  0xedea1728080c45deU, 0x9242a381f20e5c2U, 0xeff71f090bc15cfaU, 0xf7381939430de1e7U,
  0xe6ed220e09fa00f9U, 0xe523dbb5d7f6ef1bU, 0x1fe1ce0b01e803c6U, 0xf0e71cebee1138e0U,
  0x8020fd91be8e90dU, 0xd82f19cf0fe000c9U, 0xf1d05fedbe6ea09U, 0x211dcb1fe1141581U,
  0xc6e8bd0c10c0eefcU, 0xcfac5f403cd00eaU, 0xf5fb101a2ce9e83dU, 0x40e90712e5dceccdU,
  0x422f2f2f0dae7fbU, 0xf7fd0008e7ccc7eeU, 0xcaced1f8dcd4e3fcU, 0x1439e72704fc00e4U,
  0x12d92b07e6e01503U, 0xca09e0f7f7fa0704U, 0xcfec1fddbfe06ecU, 0xc61125cbd6eb4003U,
  0xf1040cd0d9fb23e0U, 0xf61e0f1efaf009c7U, 0x1f100eeebd03ed2bU, 0x110ba32b10f0f8bdU,
  0x32a046319deeae9U, 0x2ae30bf2d4320e0aU, 0xfb01260f390d0df0U, 0x17fd15e5debffe9cU,
  0x12d7d3babe0ffe2fU, 0xf4f40038d2e0e3edU, 0xcedb251105d21df3U, 0x19f1ee25ff1a0de6U,
  0x318ffec2cf5d3cdU, 0xeb2521f6de121af3U, 0x1211dd2a07d9dbd0U, 0xfa1ee9ef0beff3f1U,
  0x27e3efd404261f1fU, 0xdf13e3eef4d904f8U, 0xff2ff9d501e0f707U, 0x13fff51006e3fad8U,
  0x17f5130737f7ecefU, 0x31ef0a12fe1de6dbU, 0xf80ff64208d505cbU, 0xad4f10a1dcde3d4U,
  0x8dcfccde3cde9dfU, 0x71008f5d0ebe9c6U, 0xaeb105170f8b31e0U, 0x90dee28172afd0bU,
  0x181e21f90a0ff8d8U, 0xf2409dfde260117U, 0x1c4ca22e8e9e5caU, 0x27093bd719e0e4eaU,
  0x1fe5ef0c1a1423eaU, 0x29191d143b0d0dfbU, 0x1afeecc5c9ea063bU, 0x1808ce370d0502dcU,
  0x190223091deed9dcU, 0x1f4412f41d07de18U, 0xf5fe0041161cdc17U, 0xe9fb3c0e25da1708U,
  0x1111f6ceab0c212eU, 0x7f1dafcf3bef000U, 0xe209fbf404a4f30fU, 0x1cc12aecefe51f0dU,
  0x2b27d01a45e702f5U, 0x8ebe7e2c2fe1b00U, 0xe9ede12befefabbeU, 0xeb1af2cfeff9fef4U,
  0x30c70a0204150830U, 0xe5172b1b2ff5ee0aU, 0x1e0eb5a3b8211139U, 0x1a2dba49ecdc35acU,
  0x1c05d52eebfcf311U, 0x4320180df9f4f114U, 0x7192502df2828b8U, 0xcbf903ed050dede5U,
  0x21051194f3d21736U, 0xff22e1f328e7fdf7U, 0xc0d1fe13fcb308fdU, 0x1e4f1f5f1fbf507U,
  0x2b18c109f018b0ebU, 0xf8f523e9d6ec33d7U, 0x33fe1e3af31aaaeaU, 0xd8f7f1fc1debdad3U,
  0x28fbcffcf928e9e5U, 0xaffd319fe01be25U, 0x1c05c3c6ed1be0fbU, 0xef0507141bc90ee9U,
  0xe8c709e626dfedf0U, 0x320e48e3ffe4210fU, 0xea2c03f6a7ea32a1U, 0xedd2f51deb1608f6U,
  0x25ff1c06cde51f14U, 0x2aedffd01112fd19U, 0xc8b0a2018d9ddeeU, 0xe40a12da0c1214fbU,
  0xd2ff09e9ed0223eeU, 0xc6d1ef09f6070128U, 0x1404e3cc29db1629U, 0xe8f6bec3fcf00411U,
  0xd81d0a09efede1c0U, 0xc611020aeb1a170fU, 0xc0304ebf916d2efU, 0xe70afcd3091dedfaU,
  0x5ebbd0f0ef812ecU, 0xafeef17d7fdbfffU, 0xf51ce6ef251904f7U, 0xfd251ff4ffbcedcfU,
  0xf10dfbf204dbfae0U, 0xf0d1ecf6dc17da04U, 0xe527f3eaf4e20fe5U, 0x32ce9f7f5e00a11U,
  0x1416d6e00d0c0e12U, 0xce9d2223c1a12e5U, 0x1ccd7f20910b30bU, 0xb0ecdcc5083217e1U,
  0xf2043011f41bdf10U, 0xfa0b0fd705eec514U, 0x1fcaeff212c6e729U, 0xdec507f1f9e82509U,
  0x73c2452201f0c30U, 0xfe1b2be1f3e722f4U, 0x24161a18191ffbe4U, 0x7e6250d1f1ff113U,
  0xeee6ef4dd7e7ec0fU, 0xe6d0f225e80d2f18U, 0xf35430f30ce429ffU, 0xfbcddbb8eae109e0U,
  0x2e2bf0de18fdf214U, 0xf202f9ee0dc902ecU, 0xf13f22f3360b0543U, 0xc10a4f6261ac02dU,
  0xc91225fdf0e6e1e6U, 0xcd31e816ddf51801U, 0xb81223dcf72605c3U, 0xd02a1de112211f13U,
  0x2409e2cf1c1ff810U, 0x33e5bc4005b6081cU, 0xe4dbd02bddd6db2bU, 0xed24341dd5f5e9faU,
  0x409d92d08b12f0eU, 0x30742e92102eef5U, 0x262dd2edf0efcd2eU, 0xf8030b0431f6ea15U,
  0xfa19fbe71af81bf2U, 0xaf4e02737031215U, 0xfa2202c903004afeU, 0xeb12f30014ea33fdU,
  0x1d06e5d8f30fc7ffU, 0xf7bd0d000df7ffecU, 0xd0f1fd2117032cf6U, 0xf94cdde9c635f52aU,
  0xed14f0021c15e7fdU, 0x8fecc37fbe733f5U, 0xe6d8d00f2806db00U, 0x417f409dce3122eU,
  0x2408f20b20dae1edU, 0xc9f1deed0ff81bedU, 0xfbfe03d60c18190bU, 0xf105e3dd16d419dbU,
  0xfee8101fccfcf4U, 0xbce9141caef91600U, 0x10016bb0511ddecU, 0x11cb0d03f309fbb7U,
  0x12f9ece3d518bfd5U, 0xc9e2e30cf6cdcf1dU, 0xd211de15f9f9ed0cU, 0xed1efdffc8da100dU,
  0x26f1f3310db82616U, 0xf9100ae7f3f4f3e5U, 0x1ed4c8111a16e2e5U, 0xe4ce1a17e5faf215U,
  0xd6d3d9c7da06eff9U, 0xd0dbddc9191de1f5U, 0x1928fcf60c17f4ccU, 0xdd2eaed2301b90cU,
  0x8f1ef1ef9ca2ef6U, 0xd9b5f41fc9eb10f5U, 0x15e5fae0fdf640c8U, 0x290803e7f90028c0U,
  0xcbabd8e1f42608e8U, 0xc5e7d3df0ce6cefdU, 0xb70af3281105ea14U, 0xbc2e2cd8f22fde27U,
  0x1412cae3e9080f04U, 0xffd4b5bae0ffb1f0U, 0xd0f5e3ee13f1d738U, 0x3112e70eaf10cf04U,
  0x13cd18bb15dddee9U, 0xe1c71206efd9d9ffU, 0x28fdcb0ccb361805U, 0x273ef731030dbb23U,
  0xdff048def91f0128U, 0x1e405d1eb00261fU, 0x2403ed1fe4f8ff14U, 0x38edecf9fc0722e6U,
  0x190403c4eaf8f51cU, 0xfafa351e01f41b4eU, 0xdcf1c334eec803f1U, 0xff4eaee0e16f225U,
  0xe33012dd1f1fad9U, 0xfa2c120726efe8d3U, 0x1604001cfc05e814U, 0x311fe229dc0510dcU,
  0xebfe0f06052aea2aU, 0x6f617d3ff10f505U, 0xff30202eeeff2703U, 0x24191b14eef5d61dU,
  0xd11512e30208c240U, 0x1af40cd0e0d32df9U, 0x2197e82be5d4ccf1U, 0x2d2e0aead92028fdU,
  0x2326e3f3d8e7ff07U, 0x2037fb1b3b18cf35U, 0x2cc4e2c5f0c80e42U, 0x3d4f7df03b446e0U,
  0xf1ea0510e6c7dbd3U, 0x61809f4e42dff00U, 0xeafe15f00f01e2aeU, 0xc1e9261af3f5f7c4U,
  0xfaedf1dacdfb1831U, 0xf6109c04f0def70dU, 0xe215015204ae0f3aU, 0xf6ceead5b9e01a20U,
  0x1fef0fd29ddcff3U, 0xf2fa05050f930103U, 0xe10ef9a5578bc600U, 0xd30bb1b7f1e5dd45U,
  0x7e213efe4ea0114U, 0xd225f606e1ffed22U, 0x2e7cd0b8451d0d8U, 0x133ad0cff9f7f5d0U,
  0xe5c59af90e0ebddeU, 0xfaf3bf131681dbefU, 0xf60ade01fde701c5U, 0xfd233dfcd1febfbfU,
  0xfa061d10c3b910f5U, 0x2183203eed3933fU, 0xda0b913990bcc209U, 0x3d07183ff29b1808U,
  0x25e51b150e052395U, 0x3c201b130345bc35U, 0xef2faefad27e211U, 0xe6f1f60cff571fcdU,
  0x21e1a8f91004bf1cU, 0xe0ffa2cd5ede3e8U, 0x14e8011667eff9f9U, 0x21c72100e8003728U,
  0x15041119fc46160cU, 0x12ee0730f908ebfcU, 0x172f0a2d11f70606U, 0xe700b5deeb150928U,
  0xfef706231216fac7U, 0xf209d2cf002323b3U, 0x3eb80aed2b14f801U, 0xa9edead40bfbf114U,
  0x223c40c0324d802U, 0x170d0519ed28f030U, 0x11e26040913e712U, 0xf713eb030602e1d0U,
  0xf0e6071239eb0b2aU, 0x21f5d1300d06f612U, 0xfb2d08f62d0af0edU, 0x1d15072305c02d36U,
  0x4d6f3063b142b19U, 0x14d9d11df00e06f5U, 0x2df8de10d6c1f8e7U, 0xcf05fbfc1e231114U,
  0x19f6110a0505f5edU, 0x1af5fcd7284fef07U, 0x140a15f71820baedU, 0xd1e4182905fce0feU,
  0xe7def8eae3f2051cU, 0xe70ff90207f1fffeU, 0xe3fb25ee0fd940dbU, 0x34e7dd25fd02e5ffU,
  0xaedebf40ef0fdfbU, 0x14efd9fc0d111be8U, 0xe92202da2ae7e004U, 0xeb0d3804f6f3f318U,
  0x8c101d502c207f7U, 0x3f2d4f91c09eb19U, 0x2609ffddf8efeb05U, 0x81c11340018fb23U,
  0x12e60f07ed0c11e3U, 0xeaf315d8fc2cd603U, 0x50bf1f6e419eee7U, 0x221f60f350ae612U,
  0xf4f23ef5ded80cdfU, 0xf90afb01e5f3dd03U, 0x81000edfc0f00dfU, 0x92500f5f13b40e2U,
  0xdee609daf4f0e1fbU, 0xd61a1713dfcf2bf9U, 0x410ec371324f6e9U, 0x15071befbc371a0fU,
  0x6221e37fe2ded06U, 0x6e317fed2dd08f0U, 0xd1f800ff071c182aU, 0x10c22e4e6fd0319U,
  0xdfe0040104e3fef4U, 0xf2e136f8051af0efU, 0x12100f031a0936e6U, 0xf712d405fd02e4ecU,
  0x26fd12151df9eee2U, 0xd100c15012df04dU, 0x1de011041c23ea1aU, 0xe827df1703440cc2U,
  0x50cf8f5e1f20215U, 0xe91d060bfe1df3daU, 0xf0fb242e13d5e70cU, 0xe8c500380de40205U,
  0xf30602ede632f6edU, 0xc110b19061fe215U, 0x140d1914ddd924faU, 0x60af5da1c1b17eeU,
  0xeff715150b080d0cU, 0xfe0702de120528f9U, 0x39cb02fb232fea1eU, 0xf1ed0ae1cfe3f4f6U,
  0xf508f2000221b7fbU, 0x121716e71c10fe10U, 0x1d2115e60e0ce91aU, 0x71af91a1fe9ed02U,
  0x1e0e0aeeee12fb07U, 0xd3bcd17200316f2U, 0xf3f7dfee2f1afafcU, 0xf7dff8f8e3c3f5e8U,
  0xee050bf7f74dd90aU, 0x25f8001af8ed0edeU, 0xe29ef18dce21cceU, 0xbf040d15ff02f4e9U,
  0xfcfa1c29dd0ce50eU, 0xe516f3d1fe04fde8U, 0x17d40d2bfc0cdaebU, 0x20f30a15d701e70bU,
  0x1aea3b2e24110218U, 0x1b13e835070cfe06U, 0x659e8e307033716U, 0x8f4f10ae8f83b28U,
  0x1b254ce62edd2dedU, 0xe32c4adcf8f50fd5U, 0xfaee430f3c2f0421U, 0x64837090b2cddfdU,
  0xfd22fb383226f229U, 0xfc142706fa2d0d12U, 0xdd0c024502040d2dU, 0x1c2504ee28fd1223U,
  0x111007f2206faffU, 0x9f80c3814f2062aU, 0x1e1a0b0e15ed44f0U, 0x1225d81c30240128U,
  0xda0511ebfbe5f523U, 0x15e2fb1ff4e5d4e5U, 0xe371f7dc0df11addU, 0xf0e5f3f5f8effe1eU,
  0xf0f5f70914e30d0cU, 0x18101d27d0f33ccdU, 0x12e32dfd20083a08U, 0xf1f1cf4dd0bd7e8U,
  0x5e9daea0341e801U, 0xf9120414efe3e3eaU, 0xfbedff1a29ea34faU, 0x11f0eb0de938fc04U,
  0xfefa171654c1f2fbU, 0x17f806f6050f1b15U, 0x225f3f2f7fa2bfeU, 0x2f2f0f434e4e3cfU,
  0xfd0808eefddffcdaU, 0x1fd000140fd5f7eaU, 0x22f80b21ea2814f1U, 0xe7e61cf7f41cf1feU,
  0xf4faca061ae4dbf9U, 0xcb625f70b1520dbU, 0xf3e60614cbf41fecU, 0x8180404dff319e3U,
  0x14fd10eb0c0f1514U, 0xe0af20ffce8ed32U, 0xe5f90613fbfc15f5U, 0xd6e9d5efc9f80b0bU,
  0xdb0aed0535dff0deU, 0x5f4b103072905e0U, 0x1b121fdfdf1c1110U, 0xf8e712b52aeedc17U,
  0xc05dd212e12c203U, 0x331c27d71de2191dU, 0xf50000f62b002c33U, 0x727d516459387ffU,
  0x3f3212605f810eaU, 0xe625e009e71b15fbU, 0x23081da8020cf307U, 0x1f41cfc2104eb00U,
  0xeed6dfd00b1c2921U, 0x251b0f0b28f1fef9U, 0x350edd08d4ef16e9U, 0xe3b8121e1f1413faU,
  0x1117ee0c2a1f0fe8U, 0x30fefd08fc00f2U, 0xff2120f4ecfd9f0cU, 0x15ec14fd20102b1cU,
  0xadf02fc08fd27edU, 0xecf816f022f8ed0fU, 0x123203d825b81027U, 0xf720ceec28dfce04U,
  0xf92213270622f1e5U, 0xf227de0f0afeef30U, 0xce2d21e801f0eedeU, 0x220ffde409f7231cU,
  0xf61ab3fbfb041be1U, 0xb07f429ead01de5U, 0x12f0d5f2fa08df24U, 0x131f040617f617f8U,
  0xe2f71a20f8b002eaU, 0xdf15fe01eb2303fbU, 0xf209a811ebe4e426U, 0xf7fd16380200ddf3U,
  0x1f040ec0ecb7f4fbU, 0xddeccfd7eecf170dU, 0xbdce3c123df18faU, 0xe0e7f2b2f2212cfcU,
  0xc030efe1210d1dbU, 0xeef7f0e812c8f2eaU, 0xe5e9d1131cccccf9U, 0xfbe4b0dfec07fdd3U,
  0xd9eff821fecfcbccU, 0xe1e6cebbd7d6c1dcU, 0x1f6f4f7230cf218U, 0x1818130207b1c7aaU,
  0xe6fae0dfe4d2041bU, 0xc6bf14fbd1ade51bU, 0x1e0b16e4f002fed3U, 0x171ff6ebd1dce206U,
  0x1cdc16f71ed5f70bU, 0xb06122ff3db06c4U, 0x121ec0cee29f137U, 0xd7191fe2f6fef4edU,
  0xf8f30a06062e08f2U, 0x11e5d51deef7ec2cU, 0xf91efe0fd00e160bU, 0xf31c1b20f62cd904U,
  0xe5ecebe0fa38e9fdU, 0xfde913240b06fb1dU, 0x2400e0fbfab6f301U, 0xe318eff1ed0e242fU,
  0x15ffed252af0fcf8U, 0xd0206e0f725f30bU, 0x3305cde00a17fb1aU, 0xe11ff7f936e30fe8U,
  0xcec9282edddf200fU, 0xeef7dd40271fb2dfU, 0xe4200afccf27f5ebU, 0xe9d2f5030c0c1513U,
  0xfaeaee1f1bd70eeaU, 0xbe71e0af1e82c18U, 0xdbcc272e01fdfaebU, 0xe00437feebffec4eU,
  0xf12607052608031aU, 0x1ee121d0b182ee2U, 0xbb7dfcd36fd00fbU, 0x1f2ac4e8b7fa2c0aU,
  0xf40bf334560dffb2U, 0xfc212a17170304f0U, 0x42f02bddfc00fa08U, 0xd824eb133039f6ecU,
  0xc7d61a28d3d92cdcU, 0xf5db1a0a4601c710U, 0xcfe3fbf10242122fU, 0xf9fbcd0ddf0a062fU,
  0x4f801070ccfc315U, 0xff2f2fafc13f2d1U, 0xfb05171a05f5fc17U, 0x2e53c08e3191656U,
  0xe524270644fa0317U, 0xf7d9110020101d08U, 0x2150cf200e51ff3U, 0x240dcbd6de0afd1aU,
  0xeae20a26391de6a5U, 0xdaee070812f4fae7U, 0xfade29bf152d2204U, 0xcdff04251339c8c9U,
  0xd2c0f71eefee2101U, 0xe1e8e9ede107bacaU, 0xbd1e14e103cb0704U, 0xfdddeafcd50a21cfU,
  0xcec7f2ca05050f01U, 0xe9eafdfae49d04f9U, 0xdb03f925f4e6eebdU, 0xd82323f2a406ccf9U,
  0xe6f9ea24e2e516f2U, 0xe1a8bee2dee4bed6U, 0xedf5c9f739d3c20eU, 0x3217d8e295dbcc0bU,
  0x1fe03ce3cfa0bedU, 0xebcf11f7ed0bfffaU, 0xc0af3cbcbf415bdU, 0xe40ac7f932f8d0cfU,
  0xb8a00fe3c2d124efU, 0xb6afbbdb9d0adb8bU, 0xd8d6c3e5e7eb26d6U, 0xacc7bedaaf1d38a9U,
  0xd3b805afd8f7bad1U, 0x8cbae6c39ea3c3caU, 0x83eacf25d4dddbc9U, 0xa02008179ff2c1adU,
  0xb5f92a2ab2d7af02U, 0xa695cfceadf3c2acU, 0x96e5cfc72c04ba20U, 0xf5f0e4ca8103a7f4U,
  0xd3b0bdc514c6c0c8U, 0x9db51fe49dbf3ce2U, 0xfa150ede180322abU, 0xf11bd30dd5f79ab7U,
  0xafbe34e293aff8e6U, 0xb4bcc31ec7d68befU, 0xaddbe6e5ca0aedb0U, 0x9ed2c7f7a13019d7U,
  0xbeacd89ca9b5aaabU, 0xadc6f0d0bababbabU, 0xcddada28eb03cac0U, 0xc0da1af08d00a23eU,
  0xc1faeb1deb29ffe2U, 0xac91f8c6dcddccdfU, 0xc7c4b1c92204eb18U, 0x282fa5ca99fbb30aU,
  0xae9de30207d49eb7U, 0xb3bf0c15f0091ed5U, 0x12e1f8a40c030cafU, 0xe120c4f7c0f7bb8dU,
  0xe1eb0c1403f2e916U, 0x8ec0118f2f9fbebU, 0x17c9f8d20022c416U, 0x121cfcfde2d4b01aU,
  0x17f1100ee7f6fcf9U, 0xf909eafffefad6e6U, 0xe5f1d3e1bf0b17dfU, 0xd5b0e7f3edd2fedbU,
  0xeadeefe4c4eef0f7U, 0xf7e1b20dedee1cfdU, 0x190208e4f5f4f716U, 0xf81ae700f021db27U,
  0x1a0e28d6c412f002U, 0x172128d4ffe8fa29U, 0xd430f3e8faf1cc11U, 0x1bedeb07f0d10ceeU,
  0xf712e2f6fa030f19U, 0xed07dbb4020201d5U, 0xea9cf6eef40cb5e1U, 0xd9f4f1d212e0d2d3U,
  0xcee1ce8ec1100f9U, 0xedd2ffdff1efcdddU, 0xe3abd2e6c9a412faU, 0xf881c2f4feec0ec1U,
  0xedc7caf189b2f614U, 0xf2e0c9090fd202f2U, 0xd8e3ebc5e8d9db09U, 0x910e909f3eadf04U,
  0xe61d14d093fdd808U, 0xecf6d6c0fdc0d1eaU, 0xd210d306cbcfd30bU, 0x22cbe5c3a1d40fe3U,
  0xe605f9fafdfb061cU, 0xe60003a4fdfa15f7U, 0x1d96ee02f7eca627U, 0x251d09e2e3e607ddU,
  0x42f21f9e12af91cU, 0xaec2709f30fe922U, 0xce6dccaebc61f0dU, 0x1196e8d7f6c6f6cdU,
  0xede80211bed1c7f7U, 0xdd05f7f513bcf41fU, 0xf7f904d9dcfbcad9U, 0x3ff2618f40dd5f3U,
  0xf6ff14e4a3e5ee28U, 0xf9fab3c8f9d2d20bU, 0xa6680d11edc61b0bU, 0xbadeec5c6d007f2U,
  0x11f61f04f8ffeb2fU, 0xf8fc01ee1ae42f11U, 0xeff051825ff1413U, 0xfdf8f4f525100cecU,
  0x703fcf3e716f50fU, 0xb024d1b00ff0a1dU, 0xfd1cf6f81309e206U, 0x170be9e72a050310U,
  0xe0f2405c9e5e318U, 0xf60711f3fff51214U, 0x1d0e0510203008f7U, 0x1849f8292601e50fU,
  0xfefb08f8e80a1f12U, 0x1122fbf721f7e221U, 0xf43df51412f11ef8U, 0x1d29f11f16e2032eU,
  0xf90214edf01adb21U, 0xf426f6ebf315dfU, 0xec10f813290218e0U, 0x6e721f40ecf0e20U,
  0x13210902f9f5091fU, 0x3f910e3fe0d1defU, 0xfde4f2f3b9f9d4e8U, 0xf0d7ddff0df100f7U,
  0x2e8e2e0fefbe010U, 0xb03f7f01ad8e10cU, 0xee02f504010905edU, 0x30ff60afaf70c00U,
  0xf6e719cf24d7eff9U, 0x1b21fe09f7ffd625U, 0xe7ffebf105f62322U, 0x4dcf6ff10000100U,
  0xe6dee2f5e9e1feeeU, 0x10fdfcf0e207f203U, 0xf6d4fb0f0f0d0fcfU, 0x21d90df0e8f604eeU,
  0xea1208efefe9ff27U, 0x2306101adef50e08U, 0xfff0eff2d5ef07feU, 0x3f2071f070ef11aU,
  0x1b12f6dfc0f00e0aU, 0xd0180411fe0b15feU, 0xa0103c7f50a14e4U, 0xec24ec07ff0ff711U,
  0xf9e3f1ef010dfee6U, 0xe18c8d624101ae0U, 0x12e5f1140937e9efU, 0x30007f90b1e1cf8U,
  0x18f704230ae90af4U, 0xec14181defef18f3U, 0x240d1bf92a112003U, 0xa08090814e81123U,
  0x1f0e14fd22131917U, 0x40824f5fbfdff03U, 0xedbf7fbe42f1e10U, 0x1fe0814201d150cU,
  0x10f1dcf21ae8efe7U, 0xe8f2100f03faf61dU, 0xf51306dc140b0deaU, 0xf0301921091d0826U,
  0x200b0b0116f3221eU, 0xf0060a3b2717d51eU, 0xc617d81b04dc11f7U, 0xf35f21601f2f920U,
  0x521fff0f9121ed7U, 0xfeb14f00223f90bU, 0x20d0ff304da23e3U, 0xedeb140520deeff3U,
  0x22d5d21df106fa1bU, 0xf7161aecfee50108U, 0x13fafae812e7fa08U, 0xea17f62505f5090bU,
  0x16e8e116e90703ecU, 0xef0825fc08f8edebU, 0x1617deeefa1003faU, 0xf1f7f2eff50a12f4U,
  0xff0b2b0fffe821d5U, 0x1b1b04e012fa0cefU, 0x13fade00150911edU, 0xdfdc10f3031321ecU,
  0xfdf726fbd5f1281bU, 0xf010f9f40de6f5ffU, 0x3e1e2fe09f91c11U, 0x17f11feb18ece6faU,
  0xfce7ffe3fe23fbfaU, 0xf0fbf81007e70b1cU, 0xfe0803e017d30b1cU, 0x220bf82b06f31a08U,
  0x1dabcf0f3f0f5feU, 0x21de0de206e4ec02U, 0x192604eafd03181aU, 0x1312fef607e8d801U,
  0x81810e8fcfbeff1U, 0x9e9cde6f1d8ed15U, 0x8fad71de6ddfcf0U, 0xedfcf3e9ebf507ecU,
  0xebd9ec03d205f6d7U, 0xeaf5e83ccbc7dad3U, 0x45c08bde8dd54cdU, 0xdafeb81bd70924dcU,
  0xfed8e0ebe5cd0e15U, 0xb7f10fdeb9fd17cbU, 0xbbe5b70dd031ebd0U, 0xc01c4cf2cf39d9e4U,
  0xfbf91ef390c6e612U, 0xf3d6ed08caa8d906U, 0xf4bbd69a2ec4dbf4U, 0x262fe5f4cae5e208U,
  0xd8f4fde335c3e3e6U, 0xeacadfc0e8e500ddU, 0x4809c706e523d7d0U, 0x17e9bb201bbdcfd7U,
  0xede92db4af0e23c4U, 0xf70ec2ebb2e9d2dbU, 0xdeddc9e2c6d44a14U, 0x25edcde2ff0b15b7U,
  0xe90ff7e2d6f9b9e8U, 0xaebe25e2ceeb332aU, 0x12ef052df118d8feU, 0xdcf51602e847f8c4U,
  0x9d62eefc3abacaeU, 0xafeff0cedbb4d2ceU, 0xf9d40797151891f6U, 0x2ae9f0f91ad1e3cfU,
  0xd9caecb314dfeeebU, 0xc9d3f881e9b0d7c9U, 0xec47eb0af5ba4f05U, 0xcc0fc7fa3ee8b5d6U,
  0x170f32b8c6fbfdefU, 0xe901c4aface7001fU, 0xfd2dd2b0c0600eaU, 0x100a16f4fadd1efcU,
  0xdaeefae7cf22fe10U, 0xebf14207dc07f200U, 0x1900070b03dbac1aU, 0xf6e9a3222c17f9c5U,
  0xf9fbee413bb1e4c6U, 0xfc332bc7e63c14efU, 0xf1e82004df37e40fU, 0xdd921d725ab0096U,
  0xf1d4f4cc28f7f7U, 0x1ddae3f3c6ece723U, 0xc90e120e18b05af4U, 0x1b08e8efd5081618U,
  0x5fb1d01d91324eeU, 0xebfce8edd1d50d13U, 0xf120e7e7d4e53a1dU, 0x42d3e0051b060dc2U,
  0x111be2e3d80fcecfU, 0xd1ce37ecd2f6fc00U, 0xf9fff2422037daceU, 0xcf1ed3ec0a24fa03U,
  0xef143b369ceacdf8U, 0xe0e828eed2d00df3U, 0xdc1316e22a39f118U, 0x1b09d70a0d05eaecU,
  0x213d5c93511c8e7U, 0xdd02ebf6fbf532f1U, 0x1f3611dceaf73bd9U, 0xe322c8311f0c090bU,
  0x7d726ed001e2639U, 0x18ffe9dc02ece1U, 0xed3d4e8fdede81fU, 0xe5d61cd7d3dc2be2U,
  0x13173dd01b120ee2U, 0xe4da4ce7f4281dd5U, 0xdceede112fc2edf3U, 0xef9e302700eef6U,
  0xe70000fc04260cccU, 0xe2035b07f00509f8U, 0xf1dcf21c1d322201U, 0xecead6042adf0eb9U,
  0xc9090bd5c53002e4U, 0xd514eb0515feee02U, 0xd80c1f1d32cc20f8U, 0x17d503e5a0e9e1eeU,
  0x102ddafd1419dff1U, 0x37ef042426230245U, 0x630d52ff517e232U, 0xc8e7ed0c19e5f732U,
  0x4719271eff0eedf5U, 0xf6d734f404f52603U, 0x218f4ec00dcf617U, 0xce420ec23d2380dU,
  0x23d3eef74c090d25U, 0x3d2f0023342907f0U, 0x19ee272ec5faf0f2U, 0xf8eabf282c02341aU,
  0x5f6fd2adf2efafbU, 0x21e0b51915e30704U, 0xcd0629ea21d22d12U, 0x7b803efccfedee9U,
  0xfb280701b731f32aU, 0x163c2615ee074822U, 0x4d30333180ee803U, 0x23ef34f33820411bU,
  0xe82338eb0e54f415U, 0xf023632e160a7510U, 0xfb19160f3a971a05U, 0x4dd80edd2f0d1be9U,
  0xceb3506f1ff03f2U, 0xe90b341d03461bf1U, 0x64c4011f84aea0cU, 0xebf13cfb111d1e0aU,
  0x29f4cde3e91cc957U, 0xd911dd03dae01e56U, 0xb154303f16fa243bU, 0x29fbfce4d7ffd838U,
  0x2cf8f1091641c150U, 0x5bd614083a040232U, 0x3ff0020c242bd00dU, 0xfe3af62308b9e75aU,
  0xfb112205f8573a01U, 0x37325eaff2deb4eU, 0x154547bc1e251340U, 0x3ad20def1fac2a15U,
  0xf2f0e2fb48481b2aU, 0x4d02243ff13c20fcU, 0x103dfb1eca0035c1U, 0xb2c847fbfbf3271bU,
