/**
  ******************************************************************************
  * @file    word_classifier_data_params.c
  * @author  AST Embedded Analytics Research Platform
  * @date    2025-01-18T00:43:13+0100
  * @brief   AI Tool Automatic Code Generator for Embedded NN computing
  ******************************************************************************
  * Copyright (c) 2025 STMicroelectronics.
  * All rights reserved.
  *
  * This software is licensed under terms that can be found in the LICENSE file
  * in the root directory of this software component.
  * If no LICENSE file comes with this software, it is provided AS-IS.
  ******************************************************************************
  */

#include "word_classifier_data_params.h"


/**  Activations Section  ****************************************************/
ai_handle g_word_classifier_activations_table[1 + 2] = {
  AI_HANDLE_PTR(AI_MAGIC_MARKER),
  AI_HANDLE_PTR(NULL),
  AI_HANDLE_PTR(AI_MAGIC_MARKER),
};




/**  Weights Section  ********************************************************/
AI_ALIGNED(32)
const ai_u64 s_word_classifier_weights_array_u64[7454] = {
  0x7f63003bd885a70fU, 0x81000000bd0000feU, 0xf51600de87d82b00U, 0x7f000000003a81e6U,
  0x5581003630e7002cU, 0x3c00ad0043b3cfU, 0x819d00ad002fU, 0x8100U,
  0x4f7f254f38d100U, 0x8b0035d4003cU, 0x65000000000081U, 0xe161000000817f00U,
  0xd000005600000000U, 0x8168002c64a88100U, 0x7f9200000000U, 0x81007b3ea70000U,
  0x381f38efaa00U, 0x81U, 0x27cb0000368cU, 0x33d00006b79U,
  0x1fb600002632U, 0xffffef3500002ad0U, 0xfffff1020000224cU, 0x129e00000d09U,
  0x198b00003167U, 0x12aa00002634U, 0xfe00000024b40000U, 0x20251900da000033U,
  0xd2004c12009c0008U, 0x12000000ea2cU, 0xd5fb3600e2bcf613U, 0xe40000321c00U,
  0xd5cf0f190000dcc6U, 0xca1900cd07dc00U, 0xed1200d712ea00U, 0x240000000000f1d5U,
  0xe0005000e9004a18U, 0x1b00ed140027U, 0xe3e622fa00e200ddU, 0x1bd900000000U,
  0x240000dc005100e3U, 0xe6ddcb00d600ea00U, 0x537f0000000000U, 0x2321001e00000027U,
  0xc9002bbb004c6600U, 0x4f000000e00000U, 0xcf04000b10000000U, 0xc300f300ed00U,
  0x31b7e3000000U, 0xebf40000003c0000U, 0xdac000000000bU, 0x2b0f00002b00U,
  0x27e2002800b0U, 0x1f000000130053U, 0xd7000000U, 0xece70016d200d92bU,
  0xce003c0081e71bU, 0xb4c129f987000e00U, 0x940000U, 0xe538d200000004U,
  0x300000ec2600U, 0x4300003e00af0000U, 0xfca8000000U, 0x27f6f32699c6U,
  0x1a0060005d3ccdU, 0xb03bc5U, 0x30010000ee00e6c5U, 0x7f00c20000cb00U,
  0x2a00d8e1bf000023U, 0x9b000014000000U, 0x530042c3020000U, 0xcacea4c500400000U,
  0x800155a0e000000U, 0x360900d32a00caU, 0x950a0000003cd4U, 0x27ef00002dd22cU,
  0xc2b4003c310000b6U, 0xf00000492500U, 0xc2000025000021U, 0xf2000000180034U,
  0xcbU, 0x2aa3f011001400U, 0xfe00bbca8194c3U, 0x1f2649001c00U,
  0xbed60000350a00dbU, 0x20dc009ecc00U, 0xd8bb230bd327U, 0xa2001113U,
  0x5625a500fed500U, 0xb4050f24U, 0x5000a200000000U, 0xd91e003f28160000U,
  0xe30700d600005424U, 0xda00000012cf1700U, 0xd80eddb000000000U, 0x2aced4eb00180000U,
  0xb60800001cU, 0x3600befa0000cd00U, 0xe3e80033de000000U, 0xfb31000000fb0007U,
  0x335900e7e4600011U, 0x9dc0cU, 0x1f1287fe000000d6U, 0xef0000000000U,
  0xd90049001800eb10U, 0x331afd1900000000U, 0xd1320000000000c3U, 0x79d82200280000U,
  0x3b0000289a0000U, 0x2b1c26d70000be00U, 0x2800442600U, 0x71ce0b900c80000U,
  0x305f000000f400baU, 0x1e00000b2900U, 0xd6819a00000000U, 0xfbf72e00ce0000U,
  0xb0100020090c000U, 0xdaf31d002f000000U, 0xf9001100000000U, 0x16ff00000000e200U,
  0xeb250000810000U, 0x2bU, 0xc3da00000d0000b7U, 0xd8ce0000b4000000U,
  0xf100000000000eU, 0xfec31f0000c800U, 0xfbd6ff1ab700b8U, 0xe2152c61aedd00U,
  0xce2200c63e0025U, 0x1c39U, 0xcf5ac121e5595521U, 0xf5bac000aed10000U,
  0xed000000000028U, 0xf3001900002eeb00U, 0x3ed60400U, 0x30003c0000000000U,
  0xce00ba002e005b00U, 0x81e7bbb60000f3U, 0xcdbc2ed5000000U, 0xecd10000270000U,
  0xa81a0000efefU, 0x3bdf0016U, 0x4100e100e6U, 0xeae4fff71200U,
  0xbebcac0edf1a002eU, 0x3cb100000000e700U, 0x46ca000000ed20U, 0xd6eecd0000f90000U,
  0xd400b70000000000U, 0xbc374bf31900U, 0x1dc7ecd000f900d0U, 0x2f0000f400380015U,
  0xd5e1e00700e41c00U, 0x1fe0fcf807000000U, 0xfd00cbcbfbf400U, 0xd12100e00028002eU,
  0x44ba000081f7U, 0xa2400002700dae1U, 0xf6fb0011e000e1d6U, 0xc92a2200000000U,
  0x35353c3d00000000U, 0x24ed0021f30000f7U, 0xe7fe2ad7d1e80000U, 0xfb00d00000001aU,
  0x65e2000000bdU, 0x240000f5db0000U, 0x3c000000004900ebU, 0x32ea00293d00f600U,
  0x1b5deb00d92ae2U, 0xe511eaf51a000040U, 0x1ec500341f0045U, 0x43c6d3e100cc06U,
  0x330000ab2d0d0000U, 0x554100000000009dU, 0x31067f8600003300U, 0x3a32ca00c200ddbbU,
  0x21fbdd9900e1001dU, 0xde3c0000b7d8bfeeU, 0xcc00d2000000c6U, 0xd72726c3c325f100U,
  0x0U, 0xd100180014000bU, 0xfeca0000c8d9f000U, 0xcdd92c00002dbd00U,
  0x4c00150d0014U, 0x2fc4d3c9111900b6U, 0xd0440000f63b00U, 0x9800c5f2cf0ad1U,
  0x351900000000U, 0x3700e400c827003eU, 0x2b000000c9284b00U, 0xb600ce00e50000U,
  0x3a00d720c51ad4U, 0xd7240200000c0000U, 0x43e754d800001b00U, 0x4100db0800ed3622U,
  0xf70000001c00U, 0x813300e3b5U, 0xdc189dd6000000fdU, 0xe20000001f1c0000U,
  0x10000000001e2fU, 0xfbfae30000000000U, 0xc4e35e4300U, 0x330038150000f600U,
  0x4a00c800000000U, 0xfae1000017000aU, 0x1416c8b4fcc5U, 0x3dU,
  0x5c0059002aU, 0x44e20000004c00d0U, 0x778100004f0000U, 0x4151000000c40000U,
  0x28f2271bb50000e8U, 0xbd3900230000U, 0xc4ae0054d3280e00U, 0x49000093000000e9U,
  0x500310000d200U, 0x190000f42e00U, 0xf6001b00a8e100U, 0xc550432400U,
  0xbf510024ce00U, 0xde000000f319d000U, 0xaf00d252eea70000U, 0xe900f041bbU,
  0x35c8000c5700e0U, 0x30d7000000c1U, 0x4e0008000000d2U, 0x42d1002ee800d3U,
  0xfb25c300360000U, 0xf800020300130000U, 0xea00000900003ed7U, 0x21cb00220f00U,
  0x1600000011000000U, 0xdef0fae30000U, 0xa2410000ce0000U, 0xfa000000000028U,
  0xd7210be6d1fcddU, 0x3d0000cf001a19U, 0x514000000000U, 0xd2f8e500ed00dd00U,
  0x18d91ae1e3U, 0x28810000ba17df32U, 0xba9150000030U, 0xc616003d361eU,
  0xa100a1d9004a00U, 0xad0010af005b00U, 0xc1c5000026003bb6U, 0x8100c300cb001dU,
  0xa1008bdfa7U, 0x1000090030U, 0xd10086002f98004cU, 0x45b6df000000339aU,
  0xba9057a60000U, 0xd0093000b8155223U, 0xad8a1e008d7547U, 0xd8600bef5c1U,
  0x6c000000dfa55100U, 0xbb210091f350002dU, 0x42a30000f338U, 0x3400be00cd18cc1fU,
  0x7f13d3b137001dU, 0xdc00b4d74d29000fU, 0xd9833d000000U, 0xeb00e900001c00U,
  0xca0081c62a000000U, 0x203700300000U, 0x320000bd00e300U, 0x19003b0000b9b8U,
  0x37f900001c870520U, 0xde4fafdfe13f2500U, 0xac060000d40cU, 0xc8d6002100f60000U,
  0x1800e60000d900U, 0x34000a0000003000U, 0x3ef30000ca0c0000U, 0x20260000c500cc9aU,
  0xdd2e0000ca00b700U, 0xeac223b3000037U, 0x1be8b4d0240000U, 0xdecc0000e0220000U,
  0x1ff3000000001cfeU, 0xdd0000090c00U, 0x1000ee00002421ebU, 0xfe0000c70115ceU,
  0xea3100af00000400U, 0x2fb400000018c5U, 0x25f0000014f90000U, 0x311200c600000500U,
  0xc10000ce28fdU, 0xfcb21a1705U, 0x1081a500b70014U, 0xe55a0026f70000f1U,
  0xb00000000002dd4U, 0x1b00f2d500f60000U, 0xf5a700da00002b00U, 0xf30000c4e51900U,
  0x4e00001deb000000U, 0x310000a48102bd00U, 0xa6850000000000U, 0x16008349f500U,
  0xe00814f00002300U, 0x321b008700000031U, 0x1e00005200U, 0xc40000ac00003100U,
  0x37d0c500000000e8U, 0x1b0a0000cbU, 0x2dc100ccb0000000U, 0x8fc3c400152600U,
  0x160017fc48002aU, 0xfdc300f90000c5U, 0x1ac619002e002cU, 0x10262e000039cdU,
  0xc300000041U, 0xfdaac4f9000000U, 0x2518008cd04e0020U, 0xc9000000fb004200U,
  0xd700aeU, 0xdf0000f4c300efU, 0x5d00U, 0xcbe9000500fc1534U,
  0x8300000f90000U, 0x1300ed250000U, 0xf600dbb6002100U, 0xd00030U,
  0xd2db001108aa0000U, 0x3f000000d79d2d1fU, 0x2200f700001a00beU, 0xe0000000bb000023U,
  0x23e327060000U, 0x81002600ed1cf2U, 0x2800c0bd00003aU, 0x240000d300U,
  0x1800130fe2000000U, 0xf4000000001d00U, 0x56e7000081e6e6U, 0xfef4000b3200e800U,
  0x350000dcf4f41006U, 0xffe5dd14fce6f900U, 0x2700df0023d2eeU, 0xee0000e1fc00f9U,
  0xe1U, 0x44fa000000000000U, 0x481e00ecfd0000U, 0x1400000f0d00e1U,
  0x84a00311b452102U, 0x6400000000040000U, 0x77000000000000U, 0xd93023001640U,
  0xe00000cdU, 0x2e50009000030U, 0xd700e40000ec0000U, 0x9013300e63500U,
  0x27009c03d20000e1U, 0x2e00d400ec000dcdU, 0xc00f6e413f50031U, 0xf6U,
  0xf30900abc6f1U, 0xdf00000000cf00U, 0x300e20021000000U, 0xf2000000000001U,
  0xce00c316000000U, 0x2fbf18f0dae40800U, 0xcb00U, 0xfe00000000b50008U,
  0xc6a000ed5000U, 0x2700000000U, 0xa8f6810016e300c7U, 0xaded1800000bU,
  0x800f119dd260000U, 0x1f0000000b001400U, 0x1a00eefaeaf92600U, 0xed00000300f024U,
  0xe8f613ff00000000U, 0x4ceee3eae300002aU, 0xa00000022000820U, 0xde00e70035d000e1U,
  0xd9b80007e4000517U, 0x9b1df900e400c3U, 0x1e000000352de100U, 0x570c00000000f1daU,
  0x7fb7c2000000d8U, 0x210000003b0cc8bfU, 0xd20000000000U, 0xfaf71400001f00U,
  0xd5cfc202ff00001bU, 0xf500fa0000000bU, 0x3500003a00008600U, 0x3aa62a00bcc500c2U,
  0xf600001a00U, 0xe15ec474U, 0xcf0075000000cbU, 0x9fb600a6000000U,
  0xdfe3002fcc000052U, 0x27002fa0003f00U, 0xc6110000c313ff4cU, 0xbe0000b695000060U,
  0xb6007f00b64fdc00U, 0x521ead00bf453a5eU, 0xc910009800000000U, 0x203815000000U,
  0x550000dd00000000U, 0x22004300004d00U, 0x3200e5003d1a00U, 0x76U,
  0xed02ca0000000dU, 0xa2300U, 0xe64cf600d8f4f6U, 0x19U,
  0xce4c0000d81d00U, 0x10c011d8dbd92700U, 0x3300000000b3U, 0xbc000000U,
  0xe3d130000000000fU, 0xe210ca000f0016U, 0x4400ee0000f3U, 0xdfd600e50031U,
  0xfb520000ed28c5U, 0xd700d4b7000000U, 0xd63b000cf50c000cU, 0xbe5c7c30000U,
  0x34577feee8545bc2U, 0xef00d100d20000U, 0xaadacd430000U, 0x46cd00000f0cc1U,
  0x32008100000000U, 0x25000000220000U, 0xf412f60014U, 0x2300ced3002d0000U,
  0x3a0800002a02e600U, 0x0U, 0xb000000afU, 0xd20000ff000000U,
  0xf300000400000bU, 0x1300000000f50015U, 0x5c0005000700U, 0xacfe0000U,
  0xdc2c001d06e9d6U, 0x6e900a7bcb82dU, 0xb50f000000U, 0xf2aa001c009b0411U,
  0x700U, 0x40e000000U, 0x25e01e0000f00000U, 0x2600d9001911ed00U,
  0x1700120000fe00U, 0x3900000000000b00U, 0x41e3600003a00e4U, 0x1400cb0000f436U,
  0x3100dc00005f00U, 0x1d000f00001dU, 0x6c44000e5700d0U, 0x33000000020c0f00U,
  0xe8006300280000e2U, 0x4000ff0d000000f7U, 0xeb007f04U, 0x26d400e90bfc00U,
  0xd3e93050b9U, 0x4100000000000039U, 0x4700e9b200000000U, 0xe80000004db1U,
  0x40ad00c200000a00U, 0x1bdb0000003900U, 0x9fe1170f001b00U, 0xcd00002aca000019U,
  0x9b00bcf5eab025U, 0xc30000000bd00000U, 0x3becd300009e0000U, 0xccd50026U,
  0xcd0000000000b100U, 0xd702000000ab1c00U, 0x9952bf00b14300U, 0x25392fU,
  0x20810000240000caU, 0x210250c500f51200U, 0xbf160000c40000U, 0xc900ea1a31b42b32U,
  0x2a0000d8U, 0x4817002500e60000U, 0xeb000086b900U, 0x36c00000a3000000U,
  0x38009fcddb00f9ccU, 0xb7af000644000044U, 0x26ab00020000U, 0x5808000053cc070dU,
  0x114a000a00ef93U, 0xd6e40056000000c1U, 0xe600b6ceU, 0xbd000000000000U,
  0x3800000000000f00U, 0x3e000090a7000064U, 0x37d30009ebbbU, 0x4300b70000dfb367U,
  0x7f1bde0000c900U, 0x460e101c4938d0dbU, 0xd4b006d820ce3aU, 0x41b600001f003019U,
  0xc200c3f7cb7f0000U, 0xb9d30000U, 0x43000000000000U, 0xcfc497c50000U,
  0xcf0000ee0000U, 0x130000142edaU, 0xcdc400470000f800U, 0x392d000000002e2bU,
  0x1f00ba230000e7bbU, 0xdb290000ed000000U, 0x7000000290045c0U, 0x390020d700000000U,
  0xc396000013d200deU, 0xd500d82300001f23U, 0xa500000000cf00U, 0x280003000000U,
  0xc47f001c000007c7U, 0xc00000000U, 0x2a00000000c100c7U, 0xa8c111000000U,
  0x2700da2621U, 0x1100c500dac8U, 0xc50a0000002b0010U, 0x111242ceabU,
  0x2200d9bfU, 0x2d39c40000392600U, 0x2a480000e000U, 0xbea500c000fae81aU,
  0xdae2e2004e0000c2U, 0x622900a2000082U, 0x8ad53b0000d62bU, 0x870000003ef33eU,
  0x39ee00dd32U, 0x28000000000beb28U, 0xdcf33c00e20000beU, 0x5df0000005c0013U,
  0x500000cbe50dU, 0xf900000037U, 0x78470000000004U, 0x3f00d8ed002feeU,
  0x2200000be0000000U, 0xc9d32e3944U, 0x346aede1000020U, 0xe40035ba0000U,
  0x3100d95a12cfU, 0xae00360046U, 0x48dd00cd00ebU, 0x2f00000000e8U,
  0xe8750000df644b00U, 0x8c90000d20000U, 0x4c7f003200652700U, 0x3cb6002300dd00U,
  0xebc100cc0000deU, 0xe70000ad0b141300U, 0x7db00U, 0xa800bf00U,
  0xc10000b93a3a351cU, 0x4c000000004c0000U, 0x100cf0000U, 0x20330000U,
  0xa800ac0000b91a00U, 0x3bd700c59bc40065U, 0x28e400c7bf3ccf00U, 0xd329d0001ac600U,
  0x20cf00000000002dU, 0xd20000a32f38e100U, 0x860000d28100e8U, 0x310000000029d300U,
  0x3c26ad0043U, 0xbcf9331f1cU, 0x5000c000cefce272U, 0x450000a700000000U,
  0x16001e0071U, 0xa94400003c1d00U, 0xd0012c90006U, 0x47003919002e00c5U,
  0x6a000000de00ff52U, 0x3184e83f2f0000d2U, 0xf8d60100f34600U, 0x2b00ce00009a0000U,
  0x3d8c9200bb000000U, 0x2c38ac002aU, 0x820000323600009fU, 0x3ada29000c040000U,
  0x1722000000b20000U, 0x7f00fd00U, 0x53400bc00dd00bbU, 0x3000350000001700U,
  0xf2de00d20e0029U, 0xe30000000013e6f7U, 0xc84900320000ed00U, 0x400000bf0c0020fbU,
  0x27661a0000000000U, 0xca0000f6e43bU, 0x11080000U, 0x280000dbcb00U,
  0xca3c00000d00U, 0xe80000030014ebU, 0x1c0008U, 0xfef900f7d8001c00U,
  0x238f0000000000U, 0x2800edd1000000adU, 0xa100d5c41a00U, 0xf2d7270000000715U,
  0x938100000000e9U, 0xec380000031400daU, 0x36e000001fb6U, 0x8b590000183eU,
  0x8bc0ffff8e95U, 0x41800008d86U, 0xffffa5a3000080c1U, 0x8abffffebc2U,
  0x432b00011948U, 0x840800007db9U, 0xffff8f9800003482U, 0x43c0000bacfU,
  0x324cffffc733U, 0xffff27e600003c31U, 0x7e8e00007669U, 0x600900007932U,
  0xe849ffff0fa8U, 0x3159ffff95fcU, 0xeb00f00000000000U, 0x4000000001fU,
  0x70000U, 0x330029100000be00U, 0x0U, 0x989c00995a0000U,
  0xc80000bfU, 0xcf001826e30000U, 0xb5cb57002e0000U, 0xc500c1ac16000000U,
  0xb200c27f86U, 0xbdd00d112c6afU, 0x2a370000ec1b1500U, 0x2500000000000000U,
  0xd3e3f200041d14e1U, 0x30213f00002300f4U, 0xe7000043002eU, 0xc7040000230017U,
  0xc6001a00000000U, 0xa50d1200cbU, 0x450000230036e5b2U, 0x3627000000dd0000U,
  0xfa0091be000000bcU, 0x232a0000U, 0x354e3a0000da0040U, 0x2100c100000c1000U,
  0xd7f11b3d00000000U, 0xc30000cc00000000U, 0x3c0000000000U, 0x2e0000d8252ffa00U,
  0x31322d00000000U, 0xbe000000003a1cU, 0x50003000dad60000U, 0x270041000000ffe2U,
  0x1a00e2d400e800d6U, 0xd93333130000e300U, 0x380000d500bfU, 0xe894608008c0b00U,
  0x26e39d0000005cdaU, 0xbe51000001a00U, 0x2c4c0000a89ae1U, 0xb600fa0fb20000fdU,
  0xa100003900U, 0x1e004400U, 0x3d0000006b00ed00U, 0x30123c000c000000U,
  0xd72ab44100003bU, 0xe900000025000000U, 0x4f00000000000000U, 0xc700b60000270015U,
  0xa200b49ca5009fU, 0x9c0000c300b200U, 0x1000000U, 0x35f9210022b700e0U,
  0xcf000212e0002500U, 0xaa000000dec9ddU, 0xb4000000000000U, 0x594cU,
  0x98000000cf430400U, 0xdc000d4000002aU, 0x70006fbfccU, 0x2b001c0bfa0000U,
  0xd017000022e1cfU, 0x100ad001d008100U, 0x3324c70000f32f2aU, 0x4a157d14003fU,
  0xfef40000dc0000d7U, 0x3834d4b100000000U, 0x77aa00000000473aU, 0x5700000000e30U,
  0xfb006fd000d40000U, 0xa200310000410628U, 0x200024002325U, 0x1600341800000000U,
  0x983000000045f800U, 0x1b39a4383800f9U, 0x111400f2000000U, 0x26001f00000000U,
  0x4000007f492939U, 0xbfc0000000004U, 0x240000db000000e9U, 0x210000e900000000U,
  0xe5f1fa1900db0000U, 0x3d290000e000U, 0x3f000bf5U, 0x72d00000000U,
  0x14000000U, 0xaf001e00e7003eddU, 0x1c3d0032000026U, 0xced9000000212614U,
  0xbe001026d6044024U, 0x32bc1c00U, 0xf73b0df21617U, 0xf00320b001300U,
  0xefe40013231144f3U, 0x3203000000f32100U, 0xf800002c00U, 0xdcb0000d80000U,
  0x41000015f61aU, 0x181700fccf001900U, 0x12290000001f0000U, 0x261200e6cf004b00U,
  0xfc00dc0000140000U, 0x2cf500f000f800U, 0xc000003d00000000U, 0xe0f836f7ce002c09U,
  0xcf1900eb00000811U, 0x23ee26cf0000001eU, 0xc9ada40000000000U, 0x280000ce001bU,
  0xc00002bffc400a1U, 0xa6540000c830U, 0x2200200000cfU, 0xd2b80000f90000U,
  0x1100002d0012001eU, 0xa73000d3b400U, 0xf6U, 0xcee300b5d600020bU,
  0x16c8002ba50017c5U, 0x1900fd0000bf00U, 0x961d000000ceb5U, 0xc000000000U,
  0x6300bf0097006300U, 0x1d0000c1ac33c4U, 0xc1b2de00b60b00U, 0xce0000e2a7001046U,
  0x1dc90000dbdb1b00U, 0x21ddc00000af00c5U, 0xc000b04100beU, 0xed000000002200b7U,
  0x3600dad900000001U, 0x2900260c17c2daU, 0xba0003cff700U, 0xf546cc2f00e17f2aU,
  0xc02cb541d3405U, 0xe4330000001400ecU, 0x953600003afcU, 0xf4efa0c1500U,
  0xa891000036cc00U, 0x45000011c93300d8U, 0xc1d6004100000000U, 0xef0a2f0000de56U,
  0xefd0c2c5038340U, 0xfded4e002b000000U, 0x460000002dU, 0x1d00510013000000U,
  0xb7001b3e44000000U, 0xd40000000000U, 0x2926000014ca2700U, 0x1003dabe00U,
  0x3900001400U, 0x2200e900004b0d00U, 0x4f042484001f0000U, 0xf0012d60000U,
  0x3cddU, 0xc2002000d32e00dfU, 0x67700aeebU, 0xbd0a340000000000U,
  0xef1f1400f7532eU, 0xb100000035003b37U, 0xcb1518f00000a42fU, 0xf7e61c0000U,
  0xc914010042001c16U, 0xd2000023ecU, 0xfe009f0000ed27U, 0x1d9a00d2a400fd00U,
  0xba00003300e700U, 0xe600c6e600000000U, 0xfc0000e400U, 0x3e000ff900b9fc00U,
  0xcb009600000000e3U, 0xb011d2001cU, 0xf9ec006cd0009cU, 0x2200cd0a810000c0U,
  0xb69bca171600e6U, 0x4810000014000000U, 0x8545fcc3000000b9U, 0x190000e20000e200U,
  0xe90000d300cf88deU, 0xc43ba4001b00c7U, 0x1500e983d0000000U, 0xf81a1300000db600U,
  0x1ace0700f20000U, 0x2a001ec50300fd00U, 0x30007b5bf000000U, 0x100000059c00U,
  0xf000dfdbfbb1d5U, 0x3000000f600d4faU, 0xd300f30001f400U, 0xbc8200a0000e9d8U,
  0xdca6e200002800U, 0x700d60000000400U, 0x2700009600280600U, 0xdd000000130f0000U,
  0x26U, 0xe60000f200072702U, 0x98d036f800U, 0xbb00000cf500U,
  0xe9f700f600f2ed00U, 0xf70018000000U, 0xdf00dc0a00fcU, 0xfa00f800daf6U,
  0xe0ebd38a0006c1U, 0xe605d101000000e4U, 0x110000000014U, 0xcde80000b31aU,
  0xb6290000U, 0xd70000d5de0b00U, 0xfc0000ee0000c7deU, 0xfb00c4fe00ad8100U,
  0xfb00fd00a90100fbU, 0xf704c9000000U, 0xc4cf00ccd4d8a1b2U, 0xf50000U,
  0xdfc2eb00e1U, 0xef00c20000000001U, 0xee00000000000000U, 0x462800184800002cU,
  0xcc1bd6006c00f95fU, 0xf90000af490002f2U, 0x350000eae30040U, 0x1800003800U,
  0x470000f01c00U, 0x4bfd0000003de000U, 0x48bd000f0046U, 0xf300000000100000U,
  0xf90000002eed0000U, 0x2dd6002cf64024U, 0x24002e00bb4528U, 0x39d80000U,
  0x3e0000001dU, 0x200147e9003eU, 0x4b532c00f00000d8U, 0x330000f200000000U,
  0xa00000008003ef0U, 0x24dbfd00003800U, 0xe22f3b000000da24U, 0xb20000c6000000U,
  0x2200e70d0000U, 0xd4d5d800fbde0000U, 0xeef2c665410000U, 0x494f004b00007fU,
  0x8d21U, 0xf100e100003900U, 0xef000000b40000U, 0x38490000a31fU,
  0x98000c0098001a16U, 0x2c00000025003dU, 0x360012fb9a1800U, 0xe10005be00U,
  0x5112f4e80e0000e9U, 0xb62acf000000001dU, 0xe81500e70028002cU, 0xb3a0f700ee0000U,
  0x3900002b0000f300U, 0xe9001a00000000deU, 0xa0000002dc700U, 0x2400f6d9e20000U,
  0xfd7ae00b83000daU, 0x3d0000ddd300de00U, 0xe700423adf00ddU, 0x20600f7fd000000U,
  0xcbe321e82700d300U, 0xecef0016080000U, 0xd9002000U, 0xb90000c00cd400U,
  0xd9c6e11aaffc001bU, 0x230700fa002300U, 0xc62c210000b6e6d0U, 0x2dca19ea0007f800U,
  0xe11ebafbd600f700U, 0xca0e00f0000d0019U, 0x1000050000a9a4U, 0x2c0027e800200000U,
  0x12cea80033ff00U, 0xbae30000d2U, 0x2000a700f53a02U, 0x9b00f500af09U,
  0xd10e00f900130000U, 0x80d3200000000e8U, 0xdf00U, 0xdd9d000000cf0000U,
  0xb40081000000U, 0xdafe0000a0fb00ddU, 0xf000003250c20000U, 0x1e000004bc00f7U,
  0xe49c0000fb06eaU, 0xdb00d4fe000000U, 0xea2c006a00133900U, 0x300436600U,
  0x837d8d70042e128U, 0x28f12d0000000000U, 0xf600f5001d0023U, 0x160000260d120000U,
  0x1800011600000000U, 0x1d00e80000ef0044U, 0x220000da00d40000U, 0x1ee600000000001dU,
  0xeae50033001c0f38U, 0x1700d4002900U, 0xb2002200eb000000U, 0x110011000000ef26U,
  0xdc180b0000f9ec00U, 0x242000000b00U, 0xc0000cb470000deU, 0x2ed400f400002100U,
  0xcde80000eaeb0900U, 0xe32e0ae000000000U, 0xfa004e00000000U, 0x350000d11aU,
  0x1d000008ecfd001aU, 0xe6003f0000282000U, 0x200040013009dd4U, 0x1210db00910024afU,
  0xd4ccb52500447300U, 0xf4000000c50005U, 0x3f0000dbcbU, 0x252b00f20000U,
  0x8c0000fb7f001007U, 0x3731008c0000002fU, 0xdc00000067c8U, 0x4f3200002aU,
  0x8700d7f46d00b300U, 0x5000088241480000U, 0xf200e2e12c14U, 0x2e00e3180000fbeeU,
  0x1dec3100cf0900U, 0x2123f800310000U, 0x1f0004c8003011U, 0xf2d8f2000000cbf6U,
  0x1400d10000U, 0xeefc0028fd0000U, 0x200ea00U, 0xe2d51b00260e3800U,
  0x1b00481200e80025U, 0x1900000000300000U, 0x1002ad000db1934U, 0x2100e00023e30000U,
  0xca000022ff00b51fU, 0x1d0015da1b0006U, 0xd7000000000000U, 0xc9e8U,
  0x20e0d50c1600U, 0xe50f2300d200e717U, 0xf0e2f6410000fd00U, 0xcfc00000ccfb5bb6U,
  0x100ef009edc3c00U, 0xc7c300ff00002100U, 0xe500000000000018U, 0x1e8c00U,
  0x9df2000013008103U, 0x24000027402700U, 0xe40000e6a5002600U, 0xb800d52ddc00U,
  0xb800c40006c00000U, 0x54004b00000000cdU, 0xd955af0015ceU, 0xbbdd0000d7U,
  0xc9001d000f0000U, 0xbd00da06b10000c1U, 0x182d270e0411U, 0xee0000001efaU,
  0x130000f3e100U, 0x14e6000e29000000U, 0x1c1d000fe9fdU, 0xf70000efe206cae5U,
  0xd00f2f800d700U, 0xcfe1000000000014U, 0xd9f0e7d5000035U, 0xf200000021e000U,
  0x9c31600b4ff2fc6U, 0xdad20000U, 0xc6000000ee3200d1U, 0x40000ec150000U,
  0xb90000000b2600f5U, 0x1d000000002400f0U, 0xb9000000U, 0xe60bf5150026a210U,
  0xd2d000001400b200U, 0x3b0000000000d30bU, 0xcc000ce5001d2600U, 0xe200b20000000000U,
  0x100cff60000e000U, 0xf9000000dcc300U, 0xe84d0000001bc7d7U, 0xf92fd3001a00U,
  0xe4fe000026001b00U, 0x190000b6140012edU, 0xdf0000000021U, 0xdc1afbf5b7e9U,
  0xb50000005a000000U, 0x3c002e000021c81bU, 0x980000c8b83800d7U, 0x28fa00000000af1eU,
  0xcb00000022d581d5U, 0x4dd90cc4102e000cU, 0xc6c1000e000000U, 0xd000000111003d95U,
  0xb2aecef000U, 0xd20e2ff50000caU, 0x25003cfbc0U, 0xf1002819001d0000U,
  0x101d00U, 0x10e50000f20000U, 0x0U, 0x222801ea1a00e8U,
  0x1900002326e931U, 0x2a00fe00000200U, 0x3400000098U, 0xea00000b001c0000U,
  0xb500e1a900U, 0x2e11000000000000U, 0xf700e200fe00000fU, 0x251b000044U,
  0xb83ccfbd00000037U, 0x80004f20000U, 0x17330000000e0520U, 0x1200050fd800ecU,
  0xca1ee200f529a900U, 0x2800090005000000U, 0x6300001dU, 0x43003bdd0000U,
  0xa934eb003df31e00U, 0x1a184c00100028ffU, 0xd0000000000fc00U, 0xf3000000dcb49300U,
  0xc300000000fe1e00U, 0xef00e100040000U, 0x40ba36c70000U, 0xf00bd810aU,
  0xb8270c0000330000U, 0x1825dd00cf000efaU, 0x26400057000000U, 0xf47e700bd12U,
  0xccf6000000001700U, 0x24d50000000729U, 0x1c2cd9ae00U, 0xf8000000d200e7d8U,
  0x23e50000382500U, 0xcc001b00311242f3U, 0x350000d700dd00U, 0x311800001f000000U,
  0xb40000000000b400U, 0x24000039000000U, 0x1bca000000003ebcU, 0x34150007180004U,
  0xd600000200U, 0xcb0000f3330000U, 0xd3241600000000U, 0x2700ea1200f5U,
  0xfc241b00U, 0xe700003a100000U, 0xe90000c500dfU, 0x1500000000e700U,
  0xe2e1002b00U, 0x2900e00003001cU, 0xde361d0900000000U, 0x2600d2d622000000U,
  0xa90000e535f6002bU, 0x331a11d300000005U, 0xfd00f20d19ea0000U, 0x29cf00e4efcd1cU,
  0xc300e1142d008100U, 0x331b000000160010U, 0xe3e2a500db0000U, 0x1fd7e40000U,
  0xaed5e2000000b000U, 0x311900000000d600U, 0xb0000000ca000000U, 0xd8U,
  0xd9000000000097d4U, 0xc1525f2bd00U, 0xe9de002400000000U, 0xe3000000dc0000cbU,
  0xfe0000cb00000000U, 0xb5dcU, 0xfe10c439fe000000U, 0x1a00000000003815U,
  0xef14c60000000003U, 0xf0f70033eb0000U, 0xb000000f10000U, 0x1720000f10370006U,
  0xeedf2c0005008100U, 0xec0f00000014ddffU, 0xe7cc0000210800U, 0xfae9280000f0U,
  0x1d001faa04U, 0x22fb21001900af00U, 0xfae50028f80000c6U, 0x20000000000000U,
  0xd300ea0000210000U, 0x2a00000020fa000cU, 0x94110000efccfa00U, 0xfdcd000000U,
  0xdb002a000029af00U, 0x3000eccd0028002dU, 0xa3001d16ea0f0000U, 0x2800140000U,
  0xba00ea000000d400U, 0x1a2b1ebf00000000U, 0xe3fbfb00002200U, 0xf12001a05261600U,
  0xdf00270000330e00U, 0xfb00da00002300U, 0x1afd000000e100U, 0xcf0037e000000000U,
  0x36df0f09000e00U, 0xaff6c03229U, 0x22b400000000U, 0xd820000ca443U,
  0xd40000fb0f0000U, 0x2e00000000U, 0x361c008133d23239U, 0xd20000002827U,
  0x212209000031U, 0xdc00003521000012U, 0xce3b0000c2U, 0x170000f1b700d200U,
  0x1600000000U, 0x1f080000cad7f323U, 0xe5e0001f360000U, 0x19000000b624b0cfU,
  0xf5c900080000e318U, 0xe600e4000000d8e8U, 0xeff4d7e1d12700baU, 0x3227ec00000ee700U,
  0xd90000001cec00d7U, 0xf200fc000af4U, 0x111ced00b4a6U, 0x300000e900cf00e7U,
  0x1000005500f9dfU, 0xec00e3dcU, 0x80000df00003400U, 0xec000000f500U,
  0xad0015f1a0dfU, 0x23U, 0xc83d1500000000cdU, 0xfd00000000f2922aU,
  0xcee700000000a800U, 0x3ab301000028U, 0xddda00b430390000U, 0xcd05013aU,
  0xce0f2d00f600ee00U, 0x4001300ed002900U, 0x61a29d400003317U, 0x998100002dbab7U,
  0xb9f800U, 0x3300000000001adfU, 0xca00df0000c827dfU, 0xb0000000000ba9dU,
  0x8d14ca000096U, 0xe4000000cfc70000U, 0xf4ccdb24U, 0x22190d00000000d6U,
  0x31002e0015000a31U, 0x3900dbeb003eU, 0xd900b43215dbU, 0xd50000003500fdU,
  0xce00ea00d500b0U, 0x2316dd00U, 0xd20095003a0000U, 0xe4b000021c2f0000U,
  0x280000000000b49cU, 0x18d200300000U, 0x1500000000000000U, 0x11050000201ac700U,
  0xa000b003d000a3bU, 0x1f19f40000e60000U, 0xc72a0000e1005202U, 0x12e0cdea00360033U,
  0x300032310000b12eU, 0x2000000fc000000U, 0xefa5b9063947U, 0x1300000000U,
  0x2100002f0000f000U, 0x3ebaff0002U, 0x55361d00ea00f9U, 0x8000000adf218U,
  0xad2ceccd5800001dU, 0xf700bcf7d800f9U, 0xda3100003100e012U, 0x2310e00df3efc808U,
  0xb40d001e35f3000dU, 0x2b00b700000000U, 0x312700a70000ff00U, 0xb53cd9cbU,
  0x2a10000000U, 0xfd0a37000000eeeeU, 0xf20000003e000005U, 0x3900b80000d8U,
  0xb30000070000U, 0xb8d5cc0000000000U, 0x10000eff2ec0000U, 0x40000bd0000U,
  0xfa0000000f0bf4U, 0xf112000000e6fbU, 0x1f00d9000028U, 0xdc000b0600000013U,
  0x25000ffe00ccU, 0xd7ee00d9001f0000U, 0xf906002200b494acU, 0x8fd726aeU,
  0x52008100f3d96200U, 0xaf00c007a2000000U, 0xf7e80047dda2a4U, 0xd01b000000cd0000U,
  0xdbee000000240010U, 0x15c7190000fdU, 0xb8000000000000e8U, 0x1d00c9f59900U,
  0xcc0000d40000U, 0x22e900ca0000000bU, 0xb00c7262100bf8aU, 0x12000000U,
  0xd60000ae001100d6U, 0xd1f400a0f600ddU, 0x1c36360039bec200U, 0xe80000271400de26U,
  0xb3002300e930cf00U, 0xbe02d40000000000U, 0xf10000000024U, 0xe0000000bb00U,
  0x98cc080029f9f100U, 0x1ab22000000U, 0x3f00ca0000e9a200U, 0xf3000000b4001dU,
  0x2400d300f0000000U, 0x2ec60000ba003d00U, 0xe2f40031e500U, 0x1400f7072b001200U,
  0xdc9400f1d600U, 0x95ea00f400U, 0xd71d0000000000e1U, 0x2e3624d00000U,
  0x170000fcc400U, 0x130000b020000000U, 0x13f047003ad500U, 0x2b371d0000eb0017U,
  0xded7d154e10000U, 0x5c052fdb00000000U, 0xc1d8001c4e00U, 0x32322d240000ec35U,
  0x81fa000004e10000U, 0xea00003536e42eU, 0xf6fd27f4f4003600U, 0xe30000000000U,
  0xb3300000b1e60000U, 0xc51d00e506001eeeU, 0xf6003600221cbc42U, 0x2000e1b9005bU,
  0xf000000cd0000U, 0x4dc9e3000000dd00U, 0x1cdd00000000U, 0x3300df000045U,
  0xeae1b0a32fdb00U, 0xe5e100142100cf18U, 0xca45000000e6U, 0x3b3ee000003400f2U,
  0xf200000000e200ecU, 0xea2400000059cc25U, 0xe60000300048U, 0xcefd00U,
  0xa65b351a0000e600U, 0xc333f20000000028U, 0x7800000e0d110300U, 0xce000000302600fdU,
  0xe73c92832e4800U, 0xe4abd6001eU, 0x1e00340b00000055U, 0xabb6183400b50000U,
  0xe3100049f000000U, 0xabcfcc002aa700cbU, 0x73f3da600fb373eU, 0x33aea800c30000d6U,
  0x340000110000U, 0x1800f82f0000U, 0x2d00911a9600ffU, 0xc191a300f9f7b396U,
  0xaf0000c8ac3b21U, 0x8d00c5ae009c0000U, 0xba000000b38100U, 0xa28700U,
  0x25b1b1b400ba0000U, 0x9da90000950094U, 0xc30071005a07f1U, 0xcae40000266d7d81U,
  0x63b9000d00000000U, 0xd2005e00f100c0U, 0xac090400002c0027U, 0xed00000014e63700U,
  0xe5ff0000002e5400U, 0x4700001cU, 0xc800ed0025000000U, 0x101a00U,
  0x2504000600U, 0xdbc80000f4U, 0x21b5234009e00U, 0xf412000000U,
  0xfc00c8008f2ae500U, 0xa159f0000000029U, 0x2000f42b4d950000U, 0x461d0000e0acU,
  0xe4205a26e5e1U, 0xd5e500c500b20800U, 0x10fa00001d17U, 0xfb00241400c300U,
  0xc40000e22ad60000U, 0xfc002beb02001a00U, 0xd3af4ef061cfc5U, 0xe439da004c00181cU,
  0x2100ff072b0000U, 0x3ee226000000ec00U, 0x97000000003b00deU, 0x4e4d000d000000U,
  0xf700aef3000037U, 0x51eb3d0049000000U, 0x338518002ae6U, 0xfe00e30000fe8200U,
  0x3600c900a800U, 0xf03aa5f0002b00U, 0xe61d4d00e7abU, 0x2e411300000001U,
  0x22b30b003afd00U, 0x6000081ff163125U, 0xf600000a0b05U, 0x1f00fe88e333U,
  0xe00000004ceb0000U, 0x15002a2aU, 0xc900040000U, 0x2d00f91b06c20000U,
  0x72f4929e1280000U, 0x24c8cc200000U, 0x400c52500U, 0xe115000049bd1100U,
  0x71a0000U, 0xfdda20e800faebU, 0x3800db00110000d8U, 0xf30050aecd00U,
  0x320000ed0af200U, 0xb90000fdfcce002dU, 0x35fdd104003eU, 0x1b0dc90000000000U,
  0xf62dU, 0x4001b1c00181100U, 0x3300000e0536421U, 0xee000000003b32f2U,
  0xed03000405cabc1eU, 0x5000002dU, 0x6002eU, 0x3eb0044000000U,
  0x4f008c0b0000U, 0xce0f001400d9001cU, 0xdc3a00cc000020U, 0xaef8e10000c50e06U,
  0x4b001f0000dd0000U, 0x83deea3600cd2500U, 0x2fd000000000d500U, 0xd50f17d8001e0dU,
  0x700c005e90025d5U, 0x1000ce0000150000U, 0xd2f10000d9e000U, 0x150b0000001d0000U,
  0xb000d00e00d0000U, 0x1b0028db1edfU, 0x281c002300d9U, 0xed0008f10c3100dfU,
  0x3f00000014001800U, 0x2f00003400e00022U, 0xeec91500fa00e500U, 0x120000e0e2190700U,
  0xccd700U, 0xdb00002a1fcddad0U, 0x2f00c92afa0003daU, 0x181500e400e40000U,
  0xdc00000021d8U, 0x1700da0800230000U, 0xfbd1ea42001f0000U, 0x6e901f04b00U,
  0x23ef000000002100U, 0xeee7220000ed1900U, 0xad2ce40bU, 0xe1c100001e00f000U,
  0x2c1c0028810035dfU, 0xd4f3db0ae400U, 0xde17ce000000U, 0x1d00fc003ad7U,
  0x20002200000a18U, 0xcb3d00df00d8U, 0x3cU, 0xd8e607ea000e0000U,
  0x19ee202300230000U, 0xe000dc0024002814U, 0xb21094f10000U, 0xf700d300090016U,
  0x4000fb60ed20000U, 0xf59900133efb0000U, 0xe00ae0096000000U, 0xd6d900006317U,
  0x6000000ef8200U, 0xdbc170400090000U, 0xf73a0000e800f800U, 0xc00000f1d0000U,
  0xe50013bcf9e7dd00U, 0xd916fc0000U, 0xc6e5d900000000afU, 0xc9d60000U,
  0xdf00000081e8U, 0xf90000cd000000e8U, 0x9b002a00f7c000aeU, 0xf00017002b0000U,
  0x1f00b10cf60000U, 0x16cd000009000000U, 0xedfd3ada00db00dbU, 0x1df10000e30009U,
  0x6d9f5bd18e6f400U, 0x9U, 0xab00b00000f90000U, 0x40009eb0d000000U,
  0xfb0000003be200b5U, 0x50003ab30039c700U, 0x9c00000032000000U, 0x3904e200b10000U,
  0xae000090000000ddU, 0x53da080000f200f2U, 0x3f004d000000U, 0xf50000fb00e300U,
  0xbc16cea920000200U, 0xe5008f1439ee00U, 0xbd00c60000d5U, 0x1d00c5210057c100U,
  0xa6b10000cc00d1c6U, 0x2b0000f9df00b426U, 0xd00000daf6c6U, 0x1900000000b9U,
  0x22aa250032b300U, 0xd3cb00U, 0xd200bc00cd00c3U, 0xd40900bdd7001bU,
  0xb5be1d003100b1U, 0x31000000002fd6d4U, 0x2cccc000240030U, 0xced23f0000U,
  0xe32d3be800000900U, 0xde0000002024000fU, 0x2b00000000000000U, 0x2900000000000000U,
  0xc10000b92bc800U, 0x500000007000bU, 0xb3190000e3U, 0xd3030020000000U,
  0x280000ff00U, 0xdac023b6310000c8U, 0xd732d700d3ccc800U, 0x2be9e200U,
  0xfe00000016c500cbU, 0xd1e11000cfd700U, 0xcf0000003834002fU, 0xbed300b8e6c8U,
  0xe7000000c10000baU, 0xe000cd29b500U, 0x8100310000U, 0xc600002d1e8100U,
  0x21000000f600U, 0xc200d0U, 0x2c000000000d0000U, 0x1400f805000000U,
  0x180e00fd181200U, 0x19002ea1001b10f7U, 0xfee000a800001ddfU, 0x15130014008d9500U,
  0x29edd3e7000000U, 0x600b5c7001a08U, 0xf300f08100e4fc00U, 0x1ced009800U,
  0x3700c40000f900U, 0x7f6b8001c15U, 0xe300200a00e30b00U, 0x15fdfde3c80014U,
  0xbee900ed0014f025U, 0x220600d82a1a00U, 0xeaeb15e224dc00e6U, 0xf3000000e3000000U,
  0xe100000000U, 0xdf000000000dU, 0x2a0000e7000016edU, 0xe9000000000000U,
  0xac0016cf0000082cU, 0x1708be00000000U, 0xc700330000000000U, 0xf5001900000000U,
  0xc0000U, 0xfc33001600f000U, 0x1fe70000000f0000U, 0x5000a000a00f300U,
  0x21e5080000U, 0x2a00000a1900U, 0x900000000d70013U, 0xea00004e00f42dU,
  0x2100b600002cU, 0xd7000a0000002800U, 0xccef7700de00feU, 0x3fec333d0000U,
  0x2e0011101dU, 0xe52c00010000edU, 0xc94200000000f837U, 0xced70000e100eb24U,
  0xda0000dc213c2500U, 0x8d0e00c1f9b10000U, 0x5e2e0000c2c300U, 0xe8e330af000029U,
  0x3c41df00U, 0xba00004320U, 0x5b3530b6002c000fU, 0xdf000000332aefeaU,
  0xe5d838120014d7edU, 0xaa0005e8e0003f09U, 0x3600000004eddb00U, 0xf2000000c3U,
  0x282eU, 0xee3800000000f9U, 0xe7fd190021119900U, 0x26160002d2d500U,
  0xf400ae0000003afcU, 0x1bec00ef0027ecU, 0xeddfe9a3d0003d5eU, 0x24300000U,
  0xb3001b000000caU, 0xb7a54422fc060000U, 0x7caa00000000b837U, 0xf600a6U,
  0x34e500cf00e4U, 0xc02b00000000U, 0x30000000009a86c1U, 0xeee7000000b42c07U,
  0xc30071e4U, 0x8d009e15ed814000U, 0xd1261a00001221fbU, 0xbe0a094000efU,
  0xf2f2d11d00U, 0x8c2341dcf00U, 0x1fa2001c0000U, 0xcbd1U,
  0xb800000c23ebU, 0x2b00299600000000U, 0x1b00003700ed00U, 0xebb5001326000000U,
  0x8df6a9be0024ec00U, 0xfdb10000f900e4c5U, 0x8d4110000U, 0xfca00f2001200U,
  0xbff6ec300000c700U, 0xffda00002300d500U, 0xe6000000cc000000U, 0xa0025000000U,
  0x9a17f40031000000U, 0xed920a0cbb13U, 0xc1f0d8f6dfU, 0xee0a03cb13f38100U,
  0xdd0000001d0000U, 0xd63c001021cc00U, 0xee07f0000039U, 0xf0033f55a2b6a00U,
  0xd1001b0000U, 0x3626f6U, 0xf1fc2a8500f40000U, 0x1c0000000035U,
  0x9df83400cbd5004cU, 0xe710a42d1d0000U, 0x2000a600000038U, 0xc4a90000bf000aU,
  0x111b3700c4a246U, 0xf900000000dd2217U, 0xfc000015000007ebU, 0x1b150000000000U,
  0xe5faf7dc141f0013U, 0x23000000f000fffdU, 0x8f0f50000000eU, 0xfc02000009dc00U,
  0xf0000024000000U, 0xf4000002000800U, 0xcf000000e5U, 0xf50000daea0000U,
  0xfceb07110b00ffU, 0x1bf000000507U, 0x1031000700f2f900U, 0xe00000fab90000e6U,
  0xc8e10000241fU, 0xdae600c02400U, 0x4600000000b8baU, 0x1900fef4e3d6U,
  0xed00f543000000U, 0x700da0000fe08U, 0xe2100a0200fa0000U, 0x170ef3000b1c0000U,
  0xe10005001c00fd03U, 0x8000000160016U, 0xfcee0000c400U, 0xf8c200f90000U,
  0x1b00001881dd5901U, 0xa3000022a2a90000U, 0x2400163800e2bbc9U, 0xe0240000e026d3U,
  0x2100000000004700U, 0xc00baee0d0000e0U, 0xf81d2633001c0021U, 0x80000fb000000U,
  0x101eec00270000U, 0xfd0008ddff060e00U, 0x4e482700e0d631U, 0x21c3f60037cdc4U,
  0x2057000000U, 0x15000000fa1f00e9U, 0x3200000021eb00U, 0xdf000000000000U,
  0xd20a30000000eeU, 0x34f201e608000000U, 0x290000c942e5f1U, 0xec00130a0505e02cU,
  0x200fe00f20000U, 0xdcf4f01e00330000U, 0xf60000d200c7101eU, 0xd70710e00a240000U,
  0x1d12002000f9U, 0x280800001800deU, 0x4cf632bd0015e813U, 0x20ced10000fd0000U,
  0xeb0000003600002eU, 0x1200ec0000000000U, 0x30bf0015f500U, 0xcf0028000f002aU,
  0xf9f21f0090180000U, 0x11043200cd0000U, 0x32003281d7000000U, 0x20b8bc0200ee0000U,
  0x200d0db0c00U, 0xf6e72a3506270000U, 0x42d400bb0000f2f0U, 0xaaf1c400002a00U,
  0xc6d500a90000fdU, 0xab00ce35c5cb2cd0U, 0x291200f7f800d70aU, 0x9c9cdf000600bcU,
  0x800190000004700U, 0xf50000ae00001fU, 0xd900000000U, 0x3d00000900000000U,
  0x81ea251d00fd0000U, 0x1d005c000035cd00U, 0x250000002e2e35U, 0x20b5000000cf00U,
  0x9900000044140000U, 0xfa1f00d900000000U, 0x2d00000000000000U, 0xf3d0c700001eb12dU,
  0xe0cf00d700000000U, 0x2a0000b420ee1200U, 0xdbc6fc00dd10U, 0xa004000000337U,
  0xd0f500000000f500U, 0x270013c000002100U, 0x2600a500000000U, 0x29100e0000f2de32U,
  0x2755f900009800U, 0xe4f8002b2044e700U, 0x3900c1ca000000U, 0xddd22aU,
  0xb7e200001f1f000aU, 0x390000bdc5001100U, 0x362efa00184a00U, 0x1f00000000120e55U,
  0x830000312c1e3cffU, 0x2a60037003dU, 0x42b800dc1300U, 0x2b00002900e5be07U,
  0x3400001a00000dU, 0x23000000001decU, 0x44f00eeec000000U, 0x350047ebd5000000U,
  0x8b000000003c0000U, 0x4c0000f1000000U, 0xbc1900d600ca0032U, 0x0U,
  0xb526be441a000000U, 0xcfbb0066af00U, 0x1a4441320000c9U, 0x19680ad2000021U,
  0xdb004aU, 0x92c916bed400b5caU, 0x1200c80000U, 0x242e003c002f0000U,
  0x334900b20031002dU, 0xc800e6U, 0xe553528100b20000U, 0x1900b3003c04b7U,
  0xa900533309000fU, 0xd300df00400000U, 0x1f540000a70000U, 0xc1b40000da00U,
  0xca00aa00b4006ab8U, 0xddacb42100144eafU, 0x43004c000000c3b8U, 0x1563000000c721U,
  0xc99988420000U, 0xc6d10000db00U, 0x410000002500dfU, 0x5d9000000b9U,
  0xb0001d6d1700beU, 0xc80000001dU, 0x9a000ff000eeed00U, 0x383e000025006a2cU,
  0xc0dc000d00bcU, 0x5700c8330000U, 0xecc7000000U, 0x475800006c0047U,
  0x39faaaU, 0x46b2700000e10000U, 0xca151200f900U, 0x1e04081d0c00daU,
  0xbc80000f800cc00U, 0xdce33b00f00000U, 0x180000d300d7U, 0xdb002ad100f21f00U,
  0x9d500bcf5000cU, 0xe4ff00000000U, 0xb2600be00c1U, 0xfc1e0000c5000000U,
  0x29000000003020U, 0xdfe40400ef00U, 0xed00b9e6122600U, 0x2f00ca23U,
  0x8f1ef00e900bf00U, 0x1efbcad5U, 0xe200e10019ff17U, 0xcbc1e0c8e40007U,
  0x1d00000000e80000U, 0x400001900000000U, 0xf0000f518000000U, 0x1400001ab4f30000U,
  0x93ae00322a00U, 0xe3000000b5000000U, 0xd3002300000044ebU, 0xf600000038f30036U,
  0xd40000002500c600U, 0xe237002800ea1bU, 0xfd002d00001a2b00U, 0x16e8d0000000c200U,
  0xf6002881260000U, 0xd800fc1300200000U, 0x1c00cad5000000b3U, 0xd9d2d20092be00dbU,
  0x1c0000a900021900U, 0xb3009000fabdU, 0x4fed00005783U, 0x88cdffff903cU,
  0x1254700007cf8U, 0xe795ffff9369U, 0x72afffffd383U, 0x4c5c0000990aU,
  0x7a5c00004b06U, 0x51fb00007397U, 0xbe990000a6b6U, 0xfffff9130000fe92U,
  0xfffffca8ffffffc2U, 0xdc6b0001228bU, 0x6cd400005eafU, 0x4bf00000e6baU,
  0x630e0000468bU, 0x9f9b00004d12U, 0xd100000000U, 0x322c383b000044U,
  0x412d00000000U, 0xdc00000020fce3U, 0x5b00U, 0xd000280000000000U,
  0xda00e0240000U, 0x4400cecc00e4002dU, 0x19dbdd00fd00d9c7U, 0x25d544414bb900U,
  0xd3001125002c000bU, 0x141000d900300000U, 0xd6f900d500U, 0xb100001bcb3f00dcU,
  0x31c50000000f2f30U, 0x174a0098000000U, 0xcf1100000000U, 0xbe0000002b1524U,
  0x24000000f700U, 0xea00a6e90000U, 0x122016e200002b00U, 0xcf19003d0032c6dcU,
  0xc50e00d300000049U, 0xcf330b217428U, 0xb7000025d3beU, 0xd9005a3cc1d00000U,
  0x1a0c890000c86b00U, 0x380000003aed00U, 0x10f200d100000000U, 0xa800bcefc400d7U,
  0x1d18000000c300U, 0x0U, 0xcd0000ce005300U, 0x95008100U,
  0x1f00001b00003b00U, 0x4300340000e900b7U, 0x74b0000000026U, 0x3ab1ff00df00U,
  0x360055b61b00e2b1U, 0xefb5eb1ed6c900U, 0x0U, 0xe90024b73b100000U,
  0xdee50c002d2b2e00U, 0x1d00000bc8e5e5U, 0xe3f8e400fcU, 0x1d11000000U,
  0x0U, 0xf200dbe20000e8f8U, 0x3400cf0d00b24b01U, 0xe30000b80000b4cfU,
  0xea0000e0fbd8001aU, 0xa100b60a0000d600U, 0xfa00e62af90000e4U, 0xd100e3f1f500U,
  0x131215000000000bU, 0xff000000f31d1400U, 0x22cf1803U, 0x2400eff400e400U,
  0xea00dcd6002d00e2U, 0xe8fd17bdf30026U, 0x38003955000000U, 0x1f00300000e0fe00U,
  0xbd00000000000032U, 0x1ed000d53500ebU, 0x390000f8d30000U, 0x1f002e422b0019ddU,
  0x301664f6U, 0x3152f0081000013U, 0xf919d800c8U, 0xef1e0300002b0000U,
  0x45000000U, 0x100000000000017U, 0xfd000000d3e8b900U, 0xc200001e00U,
  0x2400bd0091a5003fU, 0xd60029fdfcf1U, 0x980081edf6dec7U, 0x15fd00000000eebaU,
  0x1c1a00fb00000048U, 0xfcbe00dd0000f200U, 0xf9bab5af07bc0004U, 0xdc00000013c9caU,
  0xdff900f9eaf6U, 0xe3001dbbef1700fcU, 0xd60fac00d000002bU, 0x3300001600000000U,
  0xbee9bc18f34600U, 0xb2001ffc18d5U, 0x13a6e2c20003cfU, 0xe0fa00000000U,
  0xda000000f00000e1U, 0x4a000022U, 0xf800e300b4faU, 0xe3e110000000000dU,
  0xb29161200001cU, 0xfc0000f100U, 0xa700a8e500000000U, 0xbffd00000029003dU,
  0x1e0002e7f4000000U, 0xd4f70000U, 0xcd0000d8f433211fU, 0x1ee1380026ee1900U,
  0x2d002a00ce00e5U, 0xc900140025e60000U, 0xf00bf00cfdb2c55U, 0xe700d81126b800aeU,
  0x3d242300d900U, 0x280000f93e00U, 0xa6e400b5U, 0xe3000020c2000000U,
  0xc79d00e924001900U, 0x2a2e001f39c75cU, 0x19e6c72400000007U, 0x1201be37d0U,
  0xcf00000000005200U, 0x352d2100000000U, 0xb90000000000f80fU, 0xd300003b2dc10000U,
  0xfc49d9fb0000U, 0xbd1e00db00f10000U, 0xe4210016db0bU, 0xbf00000fc00bb0dU,
  0xbd00000000000000U, 0xa20042000037c100U, 0x9d00170000000000U, 0x12000000fa000cU,
  0x21d5003dbccc0000U, 0xf6f90000000015U, 0x1100f2d500260000U, 0x12d615192d0000U,
  0x37001cd600000000U, 0xe53bb200da0000U, 0x2400690000U, 0xea000d20fbU,
  0x7f00320003U, 0xae00000000006fU, 0x16003c003bbb00U, 0x1ef6c9f9dd005000U,
  0x1301c4f600b0c900U, 0x4e01000000bdU, 0x5700bd2b0000001eU, 0x2df000000014U,
  0x21f700c4210000U, 0xb50800dc002dcd00U, 0xeaab2718e5dbU, 0xfc002f1400c7a0caU,
  0x570000c200f68fU, 0xe2dcf1b1e19f00U, 0xc314U, 0xac3d00fbe60000U,
  0x3ce900c1e143c1U, 0xe6fbdadd00U, 0x3c00fed94fec81f3U, 0xd500e200000000U,
  0x3244000000004ec1U, 0xfddee8a500f400efU, 0x25dad2U, 0x13fcd6c1f6b90000U,
  0xb7e900460e00U, 0x8f000032000036deU, 0xfe500000000beU, 0xaa00000000000022U,
  0xd900f800002900U, 0xf1fb1c0700U, 0xfb00f1d50032a390U, 0x80000000000U,
  0x2e000000bdf73bf3U, 0x330000000000fbU, 0x871200ee41000015U, 0xf8170000U,
  0xe6000000e4000024U, 0xd33800a98f29d700U, 0xf90000e600U, 0x42f9d7000000U,
  0xa00000000fd4100U, 0xa7002200000019ccU, 0xa9d10000e3000000U, 0x3ad90000000000U,
  0xcf0000000011U, 0xd0001ba9b8000000U, 0xe4050000002700U, 0x2cf22U,
  0x20019000000U, 0xe0000000000e7U, 0xa0000fd0d0400U, 0x823110000e7U,
  0xaad10013ec1014U, 0x1100000000U, 0xc500U, 0xef080000311a00U,
  0xe5dbdddf031ac300U, 0xf6dd0000000000d4U, 0xf000003500d60ebaU, 0x16000000U,
  0x1c32d81924c91614U, 0xd50000e000000000U, 0x12e9e9000021d3U, 0xe8c8e100U,
  0xe209f400050000U, 0x33df001f00e63b00U, 0xde00f6e3000010U, 0x1611da0000000000U,
  0xf402d5df0000db00U, 0x1bf500001e001cU, 0x35e00000d00016U, 0xef00240b00270000U,
  0x2a00ca00aaU, 0xe52300812fd700U, 0xf2fa0000d7091000U, 0x250000eeee000000U,
  0xdc05c8000f0000b1U, 0x18001dU, 0x1500f314000004U, 0xeb0000b4f519U,
  0x1903001f0b280151U, 0xd70000e9f6001aU, 0x70a967f000000U, 0xbee5b31dd3ac0000U,
  0xff080006000000U, 0xf8d200990acf3500U, 0xde39d037c20026U, 0xd41737fa0026f300U,
  0x1b00f9b6002300U, 0xf300000000000000U, 0xc62fcf0000U, 0xee0b0500e700d000U,
  0xa6400fcc0000000U, 0x20efe30014a200U, 0xd5cd0006b60000U, 0x15f300f098c000U,
  0xdf00003800001d00U, 0xf40000000b2d00U, 0x280000f8e2e237U, 0x1000e60000000000U,
  0x1700d20000000fb6U, 0xcbd3ed003c120004U, 0xe6f2eb28U, 0x11000000190000U,
  0xe100e72ad8243a00U, 0xbbe600fdf02eb705U, 0xcaee00bf00ebU, 0xda00dc00e300U,
  0x48c224deU, 0x2500a8dd0000dcU, 0x2dce2134313313U, 0xfbe0003d3e0000ebU,
  0x2707d40000f10000U, 0xc5cf000d0000edU, 0xd600000000000000U, 0xf500412e00b90000U,
  0x4be73f413919efU, 0xf520ec52b700e100U, 0x410000U, 0x0U,
  0x450044271dU, 0x393c000000fe00U, 0xf7003d2ad800e300U, 0xd7000000000010U,
  0x4200feU, 0x122900ef00U, 0x1e4e60f20000004aU, 0xd400e9000000U,
  0x36f100dcd42a002eU, 0x4a372e0f0000002bU, 0xe852001e4200U, 0x1f00e00000040000U,
  0x230000dc2d0000U, 0x34003fec0025f431U, 0x474afc300000U, 0x2e321e2632U,
  0x7f0034400000eeU, 0x2d00e52600f500U, 0x9f00d00000322322U, 0xe0311bd3003c5000U,
  0x1d0ce1003028e800U, 0x1b000b1a00000000U, 0xe2000008d6e24500U, 0x2a1d000000ed3c2dU,
  0x16234e00540000U, 0xeaf60000e70045U, 0x4800faea003000U, 0x380000d0000000d2U,
  0xd24fd400f6485700U, 0x720000000000ff00U, 0x1100c42b1beb00U, 0x330000ab004bd111U,
  0x4d000000c2edU, 0x3d344300ccU, 0xd50c000000U, 0x3300005c00d02920U,
  0xc000fa009c0048efU, 0xec00d000d1f029U, 0x2f00efb5120000U, 0x4d00e52d00bf00U,
  0xd7c2000000000000U, 0xd100000000261300U, 0xe0000da2b0827U, 0x52f6001c2100d400U,
  0x2800e13100U, 0xb000f70900001c00U, 0x1b0000c921U, 0x45ff0000dd00U,
  0x29cc002200f90000U, 0xf7002000c02b0000U, 0x1b209c0000000000U, 0xbc0000462500c7f3U,
  0xdb1ac10000000000U, 0x30d4003600d900U, 0x4e00002000U, 0xd20000341c180031U,
  0x1e000337f6dd2900U, 0xd2e200090000e6U, 0x1c119dda00ab30c0U, 0xbb3b001fc5e82d38U,
  0x1a0000002d000000U, 0xfb512c0033e200daU, 0x200b500064800U, 0x294a005b000000dcU,
  0x221f077034U, 0x81f23600fe4a2100U, 0xce1e00ee12U, 0xde4600df340000ffU,
  0x20cb1ebaf30000U, 0xe51f1ed300000b53U, 0x2b00d6009900d700U, 0x2500040a00000000U,
  0x27c500000000ca00U, 0xe6220000000000e4U, 0xb00000000140051U, 0x3c280000311bc3U,
  0xa09b0000000015U, 0xd00000000000b6U, 0x76c71b0000cb0068U, 0x3f327800aff3cbdfU,
  0x4911000000b70000U, 0x6b890aU, 0x1ea5e4251bU, 0xfd001ee2e300e8U,
  0x280000000000U, 0x10c70000000000e8U, 0xe6d2000000412aU, 0xdd000000e10013dbU,
  0xdeb6f30000000000U, 0xbeb4390a0001001dU, 0xe300U, 0xcb0047f100a50020U,
  0xc00000003100e2U, 0xa000U, 0x3e841e00165abcU, 0x2400001d00250000U,
  0xac0000000000U, 0x921000081002600U, 0x1004900360000U, 0xff00002700070006U,
  0x27f31500000000U, 0xf70000bc87dfca00U, 0x2adacb00bc0000f7U, 0xed002700cb00e6U,
  0xf000U, 0xd0cdb900000000U, 0x31d300U, 0xd80034000000U,
  0xd7db00e82b1c0900U, 0x40250000e00000U, 0x31002a163500feU, 0xefc400ea000000U,
  0xcac30d0000e520f4U, 0x290024103f00U, 0x2f4cd700U, 0x2e35bde700cc2800U,
  0xc80000003f000024U, 0xf81a180f0000001eU, 0xc600002fd6120000U, 0xd735cef12c000400U,
  0xf6cb0002000000U, 0x3bde00e300340035U, 0x1000002b03U, 0xe9000000daU,
  0x811fdc00000000U, 0xf8000026000000U, 0x2d00c5ec000010U, 0xb935f6ea00c0U,
  0x24882be72640e413U, 0x20001d2ed60000ebU, 0x240000f6d9000aU, 0xe9d9000000570000U,
  0xe60000005300deU, 0x1f23c00c8330038U, 0xed033900c00000dbU, 0x50000003d0000U,
  0xdeb5000000U, 0xce32df3000eb2800U, 0xeb4a14001f0000U, 0xe9000b1c0000U,
  0xae0000004e004fU, 0xf234000016000000U, 0x3ddc1cca1c00eeU, 0xf600f7eb003400U,
  0xed0058002722U, 0x500000009120011U, 0x260026d1390dd6U, 0xc10000000000U,
  0xcb000017000000U, 0x19190000000000U, 0xc2d6000000e300c7U, 0xee0000000012U,
  0xc10d13000033U, 0xc200000b000000cbU, 0xae0f00d8e1d60000U, 0x4500000031000023U,
  0xec0000d4ee000e00U, 0xec1afc0000320000U, 0x812000012001dU, 0xdae7000012001b00U,
  0x13fe00000000d3U, 0x1d001f3100000000U, 0xc60000000000dcU, 0xff0000e4d2bf00U,
  0xd200000000e60000U, 0x1a00e000fd00U, 0xe5000000bd00U, 0xd100df2cd40000U,
  0x1e440000006a0adcU, 0xe1000081004729U, 0x1d00abce0000U, 0xcfc4f01700c500ddU,
  0x2ce8ab0000000010U, 0x3da1e54a1fU, 0xb62ded00d207a5U, 0xb500b5de00c200b5U,
  0xc406230000b500U, 0x0U, 0x8a1440bf00e1U, 0xc72b3a00b21400U,
  0x1c00e2de00000000U, 0xefc900c300af0d00U, 0x290000360000daU, 0xe200d2edef00ae00U,
  0xb52d00000000d52cU, 0xe80e00000000ae00U, 0xd500ef00U, 0xf5e100006700ccU,
  0x3d2f00a9002300e5U, 0x1e2be54b00d8000bU, 0xd4c000bd1318d600U, 0xd000000001300U,
  0xc5d8ce0000c71e00U, 0xeb0000cd0000e2d6U, 0x16002f00e7d700U, 0x1cd715db00080400U,
  0xc2fa00001f211c00U, 0xe2001ce599d6b2U, 0x420000a300U, 0xde00d764b6e6U,
  0x9400000047U, 0x1a30c800000c00U, 0xa000ba0000214607U, 0x700000000000023U,
  0x162deeeb11004500U, 0xc003c000000U, 0xefb4280000000000U, 0x1ae700e70000a000U,
  0x1d0a0a0000U, 0x400000000ba8100U, 0xb10031d600U, 0x510032000038b500U,
  0x2cb104c80000U, 0xecc5ed0000b8U, 0xe2000000d800U, 0x2700U,
  0xaf000000000700U, 0xdbe9250cbe000000U, 0x1f002a00291c001aU, 0x50000000cadb2a00U,
  0xe00e5000f00U, 0xd42b0ece0cd0e4U, 0xcaf6daU, 0x2032001d0900U,
  0x45000000fbc700U, 0xd80000U, 0xd9000000f60030U, 0x300ebe92cd600U,
  0xf5e2002ccb0021U, 0xbb1000c500e00000U, 0xf80034cc2200U, 0xeff61700e7001600U,
  0x18d100da1800U, 0x2cc0d6U, 0x630000001200e400U, 0x1b25cc1200U,
  0x461200d213b0dbU, 0xd91800fb00000000U, 0xb5000000f1dd0000U, 0x1000000d3009100U,
  0xa0e9d200c3002eU, 0xeee5000a7f00f32fU, 0x1f00d100000029U, 0x190024002cU,
  0x1ecc003d00001a00U, 0xe7250000001aae00U, 0x253400d40000e000U, 0x47000f000000U,
  0xc7e80000U, 0xcc17e3e70000c5e7U, 0x260006fc1c000aU, 0xa0000eaab0000ceU,
  0xf301000000U, 0x4400007f31U, 0xe3fb00001300U, 0x2a0ad325000bU,
  0x1a2a23ba000000U, 0x3d000014000eU, 0x3c0000003f0000U, 0x4f08000714000000U,
  0x35feed3300e32228U, 0xf23fa800U, 0xf400002d00U, 0xb900004100000000U,
  0x14051de600c20059U, 0xf9b6c9cd00252dU, 0xf9e500f5dc000000U, 0x3500000039U,
  0xde00d72700ff003dU, 0xf424cf00000000U, 0xdfd928ed0000U, 0x26ee44e3e032U,
  0xe2d41b1e00ec1131U, 0xe600d6d9001000d9U, 0xcb1b0000002300U, 0x1148003935b322U,
  0x2dd9c400002c0000U, 0xceecf5d4a63d0000U, 0x9f1cebc600003b31U, 0x2b3c3400000000U,
  0x2b200bd0f500a9U, 0xc3eee95600310036U, 0xc0000900db3a3f34U, 0x370009e900190000U,
  0xf4000000fe0000U, 0xe00dd00be2aU, 0x0U, 0x170012fbdd00U,
  0x150000c6260081ffU, 0xd9000044000000U, 0xf100000026000000U, 0xb100009fc8000000U,
  0xef1dc0c00000b8U, 0xf0db0000cb0000e1U, 0x3700d0030089d2U, 0xae00bcc0d60000U,
  0xd34b932700000f00U, 0x1c26000082b5132cU, 0x270033ccd6U, 0x2200b3590000393aU,
  0xcce200000000b8fdU, 0xc9aa00950000U, 0x40a4002500e700U, 0xe800ddd00030ecc9U,
  0x120025000000adbcU, 0x9e000000e9a60424U, 0xde000040f7008b00U, 0x49000000000000c1U,
  0xdf00ca00U, 0xf3000000d30acbU, 0xf500d600480900U, 0x412ca02200d3U,
  0xda00c61bc0ba00U, 0x3e00000005b800bcU, 0x500cc001300U, 0xd252da2600c5f0U,
  0x22f6bcbbe400003dU, 0x82002dc4e23fa000U, 0x9a0000d71a00U, 0x57000051c9000045U,
  0x440000f400fd00U, 0x0U, 0xcd00f400edbd0019U, 0x1e0008004f0000U,
  0xe300001907000000U, 0x2bfb13ee00fd34c0U, 0x1d000093feU, 0x7921001b07000000U,
  0xea00f20000100609U, 0xf5dfc80000000000U, 0xee0000c1fb00U, 0x7a0057ecf44e0000U,
  0xddb10d000000U, 0x280000000060e5f9U, 0x81eb0000001d001dU, 0xda000011ecfb00U,
  0xd10c000000e60000U, 0x1ece020030000004U, 0xea000000fc360000U, 0xd1000000fa0000e2U,
  0x34b21d0014f60000U, 0x22100014e200U, 0x83f10000000U, 0x311e0000fa6f0000U,
  0x60000U, 0xe03d3200000000f8U, 0xc100000000000012U, 0xb5002100000000U,
  0xb90000000f0000U, 0xe3ac35000000000aU, 0x4fb70006d0150000U, 0xd500f400000000adU,
  0x2103000000340000U, 0x1c38a3003704U, 0xd21e000000e400U, 0xf60200cedc00U,
  0xb4300000bbeb0dU, 0x9100400000001f00U, 0x1b1f081eU, 0x20f9000800000000U,
  0x11ff00200000f225U, 0xf300001300000000U, 0xde0d00000024001bU, 0x7dcf503002800U,
  0xe100e40000f33200U, 0xee3f2400e1U, 0xe310000fc001dU, 0xe40000000bU,
  0x1cd1000200003300U, 0xde00ede700300000U, 0xfc00e80000db3700U, 0x2500001d0e001014U,
  0xe30000001300080fU, 0x270000f0000100U, 0x1aea0009e9e00000U, 0x0U,
  0xe9170000000000U, 0x252dd300f2deU, 0x4d000000000e0000U, 0x1c00fd2500dc0600U,
  0x2bf1001100001122U, 0xf7fa00000000U, 0xe01100000e000000U, 0xf10000ff0000001bU,
  0x10008e700caU, 0xf3000000U, 0xe415e50000000000U, 0xa350022000000f1U,
  0x171b00e1170016eeU, 0x1000000000000124U, 0x0U, 0xf600e94100fff000U,
  0xed3200ddd31f2900U, 0xfbfbed00810b0000U, 0xd40200000600U, 0xae00feU,
  0x49f9006cc2a900U, 0x9b00000000e5af00U, 0x1bdc00000000e6U, 0xc5000000f10000U,
  0x1e0008015800bc18U, 0xc90000004e141100U, 0x2200ff0014d90dU, 0xecfd2500faU,
  0x1e81080d2fda1403U, 0xfe000d07U, 0xe617db002ae80000U, 0xf9f50500b11000U,
  0x1400e10024d30000U, 0x8390afb00cb00eeU, 0xabfb0000e6eb000bU, 0x2a000000000013U,
  0x15dc00cf00000300U, 0x100000e800cff5f8U, 0xce0000000000000fU, 0xd400c1d814eacf00U,
  0xeb000000U, 0xc500d2000922e800U, 0xf700000030000026U, 0x376b004b000000U,
  0xfb0000d8002e0e00U, 0xe200e335U, 0xf926d400150e0008U, 0x1e00220c33f9U,
  0x20008d9U, 0x10041a6cf0000U, 0xec002bcb00f9U, 0xfe1c002418f001cfU,
  0xfe00000000450000U, 0x5700ec0000U, 0xc8cbdf20db0000e8U, 0xed13001c00U,
  0x940015af00e900U, 0xdeda00001c0029U, 0x2200f022c6b90000U, 0x3aa1800000025U,
  0x8f000000303e35U, 0x1300f4bdbb0000U, 0xaddec3ca001725abU, 0x41ca001500c400U,
  0x1a0000be00130400U, 0xca000700000000U, 0xcbfe000000f3d2U, 0xd6d00000U,
  0x2400bdU, 0xcf00f0d3e40006f7U, 0x8ee0000001f17U, 0x24d600000000U,
  0xe3e119d45822U, 0x202900cdf7U, 0x1800bd0000cbceU, 0x3d000000b6000dc6U,
  0xdc3500b1001600U, 0x360000da00000039U, 0xae00000017004dfcU, 0x46d800ea00080000U,
  0xede500005c00U, 0xb800e90000320000U, 0xc700f38134190009U, 0x8aa00a9U,
  0x2500003bdf0000b8U, 0xd7f8003db700U, 0x2c4ebf2ebd0000U, 0xb500000000df00U,
  0x9a000017000100U, 0x1b0000U, 0xda00d60000a800c2U, 0xe9000000a900180bU,
  0xdf00001900000000U, 0x36e02eaa0045e257U, 0x94ca0000c5003fceU, 0x90a000000U,
  0xd50021e600f00000U, 0xe117008100001000U, 0xd40500030000U, 0xdcf20000ccecf4U,
  0xc1003d2eee323fU, 0x33d200d4ccU, 0xe600dbd42b222e00U, 0xb9000000af00e700U,
  0x25ace35100cac4deU, 0xbb000000f20000daU, 0x14280000f400e800U, 0xbd00f20000003900U,
  0xbed0000000000U, 0x6002b0c18000031U, 0xce0000e1d400d6bbU, 0xb000015001e0000U,
  0xee000000e300d2U, 0x27d5000000000bU, 0x1b00b5d9dfcd1df1U, 0xb40000261921001cU,
  0xad0017c50000e1U, 0xc1db0000000cbc0fU, 0xa40000000000U, 0x10000035355300U,
  0xc3000000bb000bU, 0xca0016e800U, 0x6100ca05210000e8U, 0xbf9530000U,
  0xc4001f00c20000U, 0xbd00000000U, 0xfc000f00001200U, 0xa00081c0a1d00U,
  0x90021001bfb0000U, 0xf2f6cb280b00U, 0x309001107001612U, 0xf316fa000000001eU,
  0xe69e000000feca00U, 0xe000000000026U, 0xfd00a80000e70000U, 0x17c1f20000d900U,
  0x81090000000017U, 0xf0000d2000013U, 0xf823fb00f00000U, 0x1e04000017003a1bU,
  0x7cb00d80a0000U, 0x13002e00e6fffc00U, 0xd20000ed001400d7U, 0xd20016f300U,
  0x2700001209f70600U, 0x270000b500191aU, 0xbfe0d9f10000f4c9U, 0x150000000300000cU,
  0xf4d8000000000000U, 0xa0000fadc25f100U, 0xa000000U, 0xfa0ad50400e7U,
  0x7b700d34f1300U, 0x250000006100U, 0x1305a0fc220000e5U, 0xb0000f700U,
  0x1100c200db00fc30U, 0x1f090000U, 0x9e010000000bfa16U, 0xd00100200360700U,
  0xca290000000000f5U, 0xf8d5bbe3fcd5U, 0xb400dd00c9000034U, 0x4efb0000000058d5U,
  0xe1bf00db00000000U, 0x1190000fd303838U, 0x348700001500b3U, 0x1dd32f0010dee7U,
  0x2193c43c001c0000U, 0xac00d70012000001U, 0xaa32280cd70000b0U, 0xac230035001200dbU,
  0xbbbe3f1f3f001bU, 0xcf140900bb5800U, 0x4200000000003c21U, 0x4f00U,
  0xdb00d90000d617U, 0xcfef00001c0000U, 0xcf00000013001eU, 0xcf000000000000U,
  0xd78fc90000000003U, 0xda190000U, 0x16181c27000acbU, 0x2c14e4beU,
  0x21e900000000efdcU, 0xe400af6300U, 0x2ed2f4U, 0xd6440000U,
  0x273c00d511000000U, 0x2002f1a00000000U, 0x44c3da05U, 0x1e3ad6307f00U,
  0x15e1d8e90a02U, 0x4a452900881c00e1U, 0x5bca4a000022112fU, 0x4e00U,
  0x300000cc0000cfb9U, 0x430e3800000000U, 0xe20000c3cd3dbeU, 0xc4a700a600f300U,
  0x4bb7454a00003d00U, 0x20c1d54e32001900U, 0xd804ddc5000045U, 0xbebec5c5a700baU,
  0xb3450000U, 0xc10049fb4200d4U, 0x8e00000000002935U, 0x482db800000000U,
  0x2c2100ae000000fbU, 0x8f00b6490000a900U, 0x3800d4d900U, 0x3300bd2fd80000U,
  0x2b8250be3000cc00U, 0x5500bce03ec7d83fU, 0x64c200ac00d64f38U, 0x2500ce0000be43U,
  0x430000b40043002dU, 0x520036570dd00000U, 0x9e0000332d003300U, 0x5338220000b8c4d1U,
  0x1acca9e4ce00dcU, 0x1a2100001c00b300U, 0x14b90000c1003000U, 0xce24b70000c000U,
  0x280000U, 0x27c10000af7a00U, 0x313900003e2cU, 0xd726cebf00a20000U,
  0x321d00cfb300ab00U, 0xd9fb007500U, 0xc0000bb97000000U, 0xb6810037001a00U,
  0xade90000000000U, 0x2600460012000000U, 0xf600c500000cdb00U, 0x5100000021ccU,
  0xda0000f300004400U, 0xeac400000000edf9U, 0xf7dc000000000018U, 0xc5002314002b0011U,
  0x2700190000242ddaU, 0xbd2025000038ef00U, 0xe4de14f5ca2a35d6U, 0xf400000024U,
  0x22b9f40000361100U, 0xec000000000026U, 0x218100dd000d00U, 0x1f18fd00140000d4U,
  0x22000005000000U, 0xd01f252307000000U, 0x261cbb00e4000017U, 0xc600000be0002700U,
  0x1cf500000000b800U, 0xe4de290000000000U, 0xad29b20005001100U, 0x25040000273600U,
  0xdfccf20000dd00U, 0xac0014121aU, 0xec00edf800U, 0x210e00342e000000U,
  0x29000000f60f05U, 0xe300ff09110000U, 0x4d000000ce260015U, 0x312f0000e3U,
  0xcc1bcd1be40000U, 0x1a1d0000f22a0eU, 0xfa0000003c003c05U, 0x200000df381d10U,
  0xac0000360918fbU, 0xce2513e21e1900e0U, 0xdedcdddf00e4faddU, 0xd237cc35d90000cdU,
  0x21acdbeffdc3000fU, 0x41090b21U, 0x2100002dd9U, 0xee00f40fcd00d2U,
  0xd10000250c004021U, 0xd6100000321100e1U, 0x20e200fe00U, 0x1437000018000000U,
  0xec000021000030U, 0xc0000000260000U, 0x29c7ec1f0015U, 0xa000000000000d3U,
  0x28ee2e00e300380cU, 0xf8e100ca000000e7U, 0x600160000d9U, 0xd6f1d72938b4e625U,
  0xd400d300170000cfU, 0x3600301900d000eaU, 0x1a35371a00280d00U, 0x1024eeU,
  0xeffb000900f2U, 0xde00fb0a00000000U, 0xd2f3f700c90000U, 0xc70000c00000c81eU,
  0x812818f5000000U, 0xcb004a0000eeU, 0xf1000000d500U, 0x2100170000060000U,
  0xee00c600f700U, 0x153a0000000000U, 0xe90000000000U, 0x2542003bf344f500U,
  0xec00f30111001d00U, 0x3000000000eaU, 0xe9dbc50001000066U, 0x291300000000U,
  0xb50000U, 0xfb00ed22003c0000U, 0x4526000000U, 0x142700002fU,
  0xe48452002800cf26U, 0xe93654f2002d00U, 0xcc00000090130000U, 0x47f5091b0034U,
  0x269f3700000048bfU, 0x430e0018060000U, 0x3100d800050000edU, 0xd60014000000c8U,
  0xe40800c345ee00f7U, 0xf8f90000d90000U, 0xb700ab00005eU, 0x1700c80000003cU,
  0x410000000000U, 0xe100000000bdU, 0xc2b28d172cdaU, 0xcc2100e41a00f800U,
  0xcd340e0036caU, 0xc6140000c200f72fU, 0x5a000000f500e2U, 0x1e000fc0ba0000U,
  0xd100214b343b2200U, 0xde0000522200U, 0x360098c8000000U, 0x24a00000cda30000U,
  0x39002381U, 0xd90010cf58001cU, 0x8b573befe9000000U, 0x10000b4008ffe97U,
  0xb3004400ded100U, 0xbf6305280000U, 0xf000000cb2aU, 0x13003000c3000000U,
  0x332f00001d1c4000U, 0x3d4000000491bU, 0xe0000c1cb00dc00U, 0xc3db32e3e000c1d6U,
  0x4fc500264f1dc4U, 0xf4000000001700d7U, 0xe7003d00000000U, 0xc3e7d23300d1aaceU,
  0x6ed31d24800U, 0xe1ab000000000043U, 0x2f00003f00004fU, 0x520000U,
  0xe12816b2110025U, 0x320026000000c6U, 0x42c4160000001c00U, 0xbc003600001600cbU,
  0xb1b0cd00caU, 0x2a473cc40000f440U, 0x364d4d6a00c300U, 0xfcec103a4800b000U,
  0x2100330000000000U, 0xfa2a0000U, 0xfa00c3000000d000U, 0xc00e100e30000U,
  0x530000001d00005eU, 0xd300f1000000U, 0xe200271900ccce00U, 0x343d3ddfdf000500U,
  0x150000002ed80b00U, 0x3d0000160000U, 0x20e4ddc84200c4c3U, 0x1ba3c4cd00ddbdU,
  0xe538140000bc00U, 0x7a00e90077007f00U, 0xf50091000000002fU, 0x35e311001b00001cU,
  0x1bedebee00000000U, 0xca00000000c00000U, 0xd40007d2c100U, 0x4433d33200b3fcc8U,
  0xf0f9000000000000U, 0xb50000da0000b11aU, 0x2b22110039U, 0xd100fb00eb1a00U,
  0x4d0042ee0500000dU, 0x8600090b15250000U, 0xd30000dea0ea0000U, 0xd051b4c00df00U,
  0x2000033630002600U, 0x10e337120accU, 0x8100001c1100U, 0xbf1300004700ef2fU,
  0xeef3000048b00016U, 0xedU, 0xb200110000f4U, 0x1500f2c72c9900d6U,
  0xe0aa2e000000001aU, 0xf100000d000000d7U, 0x4b3cd0000001eU, 0x3c000000dd3b0035U,
  0xd5000000d900U, 0x2000b4fdU, 0x897dcf8d600f4U, 0xd00600000U,
  0xddfbc10f00000000U, 0x864400003e040000U, 0x4900d2U, 0x49002700164b48U,
  0x270000e30000U, 0x29060092000000U, 0x81360033cc00U, 0x35001b2500000000U,
  0xd2001dfbed00dc00U, 0x120000000034d5U, 0xf3d2001cca000000U, 0xe01b000000U,
  0xa6000adef5a019U, 0x28ec320000d5U, 0xb508410000ea004cU, 0x353d2b03004a0032U,
  0xf70014U, 0xdc00000000ea30d9U, 0x38d0c20000e60000U, 0x130000c41e0016U,
  0x25d0e8f700001551U, 0x6001100000000ddU, 0xd9b934d3d040c4U, 0xc800U,
  0x26e5000000000046U, 0x11000000d33d00U, 0xecf00c4150000U, 0x12000000U,
  0x2fd000db21009e37U, 0x1ced10000003c11U, 0xb85a3000054b02U, 0xda000011000f0012U,
  0xf848bd000018eaU, 0xc000c70cbeU, 0x2b0900ff00280000U, 0xcc00d500d60000f6U,
  0xdcf2001500f75e00U, 0x1d0f0000f700fa00U, 0x140000ec3c1a0000U, 0x3ecb37002500fdU,
  0x35240000b21d00U, 0x1ef20000fff3U, 0xf600c8000000d9f9U, 0xe2c1e70000b8e6U,
  0xe1f000e21f1b00d0U, 0xd7131600d7U, 0x1a00fcd700d100b6U, 0x18002b00df160000U,
  0x1f00001bd000f9U, 0x32200000178100U, 0xd82acee700eb00U, 0x2700003f00d0d9U,
  0x7d40000ed49f0U, 0xdc0000290000d525U, 0x261f00ead7de00U, 0xefcb00cae90000U,
  0xd929d500002400d0U, 0xcac000221900U, 0xdf00f900000000bdU, 0xcb2a00d300ceaadbU,
  0xfe2e000000f500U, 0xe50000U, 0x1500002300240000U, 0xeb00d30000dacacfU,
  0x2200000ae1004700U, 0xe40000241c00U, 0x2000240000cd00ddU, 0xd4d5c6c3d9e9U,
  0xf600d71500dadfU, 0x7200cbe200001e00U, 0x622906000000c900U, 0xe3001c000000ccU,
  0x231c3100ff3a0000U, 0x5300da0029c800c2U, 0x3700000000daU, 0xca0b00ec0000U,
  0xb7be000000U, 0x2100f600000200U, 0xbe00c2U, 0x28003a000000U,
  0x2e002d00650000U, 0xd4c100269500da00U, 0x8d0000ba0026U, 0xa1002b0000000036U,
  0x6e3d100000000U, 0xe500c80000ab50b6U, 0xddd13da4000022U, 0xd100e7d70000U,
  0xc81942ec305a00U, 0xcd33003600002130U, 0xeb00003ded360000U, 0xf32eaece00ae00U,
  0xb3c1d60000U, 0x5600a400ab000000U, 0x3b00d1000013U, 0xba4500ac0024002dU,
  0x293100004000U, 0xc6000032000000U, 0xef00235708000000U, 0xcb3600d9002426c3U,
  0x30d1bf00dd0000U, 0xdf000000000a00U, 0x2aab0043f9af00beU, 0xd31c000000U,
  0x510000b600d900U, 0x6fcbb9ec00be0019U, 0x43bba4d700ac0000U, 0xfb00e0U,
  0xa8000000390000f8U, 0xd8d613001c240000U, 0xf0000000U, 0x7f00d400fac1ddU,
  0x39002600c2930000U, 0x6bcf00000000e2U, 0x420000e10000d6U, 0xdced00c10000d2deU,
  0x23e9ec04001fc7U, 0xfe0000e0250048e1U, 0xce0000000014e100U, 0xbf00480000cb0000U,
  0xcefdcee300081700U, 0xe400000000U, 0x270000c738e1b6U, 0x1f00c10000000000U,
  0x1b0000fb35000000U, 0xbef3be08220031U, 0xd23ed1000000003eU, 0x38372e1c0000U,
  0xca00250000ceU, 0xb91a2800c202d80eU, 0x3e38003db7cd1c11U, 0x11e2003824U,
  0x340000005d00bac9U, 0x4ad7000500000000U, 0x440025bbbfU, 0x1400d500310000U,
  0xe185da000022ff04U, 0xf91b003f00007fdbU, 0x8738cf00efe1ef00U, 0x1a46e9173f0000U,
  0xe700200000e6U, 0x2d00f30a0000U, 0xbd2e082100e0f82bU, 0x341d2500001a3300U,
  0x22e800003905U, 0x160000U, 0xd6c042ef3ecbf5U, 0x27001b00U,
  0x2300ff000034U, 0xd300000b120007U, 0xf00e3f9f7e11bd3U, 0xde00001e004ce818U,
  0xd91d0039000006U, 0xe00d8bec6000000U, 0x426cd0000e30013U, 0xe0e1f41300000018U,
  0xb7000000000000U, 0xf60dcc00d7000021U, 0x4c00000000150000U, 0x1eff002400000000U,
  0xd1cfecd7d00000daU, 0xc719000004e1U, 0xe2e6d7ed00U, 0xf5002100e600ef00U,
  0xc900d6f2ed0000U, 0xdb0000d317000035U, 0x1ce50000da0000U, 0xe3f4d7d2d100e9dbU,
  0x18ead40000d500fdU, 0xddd4d20000f1U, 0x3b110000dfc72df0U, 0x17123900bddad400U,
  0x111500bfd4000000U, 0x24e300bd00000000U, 0xfce939124400U, 0x1a0000fb003c0000U,
  0xb43500000013U, 0xc222e100b9fb00fbU, 0xcd00000006002700U, 0xdc00f1d5000000U,
  0xd4c90029004c00U, 0xcc3000f200008100U, 0x1100d30000150000U, 0x220000U,
  0x203ce516422d23aeU, 0x28001b000012U, 0xe5000000b50043d1U, 0x2300e8001e00U,
  0x21f100d5e30000c4U, 0x5f00000024315900U, 0xc2e7a2000d220000U, 0xdc330000ccU,
  0xca0000U, 0x44e6000044000000U, 0xac26f600dbe9d400U, 0x32dd002600cb00U,
  0x1000000000e100f2U, 0xe400e11400acffe0U, 0xe7217200000000baU, 0xde19250000ec2500U,
  0xecd4ddd6dc2ceb00U, 0xecdcd100002200U, 0x230c000000da00U, 0xe4d500000017U,
  0x1900000000e1e700U, 0x7f12000000b90038U, 0xda001100ba000000U, 0xdbd91f22U,
  0x9df2000000f923U, 0xd9002a00000000d4U, 0x67006a0000000000U, 0xcc0000c30009U,
  0xdd37e22a000000U, 0xd70000b52f00efU, 0x3e0000cfddf336caU, 0xdfb8d5000000e4b2U,
  0x1ee40000000000c1U, 0x59350000fb2600eeU, 0xc00d2001cda00U, 0xe2efda0000e9U,
  0x1f064d1bd21783deU, 0x1af9dbd600c63400U, 0xc1150000fe00U, 0xded41e00000818U,
  0xae0019011c4300U, 0xf71107001800e6U, 0xece9da1610f619e2U, 0xeafb0000000013U,
  0x22000000001a001aU, 0x13ed00001cU, 0x1a00f32319U, 0xff1c171b0013U,
  0x1a81f10000000000U, 0x1d0000U, 0xee21c00000dc0000U, 0x4fd0ff00000e000U,
  0x1e0027efU, 0xdef40000001a00f6U, 0x16bde000f600eaU, 0x900171f06ece300U,
  0x190022f2e8de30e7U, 0xf9f6e4dc0000f100U, 0xf5dd00eb1b0000U, 0x1125001500000000U,
  0x190026001a000012U, 0xdd0000001031d300U, 0xe00019f5e400dbU, 0xaeb211d000dU,
  0xd8100b1d0900U, 0xec00e8dc29e50010U, 0xca00cc0000000006U, 0xe6000000e8edU,
  0xfa001302000000U, 0xe4e40023090f00U, 0xc6000000e2000000U, 0xe6000a00001700U,
  0xcde800df2900f4U, 0xb916d70000040000U, 0xdfdee32000000010U, 0x1380000000000U,
  0xf1f5f300000000d8U, 0xdc00000006000800U, 0xeaf526000000dbU, 0x202a00c3f40031U,
  0xf9000000U, 0x1c00000000150000U, 0x400bbfc000000d7U, 0xd700ee00d2df00f5U,
  0xcf500000d6bde900U, 0xd529ef00ecd000U, 0xe7b600e1dd2610U, 0xd72200e3000000U,
  0xc40000000edff3U, 0xc0000fc000000U, 0x160ccb00d4d8ee2dU, 0xdedf000000010000U,
  0xe7f60000f70014U, 0x812e50000e4ecU, 0x8f7f6000011e6U, 0x700000000f40020U,
  0xee000000001dU, 0x23be0000U, 0x81000000e4ec0000U, 0xf50000001f0000U,
  0xb2e9ab0000ac3600U, 0xe6da00e304000cU, 0x140011d9f4001eU, 0x800070000283c34U,
  0x1bc4cf2800000000U, 0x1d0022e300cfff00U, 0x2f1cac01230b0000U, 0x51a1520001dU,
  0x230000f1e72200U, 0x250000330000f0U, 0x17f500000024U, 0xb240000000014U,
  0xf2c6f90000000000U, 0xd3150025000000c8U, 0xc1200000000001cU, 0xcf00e000d82b02U,
  0xfc00db002303U, 0xe810ea0000ee00e4U, 0x950000ed0000U, 0xfe000000140000U,
  0xf600002ee91500U, 0xddc70000c2000000U, 0xaf001619e3340feaU, 0x400000090016U,
  0x1a000000c700001bU, 0xb428300000e6dd1eU, 0xf70aef0200U, 0x17fae800ed0000U,
  0xe800c72610000000U, 0x192400ec000026U, 0xdef19a0008000000U, 0x8c8cdc20000U,
  0x25daee00U, 0xe800d5df0000U, 0xcd000000003f0018U, 0xfe0032d7250000U,
  0x40000000f00f100U, 0xe2000000bf00U, 0x23ceed0005U, 0x28060000001e0ae3U,
  0x600001720c4U, 0xd41800f1de00c3c1U, 0x8100f200d000U, 0xff000000b93700U,
  0xcc000000e0000000U, 0xe700e400d50000e1U, 0xa7002fU, 0xd666000023e900U,
  0x379cb5104faa99U, 0xad000000000000U, 0x811d8c000d30cU, 0x2000001ccf0000U,
  0xde3U, 0xd2f30030001400edU, 0xe29a00U, 0x243500160026U,
  0x2df20000f5bbd01bU, 0xbd2f0000210211U, 0xa900000016e30005U, 0x1e0dfa1800005000U,
  0x800001400U, 0xc6001f003600U, 0x3737f400e8e7cf00U, 0x25000c0000e0U,
  0x2500000023cc0005U, 0xf61a00c04d00000cU, 0xbe000030dd00fc15U, 0x6190000c7e24e00U,
  0xd400000000f600U, 0xf2e000000c2c1U, 0x2aa70007ed3d01U, 0x24d900003b00U,
  0x28000000c6U, 0x2a42000000003bdeU, 0x3bdcb3f2004600U, 0x29df009e0000U,
  0xd5c31d51003ed8e7U, 0xdb00000000313bU, 0xecdad90040U, 0xd9007f0000afU,
  0xe43ced2f0010e7U, 0xb4004704490022e4U, 0xfa000000280000f2U, 0x11000000361f00U,
  0xd600da2b0000001eU, 0xf1d328d8dbe50000U, 0x1000c93c1dcb2e00U, 0x10001a0800022200U,
  0xdb0000001a00U, 0x2ac80000bedd00dcU, 0x19bf000000d70000U, 0xf642000000U,
  0xc90000001a0000f0U, 0x1c160000cb00eaU, 0xd1e40f02U, 0x9f3ec00fe0000f0U,
  0xd5003aU, 0xafff00001df30000U, 0xc5bd00001b00f6U, 0x25002dU,
  0xbc00d7002b00U, 0xa00000000e5U, 0x4000032000000U, 0x3000000310000U,
  0xd1000000e4000e00U, 0x800eaaf1047ceecU, 0x1500d50b000c0aU, 0x1500e80000000000U,
  0x50001002a004a00U, 0xeb00224d0e0635U, 0xf700009c33000bU, 0xcd001000000000U,
  0x9f00003c000000U, 0x1000ec0700e2U, 0xc9f2cf00U, 0xaf0000ea1500e2U,
  0x81232d2300d100U, 0xd8052be339330000U, 0xed0011000000U, 0x22fd00103bU,
  0xf7bd0028f1000000U, 0x100000003c28d4U, 0xdb0020280eeae200U, 0x1321000000000042U,
  0x11df3c00de00U, 0x1d00000aef65e0U, 0xf00bb1000efed1aU, 0xe70244e60028e1U,
  0x4400000020U, 0xd7bb0b00c02200U, 0xfc20551700e21c1aU, 0x2e00U,
  0xbd310000b4deU, 0x36390000000e00U, 0x51d900c2000bU, 0x2a2cfb00c400c6dfU,
  0xd5fe000000000013U, 0xd0250000e5002a00U, 0xe9ceaa1800003ad3U, 0xfca85fea0000d6dbU,
  0xf2d000cd0f2717U, 0xcfc0ca3400U, 0xa50000ec00U, 0xa6fe2eaf002fb8U,
  0x1100b8c900f33b00U, 0xeae8008a00002eU, 0x2255aa0000e602U, 0xbc09ef23e300c400U,
  0xbb0000000011d000U, 0xc6cf0000e300bd00U, 0xb7c4dcba00290000U, 0xa3b404e40025c200U,
  0x9325df00aa00df00U, 0xe1000000ac0081b2U, 0x12c20700262900U, 0x4401bc26bdd400e6U,
  0xd62f00000067U, 0x3b00002e0060U, 0xb0d6000017000a39U, 0xe6042900f6002c00U,
  0x31c0be2596260025U, 0x2a00002bU, 0x1400c9d7000000U, 0x100cf160000U,
  0xf100c3ebbe00d10fU, 0xfd0000009700U, 0xed001e000000d0U, 0x1b00000000U,
  0xe0000000000c64cU, 0x4f18eefe1fea2434U, 0xb7e7d03395df0000U, 0xed13cf001700U,
  0xe60000f3U, 0xe30000342000e4U, 0xc9139e13c623e500U, 0xdf000000020U,
  0xf200e100fe0c0000U, 0x1e2dc200000028U, 0xe80000e4e7000100U, 0x0U,
  0xa5000000ac0000U, 0x1c00U, 0x18e100230000ed00U, 0xcbfed7e200be4fU,
  0xc8e200dce69800edU, 0x1a4b00ff00cd0000U, 0x254481fa2300e916U, 0xd30000002534fb00U,
  0xe4003e00001bU, 0x4d48be00f5d900U, 0xcb0000041bU, 0xd53de9000018f3U,
  0x60000c7001dfd00U, 0xc5000000aeb4U, 0xea0000d9000000U, 0x1218001f00d40cU,
  0xe7d5000000fcda00U, 0xc30000ec12fc0000U, 0xfff0000ed0000d7U, 0xbd0000110000d7eaU,
  0xc000fU, 0xe30a000000U, 0xfe000000U, 0x1d0054060e001c1aU,
  0xf4000000082e12U, 0x60000e8f400f9U, 0x7001c000000edU, 0x81400000edc0011U,
  0xd800000000f52000U, 0xcd0003c50b00U, 0xcf008100af00f8d0U, 0xf200f4000000fe00U,
  0xcc00e70003df00U, 0xbbd8000017000000U, 0x1aad000000ddebU, 0x110000eff0340aU,
  0xe44092e5000000f1U, 0x1dde0022001bU, 0xd4eee700001e0000U, 0xda001e00ce003a00U,
  0xfe000000df000d00U, 0x53e7d30000002c00U, 0xb7000000U, 0xd200e40000de0000U,
  0xe7d900000000U, 0xdcca19002e00U, 0x3968001d34d720U, 0xcd00d0ebeb00U,
  0xd2cd00fa0000313fU, 0xea24000000U, 0x1d141700U, 0x470000e3fef800e1U,
  0xda00000000fa0000U, 0x150000f4000000d1U, 0xfc000024fbc6ec00U, 0xeffa003d0200U,
  0xec00e20000caa917U, 0xf500001400000000U, 0x8d90000dd00fb00U, 0xd1d500e800f200U,
  0xcd810000e8160000U, 0x40e7290018000000U, 0x32e2cbe21d310000U, 0xf009000000d400cfU,
  0xd100002500c9df00U, 0xda202300U, 0xd71e100000f500U, 0x1bdd3d0000270000U,
  0x2600e1e0e200001eU, 0xf70000ed0300c700U, 0xf600210030U, 0xd9b600be140100U,
  0xe40000001bef000eU, 0x28000000cd0021U, 0x3c00c800f724d404U, 0xe32b000004000000U,
  0xf10014cb4c17U, 0xef2000d0e0060000U, 0xd3e4e3320f000000U, 0xec00164e0000U,
  0xa000000060000U, 0xf0001800fa3400b8U, 0x6d00def4003eU, 0x1900U,
  0x4eee0000001abc00U, 0xe000c2001e00U, 0xe500000000U, 0xd8000000e00026U,
  0xf6f5350000f900U, 0xd80000360000U, 0xcaf4b400042d00U, 0x9000019fa2800U,
  0x5150500ddU, 0x301f00e90000ff00U, 0xeb0ab2001200U, 0xe80000d2d40800U,
  0xffbad2e5d5d600e3U, 0xc9001d3300001700U, 0xf00000001000000U, 0xf0141702deU,
  0xb0dcd900b3f7c8U, 0xfd2d000000002528U, 0x232b00bca4000000U, 0xbabd580000000020U,
  0x14U, 0x200b54800e100U, 0xf20300b7cc003bU, 0xb5d2f10000000000U,
  0xcc000000U, 0x252c00000000U, 0xe000002ff4000000U, 0xf2dc3220d100U,
  0xd80000e1d1e00d0bU, 0xd4002d2e0010e0U, 0xca00c000001b1f00U, 0x54e97f00b900U,
  0x46af003300dcc4U, 0x1900d9df21ce00U, 0xe700fbde00000000U, 0xeb1c0000b906ea04U,
  0xe000000100c00020U, 0xcb19002d00feU, 0x2d1a0000f2000000U, 0x29d300bc00ddU,
  0x1e2c00da00d30000U, 0x1e3300fad800U, 0xe200d8f1f42400U, 0xe40a000dU,
  0xef002324141e00d1U, 0xd70000d800U, 0x8100000000000000U, 0xc00000000dd29d2U,
  0x8000bf100003d25U, 0xdfc00000005U, 0xea1c3905010000faU, 0xde002df510f82d0bU,
  0xf405000000U, 0xed00U, 0xf400400000000000U, 0xe00dc1300001600U,
  0x1b00f6000d0000d3U, 0xbfc600d70019fe35U, 0xe011280000d2d5d5U, 0xe0f9ee0029d700U,
  0xb40000d12ed01100U, 0xd90038df0000fee1U, 0xbf000034f800cf21U, 0x1ed500004128003aU,
  0xd2000000f3e300U, 0xfbd00000e100U, 0x3e00223dc3e200d4U, 0x38000016e948563dU,
  0xc9020000d00010U, 0x200037d63700f31eU, 0x2ad100d8ee1200ddU, 0x1d000000000000d9U,
  0x4afe00f6U, 0xea370000f3U, 0xfa241dcae7U, 0xd700001e00070000U,
  0xfbd6000000000dU, 0xeb001d000000f700U, 0x1edb001a1acbe1U, 0xc400f31e050000e2U,
  0xd200e7000000fc0cU, 0xd60000e100001e22U, 0xfcc200de000000U, 0x80000f116e3U,
  0xbef2fU, 0xcf1da4addU, 0x1e00eee323e10000U, 0x24003f1800d100U,
  0xd300000000002aU, 0xc03413ed00000000U, 0x3d000008000f1500U, 0x5f6e52900040026U,
  0xe700df1ce6d25200U, 0x24001d0000002eU, 0x33000000fed1c800U, 0xc3001bc01dU,
  0x46da00b900bd00U, 0xb9300a00000aef2fU, 0xd600001ee600U, 0xf1004100f5e3U,
  0xe1000010c608e515U, 0x8100dc00003a1100U, 0xd800e319001d0000U, 0xde070d27000000c4U,
  0xf0d91f2ad51e2511U, 0x2100c600f10000U, 0xa000a8001a2a002eU, 0x284e00f600bfea00U,
  0x811e260000fe67U, 0xdd250000f300401dU, 0x3900df25001a00U, 0xcfed000000cbU,
  0xdabfe00ae700213eU, 0xb232617f3000cU, 0xae0000f70021df00U, 0xea5900d210000037U,
  0x201d00062100U, 0xe2200ea07000013U, 0xf2000bd22f5400U, 0x16000000U,
  0x2e36c9fa28f7U, 0xdf00d2f3U, 0xf700000017121900U, 0x24120ff0311e0028U,
  0xece40036d8c8f8U, 0x612700eb43dc0000U, 0x2400bab2241a4001U, 0x180204eb3d002725U,
  0x2100f50014000dU, 0xf0000e3500160000U, 0xecbf00df36002aU, 0x130026000fU,
  0xdf2b0000fb1313U, 0xd3003fe60035U, 0xf2152fd931e7000bU, 0x3701e4000000U,
  0x2827000025U, 0x5700220000d40826U, 0x3800ae00d00037U, 0xf400003100e500U,
  0xcd410000e60000U, 0xc20538373100U, 0x2a000000c0000025U, 0x150000U,
  0xb70012000000a600U, 0x2749005c00003fU, 0xe00037000a0023U, 0xef1b000000e400U,
  0xce0000e100001a00U, 0x3d000000U, 0x270eff00c700233dU, 0x2de005000000U,
  0x30a500ee20000000U, 0xad0800e70000f400U, 0xc60f000000c300U, 0x4100009cebU,
  0x240000c60000U, 0xbe00b40000U, 0xb80000e500004e20U, 0xe1000000001a0040U,
  0x3900000300U, 0x170000293500U, 0xb6f3001600004212U, 0x2643d9003b091d19U,
  0x258c00001f18e900U, 0x280000002d3f40U, 0x2b0100006800U, 0x3700b80000cc0000U,
  0x2b0000e800000029U, 0x603f000000000000U, 0x1a00000039d40000U, 0x60002f0039001eU,
  0x1ac01e0038000058U, 0xe1007f009600U, 0x19000068003400U, 0x5700004831003bU,
  0xb300d11c0037eaU, 0x4b000006000000U, 0xa0f00ddbe1cd2f7U, 0xf00014d90024d9U,
  0x23000000e300e800U, 0x20000ef210000U, 0x2d00d400dceeU, 0x2c0000001600U,
  0x30df00dd0000ce00U, 0xf2d7000000000000U, 0x18000000U, 0xb5d70000e11a0011U,
  0x9150000002f00U, 0x13ed000000f7e1U, 0xba11150000000000U, 0xe4000f00d40000U,
  0xea00caeb2900f000U, 0xca00000700160000U, 0xf3d046ead9d3d7f2U, 0xe300dd1700002bU,
  0xe01300f1000000U, 0xdd001400dcd0d8U, 0x24190000da000000U, 0xb4ea0000080000e4U,
  0x15000f0000001011U, 0x8100000000de0000U, 0xb600b100eadbe6f9U, 0x431e91d00e600U,
  0xbd0022e53000U, 0xf20e0fcfbf00d100U, 0xf7d500e30000U, 0xfae2440000e10028U,
  0x20f5cf00f5161a00U, 0xd704000090f7f715U, 0x13d3000a00U, 0xdaU,
  0xd228002b02c70000U, 0xecad0000a500U, 0x35003000001b00U, 0x48bde2002a00U,
  0x8125bf00c41d00U, 0x3b4a00ad5bec13U, 0xa50000f100000000U, 0xbab9e00000U,
  0xbc8f0000b2da0000U, 0x33004500de0000U, 0xa373a300c20032U, 0xba00c90000e5c8U,
  0x4e00b43129000000U, 0xd12ac6ec0029002dU, 0xb621001d004200U, 0xa828d4a20039U,
  0x510000003d009e69U, 0x2dc9ea00003bbcU, 0xb8005900008e3bU, 0x29002f3200U,
  0xf7adb7000000f4U, 0xce000000000000U, 0xd4000061U, 0xe20000ba00430000U,
  0xdc2d91a5340000U, 0x40420000000000U, 0xdcff000000f7U, 0xd5f71bf29a000043U,
  0xc44500c2c3b700U, 0x3cefd6000000ee00U, 0xc73b6200003100U, 0xb400c900cd001600U,
  0x363100002e0000U, 0xd249b90000b7d3U, 0xd23f540000008818U, 0xda0000ca00390000U,
  0xc0ab8c0000e8U, 0x2a00bf0000de00U, 0xd10dba273354ff00U, 0x1400a5250000002dU,
  0x1db3000000004734U, 0xdb0000ff0000U, 0xeb0092001a002d3aU, 0xecdb000000edU,
  0xdf001cd9ce2647U, 0x1a00000025000000U, 0xd1120f16c2f100U, 0x200000000f904U,
  0x1b1400001a192037U, 0xd62fc3ee0000U, 0xbd0000e23d32U, 0x270005U,
  0x23ba0000c3000019U, 0x66002b0032001c00U, 0xda10000000000U, 0x2e00e020e52f1900U,
  0xd4ddf70008002100U, 0xfb000000d3U, 0xeb05d3fbd7000000U, 0x2322000009U,
  0xdbf7df161607ee00U, 0xd0004000000U, 0x750002d6cc000018U, 0x3ee2000000000000U,
  0x33bf81000000U, 0x7c00005000e660dbU, 0xcdb900f208d308U, 0xf3b20000bf001aU,
  0x1d00000000010050U, 0x7cee15d644000000U, 0x31dc0000260030faU, 0x220000002700001dU,
  0xf016000000U, 0x2714240000e60000U, 0xd91b000000090cc5U, 0x9c00c2c90000U,
  0xd000c700ee00U, 0xf100000049e0012bU, 0x9900c00bc300f900U, 0xb700da0500000027U,
  0x1100ff00d5fd0000U, 0xcef6d6U, 0x540023d50900ddU, 0xd100b70000dbd700U,
  0xc00e8000012e4f5U, 0x1700b828U, 0xf100000000c9efe5U, 0xc1e70000f2ceU,
  0xb7d7002d00003fe7U, 0x1f003afeec000000U, 0xd229a51a00000000U, 0xec0000e6U,
  0x112725d2000e00U, 0xb81be70000002934U, 0xa500efb2e1b50000U, 0xc30000a5e500U,
  0xd5004e08U, 0xbc00000000003d00U, 0xecd83e1e2d00U, 0x3700392ce7f200U,
  0xd400003122006a00U, 0x240000d723cd00U, 0xc8d50000233407U, 0x290013e3001c0000U,
  0xe50022355c3800U, 0xb716161f81d100f1U, 0x260000000000abU, 0xb100000067afU,
  0xec00000000ceU, 0xf900005b000000ebU, 0xe92d000012006100U, 0x3dec0c000000U,
  0xdd00002e00d354e6U, 0x600c600000000f0U, 0xec000000000000U, 0xfd0000000000c900U,
  0xda00000000005200U, 0xfb00d70934c300e9U, 0xf1000000dbf400U, 0xe900000000000000U,
  0xccedf7f85807U, 0xee0000a70000ebc9U, 0x31000200bee100U, 0xda00c50000c200U,
  0xff0000001400U, 0x29186100a936U, 0xd71cc13100e800U, 0x151a000000d6U,
  0xf500000000U, 0xdb1f0000d400U, 0x110000e228000000U, 0x1c00000021U,
  0x41003a00150035U, 0xaf052200000000U, 0xb9d878000093U, 0xbd000000c5fc0022U,
  0x1b00ef0057960000U, 0x9217baa31a000000U, 0x41cd00b7U, 0xcd0000fef40000U,
  0xe7e50000000066f1U, 0x30f00000000efU, 0xebe4bf00051b0000U, 0x2f0000810000U,
  0x3adb0000000396U, 0x2d00860002eeU, 0x832f000053f60020U, 0xc6423c20028U,
  0x3f00010075U, 0x1d002d60U, 0xfd00e1d600d9U, 0x390000cf0000U,
  0xcb00d20000000000U, 0x27002900b3da00U, 0x810000000000U, 0xba00000000c900d0U,
  0x39fc005e00000000U, 0xb6d3000000000048U, 0xdd2bce00U, 0x27d400ccfa00U,
  0x3800000000001000U, 0xc2ce000049450c00U, 0xdb00fc00b600U, 0xd3000000c46c00U,
  0x550000001500U, 0x340045580033002eU, 0xa6004400cecd2737U, 0x11dbbd00c9a80a00U,
  0x2700e20000d2d200U, 0xea500000b41a003bU, 0xa84a0032a3002140U, 0x5f000000000100beU,
  0x49c3c13a380046d1U, 0xc6c43e00U, 0xe1e7663132d90000U, 0xc8bdc8a2003e0000U,
  0xea0000000000fc00U, 0x4591d271003400caU, 0x92000000001500deU, 0x3da1bfb600a50000U,
  0xcfd73200008f00U, 0xe7c9b57f18267ce6U, 0xf400000f02000000U, 0x215800ff000000daU,
  0xca000700d300ec2bU, 0x2a0000b2f9001500U, 0xc7ddbd003000U, 0x9d2600002400U,
  0x338e0000d4000023U, 0x4b002e0058fc0ae6U, 0x3800ab0628002b24U, 0x1908002000U,
  0xe281000000003400U, 0xf000000000000U, 0xb9e3000000000000U, 0x2ce000002134003aU,
  0xcdc0000fed500U, 0x0U, 0xe92d00fe00U, 0x170000000000U,
  0xe000004500fd00f7U, 0xb470012fa000835U, 0xddf98fe9d1003e00U, 0x3700000000U,
  0xf51700003c3000U, 0x2c0055b100e416U, 0x1c00f800003500U, 0xc80000de000000U,
  0x2f91000000bf0000U, 0xadb100bf002e0000U, 0xd800cf0000000021U, 0xb22d224003700U,
  0xd71b00192400U, 0xc11200e400e9e2e4U, 0x13000090ea1ff8U, 0xc29003dc7U,
  0x3c102c0000U, 0x214600dc0919U, 0x3a0016c5dfd51f00U, 0xe00000000e900ebU,
  0xe400d5d6faadc5U, 0xeee705001200e2U, 0xbe19000d00cd1400U, 0xca00051c00d800U,
  0xcae30011000700dbU, 0xc1e5c4f100ff00d0U, 0xd9d682e0a1000000U, 0xfc00f71900362cf8U,
  0xaeca000000a96800U, 0xbd1dad0004512d03U, 0xcb2000ae242b00U, 0xf0ec1e00002100U,
  0xa4dbe80000e7ebU, 0xa1f0019dc000004U, 0xf70d00d0e2cc0000U, 0xef3ce9cb000000e7U,
  0xdb0000fa000000c2U, 0x15c61836f70000U, 0xd6e59f00e7dd0040U, 0xd8000000d41d0000U,
  0xcb280000000013U, 0x200f2003a060000U, 0xef15009a0000003eU, 0xf60042U,
  0xb52eef003bd80cU, 0x20000b00000038U, 0xcb03000400000030U, 0xd8da600000000300U,
  0xba002800df37feU, 0xd0c900fe0649f800U, 0x2f00000b00170000U, 0xcfe9da007f1b00U,
  0xcd2ad0ee98fb00U, 0xec00de0042d70000U, 0x5961f00e9U, 0xc200e2ef00U,
  0xb61100270014U, 0x340013ec0000U, 0x1ecff3001b1b0000U, 0x1511000000U,
  0xfd000000e4e00000U, 0x320000e2ede12020U, 0xdbd700001b0081U, 0xc0000000003cU,
  0xd0001900ccfbe800U, 0xccf1e89800002c36U, 0x1e2b281c00000000U, 0xcf00000a31002f00U,
  0x32e7000000002700U, 0xe7000000f80e0000U, 0x25000000b7c41100U, 0x1b0814d116003300U,
  0xfd00dcdc0b0000U, 0x162adbd41f1100U, 0xe7ddcee600e9U, 0x1b0000fb00U,
  0x2300f7c6d80000U, 0x4e00c8eecf132dU, 0xf03dc5000be10000U, 0xb000000092400U,
  0x18180000db100000U, 0xd54200cc270000U, 0xd700b128b207U, 0xfdcd1a0000c9U,
  0xec0031001300cbU, 0xb21000a00000dU, 0xb9da0000002dU, 0xef2418c6b55400U,
  0x76f30000000000U, 0x1511ccd0150015ffU, 0xc600002b0f28U, 0xc0023f738321a00U,
  0x9300c22100003dU, 0xe700000100U, 0xf2dd004500290000U, 0xbf0000ee001300U,
  0x32000400U, 0xd41829c800002500U, 0x2d1ea002800ffU, 0xe30f00003303c11eU,
  0x2501000000230000U, 0xc906170055U, 0xcd000000a81d00c8U, 0x90000d40000U,
  0xdae80e000000U, 0x2000f16d00002fU, 0x5100000d0036U, 0xd0001826U,
  0xcdcb170000f80047U, 0xe500004500f1c4U, 0xf9004f1f00000000U, 0x20d11300000000U,
  0x400001c00U, 0xb61500003a074425U, 0x21360000c6U, 0x47f800b500f2d6U,
  0xeaebdb22c91600U, 0x2a0000f9f2f33cc4U, 0xdf00ea00003a0dU, 0x1900f730c800000cU,
  0x3de8000000dfU, 0xf800cab0c8000000U, 0xa60000000000U, 0x11007fef0000fdd2U,
  0xa0000e000d8U, 0x210015110000000dU, 0x2100a00000102ac7U, 0xdd00000000000000U,
  0xe100000000002900U, 0x18dc00001b0013U, 0xde2800e9d3030000U, 0x19062f00U,
  0xd50017000000U, 0xafea170046dadc11U, 0xe100b2dbU, 0x8f00080800d500d7U,
  0xcc000e00e446000dU, 0xd4d80000e100042dU, 0xe00000c9db00e5U, 0xe21bf60016000006U,
  0xce0000d700fe0b00U, 0x31000e00ec02d1U, 0x29a9f9eb00eae4U, 0x3e001200004500U,
  0xee1e18e8be0000U, 0xe90000fa01090b19U, 0x1e001a0000U, 0x44eace00004f2bU,
  0xf800c900000000U, 0xf40000004300e31bU, 0x430013dceeU, 0xe1ea0000deaf00U,
  0xe71e0000000000U, 0xc81500117f00df2eU, 0xef00000000000000U, 0x3600000002003ef7U,
  0x2da61bca00000000U, 0xb6001000000000e3U, 0xdb0000000038U, 0x5a24002e3c37U,
  0x28220054f800U, 0x2a00000000000000U, 0xe252c000050000e7U, 0x280000d700U,
  0x2a1a1ff61a00c62bU, 0xdabe00U, 0xff00ba2a382fed04U, 0xe100f137002eU,
  0x24c1d60000000011U, 0xd831001e00002000U, 0x2000000000000fU, 0x310de37U,
  0xd51c45350000U, 0xe700250000e30b00U, 0xb632c900000e0000U, 0x230110e9002d4bU,
  0x2700000a0000e14dU, 0xecc21c002e00U, 0xc54000000000U, 0xfc0000ddU,
  0x2100c9000a00U, 0xf0000000e50b0000U, 0xb6dd00252bc4U, 0x231700000000fe1cU,
  0xcb000000fd5c00U, 0x8847f40000U, 0xf40000000000U, 0xe5000e320036c92bU,
  0xd31900200000fb47U, 0xec2354000000U, 0xecc80020da239c3eU, 0xe9da0000a8eaU,
  0xe700330000U, 0xd700007f000000U, 0x1e0000004900c200U, 0x26003e000024d000U,
  0x2f0000edc900d100U, 0x142600002300dcU, 0x1d1a0000U, 0x222e04ff00000000U,
  0xf100170000000000U, 0xddfeea00ebe11f1cU, 0xdf0000de000000U, 0xec00000002e0f300U,
  0xea0000000000fc1aU, 0xc8ea00ea000eec19U, 0xef81ea0000fa00U, 0xe31700e900e3000eU,
  0xb000000140b0000U, 0xa800e805f5e00533U, 0x17f0e61c1c070000U, 0xea00f1ea00eb0000U,
  0xe2000c12000000U, 0xdd000000dc0f0300U, 0x2122000000001100U, 0x130afc1100001ce5U,
  0x5000000U, 0xa300000018000000U, 0xdcf3b20000e90000U, 0xfc0100e3e7e2deU,
  0xee0022002b0000cfU, 0xd80000d800000012U, 0xc200b7c82ee70920U, 0x290000dcU,
  0xd6051f17002bbdU, 0xbc0f002b0020ad00U, 0xca11de00e9e8300eU, 0xb0005000fed00e3U,
  0x20ea0f10000000a6U, 0xbef3f227U, 0xae001dd600cd4ef0U, 0xd8c9e40000003eddU,
  0xd8002f00002f00U, 0x359b1b0000U, 0x342600e9be00e200U, 0x13e40000fb0c0000U,
  0x26cfc500003900U, 0x1900e40d000000U, 0x510000000500001cU, 0x31e3002600f4001eU,
  0x2400cd3ad9253a0fU, 0x10009f00U, 0x48d000eafb40U, 0x260000d30d020600U,
  0x274a00000000c7ffU, 0xe800d0de00eeU, 0xd4000000ffe0003eU, 0xea21002e29002200U,
  0x3b8abU, 0x81a4000000U, 0xfb0000000000ba00U, 0x19e0000000000000U,
  0xf10000dd32fa00U, 0xe900000000cd00U, 0xf80a0000000038U, 0xe40000e71621c3f4U,
  0xdb3a1e00ece4f000U, 0xc500e30800000000U, 0x2af12e009300001cU, 0x1116002e00000000U,
  0x1e00db0000f8d6U, 0x3e00ed00b702U, 0xd8e100dc0bdf0000U, 0x15ea00005835U,
  0x130000002acdU, 0xe10000e9d800U, 0x3dca00000b000000U, 0xe200dff5000000ecU,
  0xef0000f31b2cceU, 0xfb00000000d90004U, 0xe51ec90000000000U, 0xdc001e000ee72800U,
  0x300080035b900U, 0x1c00000000U, 0x350f002100000000U, 0xf000000001e41d5U,
  0x290b0017070aU, 0xcfdb002d2b00e1d5U, 0xd2810029000000U, 0x12cf3408150bU,
  0xd5902e0044000024U, 0xb511d400fce20015U, 0x3800d500U, 0x192a0400f2000000U,
  0x750000cf000000U, 0xec16000000ceb900U, 0xbf00f4d2002ed9U, 0x38fb000000004f09U,
  0xdc00e900f700001dU, 0xf020d4d90600d4fdU, 0x820000001200U, 0xd600001c3d00001bU,
  0xd0000000f5e70015U, 0x46000000000039daU, 0xb00fdc2500000000U, 0xd83c39d133U,
  0xc80000002aU, 0x96d3da0000000600U, 0x2400fb004eU, 0x32e13a0000003bf2U,
  0x12ca0022e80000U, 0xd6201dea23b600U, 0xb90000004200U, 0xd800000000U,
  0x20002600234f4600U, 0x122b10170000c845U, 0x319fffffeb97U, 0x2e1000012458U,
  0x529300011466U, 0xfffe89e300008acaU, 0x9c35ffffaec3U, 0x7ac6ffffc8a3U,
  0x4ed70000cd68U, 0x1457effff99e5U, 0xffffb71efffff3f7U, 0xdec40000517fU,
  0x5e280000ed32U, 0xa08dffffe6a8U, 0x106ffffffa79U, 0xffffb3a60000402aU,
  0x21c000079c6U, 0x9e2b0000a37eU, 0xb4a2000002d2U, 0x5d7800007d04U,
  0xac8800008d90U, 0x3b7d00001cc1U, 0x74f40000af19U, 0x34c90000b7f1U,
  0x22d700006314U, 0xffff834e000050a9U, 0xdb46ffff5600U, 0xffffb6a30000a80eU,
  0x6e330000d1a2U, 0x178000003f95U, 0x4fcc0000e6fdU, 0x23a9ffffdb00U,
  0xc748ffffce16U, 0xffffff160000224dU, 0xd00000007bd82eU, 0xa300000000b9308U,
  0xeb260057698f0000U, 0xe7000078000045U, 0x73007f1b001a00U, 0x390720000000000U,
  0x6ad6000000009aU, 0xd258340071ddU, 0x1daf8149240035U, 0x7b0000a900004293U,
  0xa100000000990000U, 0x3e47b9000000a400U, 0xfc00c80000U, 0x3b00d2b7c970U,
  0xbf00005a00U, 0x569a00000000U, 0xf0660005cdU, 0xb981000000b000U,
  0x3fa560002db800U, 0x4bU, 0xd42a00ac000032U, 0x520046f0be004900U,
  0xd300000000000000U, 0xc82600df6ab10035U, 0x7f380000f60000U, 0xf0b7000000000047U,
  0xfc7cf573a0000U, 0xc300004b00U, 0x20c5350060003f00U, 0xab000024009f00U,
  0x5d0000bca7000031U, 0x2d2f0000a2000019U, 0xbf00539f00db0000U, 0x63310000000028U,
  0x2f0000007fe200U, 0x69000000c09700U, 0xa55bd1383900U, 0x50b600005b002cU,
  0x1d0a0000000000U, 0x31000000003fd000U, 0xd700c70000000012U, 0x2e20ab00b10ed1U,
  0x0U, 0xc44a2343620000U, 0x7f2817b7000020U, 0x1600000000c7bcU,
  0x5b0000000000U, 0x28a400a900000000U, 0x2f9bbf009200U, 0xc18d348c629600U,
  0x9d000047480000U, 0x66000088c14e813eU, 0x85009a880000b2U, 0x9400008e00570000U,
  0x264b00004ba4U, 0xa200a800bfa75200U, 0xb700d8cd520000U, 0xcc000fd4350000U,
  0x1935000000bb0000U, 0xb3d4264000dc00U, 0x37005f001234d1U, 0x3a00000300a6U,
  0x36c80000b9000000U, 0x337fc0dccf000000U, 0x6cb500220000U, 0x745300000000db00U,
  0xb3000000007fe2eeU, 0xf100400000aeU, 0x285faf0043420000U, 0xaacdffa44800333dU,
  0x4100000022001acaU, 0xf5003700000000U, 0xc72a004b0052U, 0x2c00d2004aab3b00U,
  0x32ad0061ca35b34aU, 0x2a00deac00000000U, 0xd500eb00bd000000U, 0xcb00bc00004ada00U,
  0x3c00003f0041b1d2U, 0x9d20a8dc4b42d67fU, 0xccd400003b0025U, 0xdf173647c90000U,
  0xb6dcff0000abd0U, 0xd2b400ea730ddd00U, 0x667f006f0000U, 0xe00000ff006f0062U,
  0xbe2d310000005f00U, 0x50f145d20000U, 0xb3004500c281a700U, 0xa8002249cb00362dU,
  0xcf6d00001a003da4U, 0xce003f00ba0000b2U, 0xc20000c16b00c8U, 0xd4003f00372a00U,
  0x643100cc2bU, 0x2c00e0efU, 0x40003c0050000000U, 0xac003a004a00b200U,
  0xa9ca00a1b900U, 0x81000034c62e00U, 0xba00aebc00a200U, 0x484400U,
  0x9700003f0000a100U, 0xcd59a100ad00af00U, 0xabf100008a001100U, 0xa800000000d70043U,
  0x4e766a000000cd9bU, 0x8fd397bbU, 0x3000380061650000U, 0xb600549b0000e453U,
  0x7f00210000U, 0x28b300cfa1U, 0x6e76000050004aU, 0xcef1c600000049U,
  0x46b600d100005e47U, 0x210018000000dd3dU, 0x8a00007f0000bb00U, 0x4c4e00ab8700U,
  0x84afb800U, 0xdc0000abb400U, 0xb979cb00ff00U, 0x93654e000000U,
  0xd6000000006e983cU, 0x37009babb54c4bU, 0x51367f0000000000U, 0xc0c80000006c5d4fU,
  0x5dc60000a5006ac0U, 0x5e00009c00cb26U, 0x297f0000U, 0xab00c7c52ed4bee0U,
  0x2a2500c5b1000000U, 0x533cc9000000c8U, 0xbc6ed6d2U, 0x1d41000000U,
  0xd600dd00c3d6U, 0xf90033c0002d00U, 0x29e8df0000007f1dU, 0xde00004600c30000U,
  0x2c25420000c7U, 0x28000000U, 0xc00000036000011U, 0xb7bbd7e1000000U,
  0x1fe4780000000000U, 0x2900340000002a55U, 0x421e0000U, 0xc3008d00005fU,
  0xc2b600007a000000U, 0xc8000043c352dba5U, 0xa2af000000e19bU, 0x59000000000034b4U,
  0x6700000000484c00U, 0x94007f92b64d2500U, 0x87ac3500bae25bbcU, 0x4600000048c93400U,
  0xc5a000790000U, 0x7030059782300U, 0x7254000000c3f0U, 0x650000007ffb00U,
  0x5400000012000000U, 0xef0000cd00334400U, 0x48970000c200c100U, 0x4ab7000000U,
  0x3fd40000a632U, 0x39cbd600003bU, 0x2b000000U, 0xbdb0ca007f004000U,
  0xd500d238f04c00U, 0xd0d0c800000000U, 0x29aa00e1a800U, 0x100U,
  0x5100fbc6c33d3332U, 0xbdce962950da6800U, 0xac003c000000ab00U, 0x7f7c3a00cff00000U,
  0x0U, 0xcfd4350043a91d00U, 0xb90000810000001cU, 0xbfc7cd35b12634U,
  0x371f004c00aeU, 0x60000000bb00003eU, 0xba00b53c00000000U, 0xb73f0000003ab200U,
  0x46e6d5b3000033U, 0xd31c3f0000d3afc0U, 0xeb000019cdU, 0xc4540000bac100U,
  0x0U, 0x49007fc458600000U, 0x57000000414dc9U, 0x7cc00000000000U,
  0xaa00a8dd00c100U, 0xc40000790000baaeU, 0x7f0022005bU, 0xf600430000c40000U,
  0x31002400aec200U, 0x1938e90900U, 0x42546a79b2cfde2eU, 0x8d00f90000bfU,
  0xa0780000003d00U, 0xc20000c600d22be7U, 0x203e964300c300U, 0xd4a700000051U,
  0x3c5caf47004e0000U, 0x460000afbb4c00U, 0xb7cf0000b3007fU, 0x72006f0051000000U,
  0xdcbe3200bc007032U, 0x2b00b20000U, 0xc40000002fc78100U, 0x1800000000001fU,
  0xd7d200272a000000U, 0x2530c4003fe2U, 0xd1dcc71c00d41cc7U, 0xc100e00000ce002cU,
  0xcc19ad00230000U, 0x2300004533cc0000U, 0xc9c8b06a00a646U, 0xad004000007300U,
  0x81007eb700009100U, 0xa90000bf3d000000U, 0x56bb0000b400U, 0xc951003d0000a753U,
  0xc2269bb5U, 0x9f00b60000470000U, 0xb4008100b14aa8U, 0xbc000000be00U,
  0xc3001d2c004fc800U, 0xc22c0037005ad0b0U, 0xa04ac3004447b300U, 0x4d32009caf00a6U,
  0x47004e0000a13900U, 0x3c00000043003700U, 0xd84b2d00f80000U, 0x510f00003692c800U,
  0x39b437U, 0xa800b9001f002aU, 0x27003a140059d450U, 0x2f00af1e007f0000U,
  0x5000000000b6U, 0xb700c600000000e7U, 0xdf00000000ee3200U, 0x25004ef50000U,
  0xd0480000000000U, 0x9b009c104a0095daU, 0x232461620000002cU, 0xce6a000000ee53b9U,
  0x4f002dec000000U, 0x4366127f00000000U, 0x8ad741002a00002cU, 0xb01c0024c9c1ec00U,
  0x3068000000170000U, 0xa3000000d70000U, 0xc500070042637f00U, 0x40000000f700002dU,
  0x4457000000910000U, 0x110000ae00005e3cU, 0xbb00a027f300U, 0x52006200U,
  0x7f00b50000bec9U, 0x7c003c470000U, 0xce583a0000594800U, 0x0U,
  0x9a00abd10099b9c3U, 0x46520000bbU, 0xe37f008ec200U, 0x99bb00c7ca006700U,
  0xd60000005700U, 0x43bbb3003600bf00U, 0xc70000e1000000U, 0x536135U,
  0xcfdb0000002cf200U, 0xcf000000b559dd8cU, 0x8f54d20038001aU, 0x9b00000200b5cd21U,
  0xd62800000000U, 0xb634004e001de200U, 0xa800dc0000b000e9U, 0xa4b3d406007fc5b5U,
  0xab0000U, 0x33002b00000000b0U, 0x920000d100U, 0xcc0000000000bb00U,
  0x5800003528050037U, 0xe2520000170000U, 0x1c00d6000fU, 0xb7d67f00fffb60cbU,
  0x1b0000c073459e41U, 0xeba6a85b00b900U, 0xcb81da000000a23fU, 0x253700af00c60000U,
  0xbe00004db9baU, 0x390000000000bfU, 0x450000d300f800U, 0x57293c0000U,
  0x69d500000000cc52U, 0x6700d3b7000000acU, 0x1c00dd000000002fU, 0x0U,
  0x3a41d9d2673600U, 0xa4d500344a49U, 0xce004b700000f600U, 0x4914d5670000U,
  0x7500000096c7U, 0x7f00001abfU, 0x2ddb0000512a00d1U, 0x7fcd00d300000000U,
  0x2826e4d800bfa9U, 0x46002100002e0000U, 0xccd32c00U, 0x4800001ad3c60032U,
  0xc80000380044ce37U, 0x2b00363400006f00U, 0xe100cfc60083U, 0x3600000000df39U,
  0xbb218f0000476aU, 0xdc000042006f7fc6U, 0xd097000060000056U, 0xb7005800000000U,
  0x5b40005cbc005e00U, 0x2c7100c3abbc00U, 0xba4bd64d000047c7U, 0xb69900330000b2U,
  0xcad400c300bcd6U, 0x31315d00daU, 0xd0c30000cf2e3cU, 0x467f3b000000U,
  0xbb4800b8434c00U, 0xdd4d00ae2c49f5U, 0xac0052U, 0x3bU,
  0x5a00000000b63f00U, 0xb5a300008142U, 0xb20000a000af00U, 0x4c00009d0094cdU,
  0x9400004a000030U, 0xa200c28d00002cb0U, 0x4b00a40000cdf200U, 0x5e53000000000000U,
  0x3fc4c30000004e00U, 0xb62b000000993e17U, 0xc20028341d340000U, 0x3d00bc782c5200U,
  0x812800004300U, 0x32f8ec3100000092U, 0x33000000006bcb00U, 0x4eea009aa37bc5U,
  0x3900393d0000c8b6U, 0xa10000cdcbd12dU, 0xbe00d76c3f51009dU, 0xa500c400b04cU,
  0xcc00000000U, 0x7fb42d319f5a4dU, 0xbf0091acb2U, 0x81f300f400bb00U,
  0xfc00450000d68daeU, 0x8a350000003cU, 0x620000bd5eb00000U, 0x4b000000004900bcU,
  0x46ab7300584fU, 0x7dd8e8c0baU, 0xcc0c64bed7003dU, 0xfebc00412448U,
  0xac00000031000000U, 0xc100530000000614U, 0x81360000520017U, 0x360038003f00ce1aU,
  0x4a340000004900U, 0xd500000045a549U, 0x0U, 0x4eb40000ff81cd00U,
  0xbe343100004d00U, 0x3c00700000582dU, 0xe7000056d20057U, 0x3a00c5ba0000U,
  0x5800000000000025U, 0x50ff0000b0bfU, 0xac0000004fbe7c8cU, 0x700000004f3d0000U,
  0x53b600d19f0096U, 0x4400b891U, 0xba4a596243000000U, 0x4a4b0000000c93aaU,
  0x8c00006fada491U, 0xb800c3004a81U, 0xd100007f00690001U, 0x71f3563ae00000e6U,
  0x600fa0000edd3U, 0xbf00e3ed004e00deU, 0xe5000000000006deU, 0xee00b400e1001000U,
  0xddc41800fc3d00ddU, 0xd5150600005750a4U, 0x490052814b0d3d00U, 0xbfc6000063b8U,
  0xc9293a0000000059U, 0x9a2ece00a9b100U, 0xc3420000502453bbU, 0xd24e000000U,
  0xc70015e9ac000000U, 0xd30000bb0000bd46U, 0x93b1eeac00U, 0x726b0000004f00U,
  0xbf000000009b3500U, 0x4d00006c00a24653U, 0xa32d0000009370U, 0x7000000035006edaU,
  0x98005493cd0054U, 0x5f000090819500U, 0xd700d81a0000U, 0x7f2a9200000000bfU,
  0xb10000dd00000000U, 0x2faf2bbc00e2baU, 0x3641000053005bU, 0xdd00001d00c900c7U,
  0x4a0000582c0000baU, 0x303a5429584400a7U, 0xeb0052d0009700U, 0x4b9fdbbe8d0000U,
  0x700000c7U, 0x9b0000ab000000U, 0x373fU, 0xb8U,
  0x7f005842b95f00U, 0xb8000000650000cdU, 0x5105ad210000b300U, 0x94003db0000000d3U,
  0x27000044cd000000U, 0xc4340036c400b700U, 0xaccea47fa6b20000U, 0xd7c24fde00bbU,
  0xc9d93700000000abU, 0xa90038a600510000U, 0x172a00dd00U, 0x3900f13aU,
  0xbb009ad100380036U, 0x3d001c000000002bU, 0xdd2ecc0000320038U, 0xca00c012bc81afbfU,
  0xc4cd0000b5f50000U, 0x68000000c72300U, 0x47d6b9000000af63U, 0x2b55180000acc700U,
  0x9500d056U, 0x41008900008f6353U, 0x92814e000000a5U, 0xc3000000a60000U,
  0x5400c000284296U, 0xa9000000004f4800U, 0x4e00000000U, 0xa800e9e600U,
  0x4b00250021000000U, 0xbdd10000e6000000U, 0xe2001500c50031U, 0xde23007f38f31a00U,
  0xde0000e14200dcU, 0xbe000000cc0000cbU, 0xae10680000006b81U, 0x8a0000004c00U,
  0x3000a14e0000U, 0x8400000000005d00U, 0xb400005c200000U, 0x790c930cd400U,
  0x6a00000000960090U, 0xa07400b4b5000000U, 0xfc00000000d100U, 0x66000058003733U,
  0x45a3cf7ff5d8U, 0xf0005f4f0000U, 0x2d000013d00000d0U, 0x59000000ce00d6U,
  0xda00b7003600f943U, 0x3bb600dcU, 0xd0c2b81c007dee00U, 0xafdc000000004565U,
  0xaaad00b10000c500U, 0x34d16dd7b6f30000U, 0xa97fa73b6f000000U, 0x64004a47000000b5U,
  0xbeb50000c69c004aU, 0x2a007400002d00U, 0x23008100ab00acU, 0xf0cd1a2628390000U,
  0x2800001f00baU, 0x2f580a0043000000U, 0x15004b943c00U, 0x760ea900000000U,
  0xf900b10e2800U, 0x39c200764d6600b8U, 0xa18400007f000000U, 0xd40000005f910000U,
  0x700059b400a700d3U, 0x8e0000007623006bU, 0x4a4e56d900cf00c6U, 0x730058710000U,
  0x2bU, 0x27a742ca54U, 0x9b72000000bf008bU, 0x441398d500004bU,
  0x18d50063ac3100U, 0x222400cb46d29dU, 0xd9b20000c0004d30U, 0xad642c000030U,
  0x563d5f66ba000000U, 0x204300000029b17fU, 0xa47fe700be0065c9U, 0x36000054004d004dU,
  0x9300d00000U, 0x9e0000b82f0000U, 0x29e4365bbb213851U, 0x800300000U,
  0x99c94dbd009ff900U, 0x3000a3000000U, 0xd20000000000U, 0x6900000065d3U,
  0x4a0000d14200d0c2U, 0xb8b9c211004bbfU, 0x464500ba000000U, 0xca0000d434590000U,
  0x1f1dcf00407fd2U, 0x5100d500500000U, 0x3500005a00963aU, 0xc4caa6c7a7a0U,
  0xa50060a43ea100U, 0x4e00006a9f485aU, 0x6abe3c4076920000U, 0xc6480023681f7f00U,
  0xc300b9U, 0x6cb000c300001500U, 0x27ef3a4300de0000U, 0xe75300002400e0cbU,
  0xc0ab005fd7000067U, 0xa24900000000c548U, 0x7f000000abU, 0xa226003600be54c2U,
  0xa7004a00cecb0033U, 0x4a003a982b00b4U, 0x2168c94d084df400U, 0x51000000aa0000d9U,
  0x1c0000f4880000U, 0xf1450000004d00U, 0x352e685681U, 0x540000cacd005500U,
  0x13e60000005600U, 0x5840af00420000U, 0x6f3eac001ff0002fU, 0x672800009300ecU,
  0x25000000360000U, 0x181900004752005bU, 0xd6b22d30U, 0xce00000000a60000U,
  0x4900e833U, 0x1d007f0059009e00U, 0xbb006f0000359800U, 0x1600587f53U,
  0x2500988e3994556fU, 0x5400949d57000000U, 0x9a00000047U, 0xa700d0d15e6692U,
  0xa3001200bf350057U, 0x9700008a4200c300U, 0x1fb9000015a50000U, 0x59000000000041U,
  0xa800007f0000U, 0xbf5e0000dcc747U, 0x4b002b7200d24300U, 0x290000009000U,
  0xe70000002fU, 0x8a6f004500aeb4U, 0x3800558a60000000U, 0x81204e00U,
  0x373500d3000000U, 0xcb5f00040000U, 0xb6dbf0000c6009cU, 0x92db00de006600U,
  0xc223940000af00U, 0xfe6aec3700000000U, 0x2b160000f00000eaU, 0xa80081000090b3U,
  0xa566d35900000000U, 0xb600001f42U, 0xd60000004c000000U, 0x52cc2ccb00000024U,
  0xd700004d000000aeU, 0xce009cdb0000a0U, 0xc700001e002bU, 0x3d00bdba000000U,
  0xae0000c80026001dU, 0x3e0000001bcd0000U, 0xd6470000b1c5d4c3U, 0xb1002a000e00c400U,
  0xb800c0d700007f00U, 0x2d5b4144d6003df0U, 0x63U, 0xadae1d004c97ccU,
  0x900000480000003bU, 0xb79300bb00000000U, 0xdc00d029006a0000U, 0x40b2d9aa004c5d00U,
  0x1fde00c7a200U, 0x9d40000007f00U, 0xb80000000000U, 0x8100000000295e00U,
  0x2100006c000034bbU, 0xa50038283800b0U, 0xc137eb4900b898U, 0xd6730051c7000049U,
  0x5bb4c2a759240015U, 0x98b900a7e2d821b2U, 0x4ca00054U, 0xd700000000c67f00U,
  0x59000000a80047U, 0x390000bb0050a2c2U, 0xb721adb4b300003eU, 0x3800U,
  0x5800f000a900005bU, 0xc9c2b3c0c7005700U, 0xe0000059006c00U, 0xbbb4337b6500bbU,
  0x3d006efd00d39eacU, 0xba0018008a000000U, 0xc8bf00cf0000b000U, 0xbb001a00400000U,
  0x755d00004f9000abU, 0x47007fa0b80000baU, 0x610000007fU, 0xdf2400f356dfcb00U,
  0x3d00003ac412U, 0xd800a1002b32a300U, 0x99c318290000e2cdU, 0x274e00b6003b0000U,
  0x3b005e2d220000b3U, 0xcf0000daddc7U, 0x6e6d4800810026U, 0xe051d1005a00f400U,
  0x2400b80000d06aU, 0x3000edf7c845U, 0xb009d0000000000U, 0x0U,
  0x6c002f37000000b8U, 0xb1a40000a5004c13U, 0xca979c00c7988e00U, 0xb5007f00400000U,
  0xbb00004346c7005eU, 0xbb0000U, 0x70000000c4930000U, 0x5d000000590000U,
  0xa000af00000000U, 0x44d0000a9U, 0xda200005a7fbcU, 0xa62cd6b12ba000U,
  0x693331e0000000U, 0xca005d26b92bU, 0x120000b400db58U, 0xbe2000ab00470000U,
  0x2b0000c3000000U, 0x540030003d8fU, 0xae00d000c66c8600U, 0xaa00dd000000d900U,
  0x2ce0000000940000U, 0x52003b0000U, 0xc9c9530000e10000U, 0x6b31000013816300U,
  0x9e360062000057U, 0xa45e0085570000a2U, 0x9b00000089550000U, 0x4c000000004e00adU,
  0x6600b99f2f7f7100U, 0xb5660094000000U, 0x43938290U, 0x5400000000005900U,
  0x9500b700cd000058U, 0x33969c79000000U, 0x223c000000U, 0x1400dd003e4c0000U,
  0xc5530000262800U, 0x3400002218008100U, 0xdd003c000000U, 0x1faa42b600a300U,
  0x570000000bU, 0xb15fb400000000U, 0xa900000060000000U, 0x760000c500634eU,
  0xbe00007fU, 0x9da52b000000U, 0xd637cad7005e00U, 0xbf9a006aca004cU,
  0x6b0069ef0085989fU, 0x820000c300000000U, 0x2f980000afa5U, 0xab91aab5bf6b009fU,
  0x6d00b1a30000U, 0x8c0091a0810000U, 0x480000006d00U, 0x5d00979800004a00U,
  0xab008f7100399b33U, 0x3900000047a40000U, 0xd400fa00cf00U, 0x24be5900bf37c434U,
  0xbf5a5deaba0000beU, 0xe4ad00ac3c000000U, 0xa6e1e7b2001400fcU, 0xe181bdb44200U,
  0xc7770800be00b900U, 0xcae1d70000da0000U, 0xb300008100eb0000U, 0xae00000000a8de00U,
  0x7c6f00df000000U, 0x24000000a5c72b00U, 0xae000000c146b2U, 0xbc0000000000U,
  0xc3000000f22fU, 0x54e6000000000000U, 0xe40000a8eeca00U, 0xb200b2917f000000U,
  0xdc2162000000U, 0x548ba74e95000000U, 0xdf60000042U, 0x3400cb0000000b3cU,
  0x53000000a7U, 0x9b00bf43c00033U, 0x58e14adad24131U, 0x1900390039002dd2U,
  0x2a00a900c90000U, 0xad0c3100db00d5U, 0x20000000004d00U, 0x180000e70a00U,
  0xab007f00009d0000U, 0xc9c300312acc002fU, 0xbea400aa003f0143U, 0xbfb03200ac00d300U,
  0x382cb2200000b8U, 0x2d00002f00294ebfU, 0x38c5000039005937U, 0x2c0044b97fd748c2U,
  0xbd240000000000d2U, 0x16cd00001cc30020U, 0x44cb0000f300U, 0x37c3fc0aU,
  0x300cf400000U, 0x36c5da003aU, 0x5c000000000000U, 0x3fb500ee6700efU,
  0xf800e313c23c9f00U, 0x19cf1600000081U, 0x84b520000U, 0xa8000000d8a7003dU,
  0x62c7005300c541U, 0xb50000386f004200U, 0x4a6c4f00692c9eU, 0x51008100410000U,
  0xeba94fa900de6c37U, 0x73ac00b1c800a0U, 0xd30000b400230000U, 0x4cca00U,
  0x3100431f00d700U, 0x5000373ed4adU, 0xab00bfd35158a200U, 0x2c00d2000044U,
  0x81000000aa72U, 0xbaaf61cd5e49dfU, 0xa70000004d00eaU, 0x85002f0000002e00U,
  0xae0000ad2400d1c9U, 0x46df3f4c3c0000e5U, 0xbcd5c50039000049U, 0xbf00c900367f00c0U,
  0xa400bd00c732U, 0x65e847c6c900ef00U, 0x4290c4d34c00U, 0x7f0000c700U,
  0x3000000061250000U, 0xb8c2c7210020c6U, 0x3a310000da2e5400U, 0xc200000028000000U,
  0x2ce05df400003400U, 0x33b6530000bc00d7U, 0x950000004cb7U, 0xd2b00022005e0000U,
  0x479da8420000U, 0xaf009f00000000a8U, 0xaf00b200aa0085c0U, 0x3f00000000a45edfU,
  0xd38100904da700U, 0xa5cd4800508e00a7U, 0xf40000005b000000U, 0xd100001800d2a6U,
  0xe500f46500000000U, 0xd64d1900000000deU, 0xb5f77f591adb0000U, 0x1a004f0000000000U,
  0x110000000057U, 0x4100002d330000U, 0xe17fdd0031000000U, 0x422400003ac500daU,
  0xcbd3c2310000db00U, 0x2f36000000ee00d0U, 0xd9f000004422U, 0xd92500fcc6000000U,
  0xcc0000f6c0d429ddU, 0xb7eb0000d22800U, 0x5195000038005300U, 0x45b1005600640000U,
  0x78000027009700U, 0x3700000000004d63U, 0x33a38d0000580000U, 0x944f00fb002f00U,
  0x9d818800U, 0x5b000000000000f8U, 0x171000000ec8U, 0xb8001c3500U,
  0xc600b200cad00000U, 0x784400000017c8U, 0x4420da22285f00c4U, 0xd2d5c2000044d229U,
  0x3500000000U, 0xcd3300dd0000007fU, 0xa800a35a00U, 0x936ac000003c0000U,
  0xab007f90673c0000U, 0x40a8422073bf81U, 0x3900000000004a3fU, 0xff0000009eU,
  0xc30000000000009fU, 0x3c49bc004165U, 0xa20081aa000087b3U, 0x750000000035U,
  0x11440000002a37cbU, 0xb900a6U, 0x440000a2001741U, 0xbbb400c9c7e4001dU,
  0x50c21b00000000bfU, 0x503300005c000059U, 0xfb00622b94ea00U, 0x4b450040b7a10000U,
  0xca000000b8bf4000U, 0xbebf00bf9b000037U, 0x2a00e043bd00U, 0xcc000073a4220070U,
  0xd0aa002300007f00U, 0xb1720000212714dfU, 0x71a9a500000000U, 0x98000052814e4cU,
  0x93a6a09e0000afU, 0x5074003828543eU, 0x4500ae6e9900a994U, 0x6ca100000000U,
  0x4dcd5a00c5U, 0x908f00009000a800U, 0x3ea9be00000081d0U, 0xa9a600008eb300U,
  0x8e94bc005fc600U, 0x5b9c0000009c94U, 0xa0a80000005c00U, 0x7d4900a100U,
  0xad00540000005b4dU, 0xad004d0000aec155U, 0xd3297f0032ec4cU, 0x2f00000000004d3eU,
  0x14352400U, 0x49c20052ac00U, 0xe0d00f34cfd91aU, 0x1b000017f1000045U,
  0xd50000001900d731U, 0x28e8U, 0x384900002e000000U, 0x2f2d0000a00000U,
  0x4a009f42009d9b35U, 0xa72676007c000028U, 0x5c75404e0000U, 0x560000550000aaU,
  0x495c00da00000000U, 0x813f002500U, 0x12001d5b0000U, 0x4000f8b000c100U,
  0x1c004d0000d600U, 0xd72c000000000037U, 0x42812c0000b3U, 0xd000d97f000000c2U,
  0x153e8a69c2af0000U, 0xb0000000000U, 0xccc200e1U, 0x37007fe0bd0000U,
  0x3700e200b300b83aU, 0x2ac600c70000U, 0x4db900c7U, 0x320000da5800290fU,
  0xd50000004000e6U, 0xd7382a41c5U, 0xc200004f00000000U, 0xb20000573f009900U,
  0xbba500a40000a1c0U, 0x5c56000041d24644U, 0x343a61b1c497c6U, 0x9800U,
  0x5a007fc1004a00U, 0x3500c5af0000a500U, 0x7f5b0000007bc188U, 0x770000000000U,
  0x3100de005fU, 0x0U, 0xa81e6100d29e00b7U, 0x3100000000002fU,
  0x5600000083U, 0x6800a50000U, 0xa09f000038b25200U, 0x6a53490000a07f00U,
  0xcebe00c53ecdU, 0xc0c4a2d3004aU, 0x470000a9b5aaU, 0x52df00e50000cd00U,
  0x2000aa00005b00U, 0x9d0000ae464a00U, 0xe2812922ca00d41bU, 0x1d3400cd00000000U,
  0x160000e424000000U, 0x3bd100270026e0U, 0x3edc3f00e14400dbU, 0xe47700b8U,
  0x2dc70028c53f00U, 0xb60000d9c4b66cU, 0xbc00c20000b60000U, 0xeec3bb59003c0000U,
  0x99c0ce0000009aU, 0x57000000c700cd60U, 0x44c86c00b2ae42U, 0x9f000000c5cb00afU,
  0xc000039700497f9bU, 0x4c00000036006100U, 0x4a0000004200b5U, 0x2e0000U,
  0xc0002c000000b778U, 0xc05e00aaac47ffc9U, 0x7657ef0000dc009eU, 0x1f81000000000043U,
  0x535700001b5eb600U, 0x571c00002500U, 0xccf900de00000300U, 0x7007fb7U,
  0xb4c30000003400d5U, 0x1900493c20cd00bdU, 0x2a0000b500009f00U, 0x4d0000002700U,
  0xbc004500000000U, 0xbb00bd330000U, 0x5d0000000056U, 0x5db2740000U,
  0xcf0054d12f000099U, 0x3ad3000000305300U, 0x630000e893750000U, 0xc4f76f560057U,
  0x105a00001700U, 0x547f00U, 0x4000c6d7008a0000U, 0x90002dc52fa91600U,
  0x37c8550000bb00b7U, 0x8003e8f5f0000U, 0x280000U, 0x23000010c400U,
  0x247fdb00ce00U, 0x421d5500b7000000U, 0x4000007524007fd5U, 0x583a00c400000000U,
  0xf0bf0000000f3c2eU, 0x4500ab0000005919U, 0x2a592efcb2c3U, 0xa5006f69009e0000U,
  0x11e10040U, 0x2a3eefafa4960000U, 0x2000055008eedU, 0x3e00004a566fU,
  0xd40000e1004aU, 0x3bad0000000058U, 0xba002bc100U, 0x34570069fc008100U,
  0x69af00000234d82cU, 0x590000009f005500U, 0x7f000000e40000U, 0xdc1e003e0000002cU,
  0x1d9f26f400c8c3U, 0xc100222946c30034U, 0x49e5d10021000009U, 0x3900bc00ceb25a00U,
