/**
  ******************************************************************************
  * @file    word_classifier_data_params.c
  * @author  AST Embedded Analytics Research Platform
  * @date    2025-01-20T16:43:42+0100
  * @brief   AI Tool Automatic Code Generator for Embedded NN computing
  ******************************************************************************
  * Copyright (c) 2025 STMicroelectronics.
  * All rights reserved.
  *
  * This software is licensed under terms that can be found in the LICENSE file
  * in the root directory of this software component.
  * If no LICENSE file comes with this software, it is provided AS-IS.
  ******************************************************************************
  */

#include "word_classifier_data_params.h"


/**  Activations Section  ****************************************************/
ai_handle g_word_classifier_activations_table[1 + 2] = {
  AI_HANDLE_PTR(AI_MAGIC_MARKER),
  AI_HANDLE_PTR(NULL),
  AI_HANDLE_PTR(AI_MAGIC_MARKER),
};




/**  Weights Section  ********************************************************/
AI_ALIGNED(32)
const ai_u64 s_word_classifier_weights_array_u64[17316] = {
  0xc5d4cfffda737f4fU, 0x7f36bc7046108d43U, 0xead8e281cf71afd0U, 0x145e7fe8590a4c5eU,
  0x9191f7f170dc31aU, 0x7f352f2828180e0dU, 0x81cf24eb69e0d6ddU, 0xff3122fee40cb49eU,
  0x7fc50161c4e6fc40U, 0xa426c9ec047f655fU, 0x36fa7fbf692414a7U, 0x7fdd2028bd51dbU,
  0xc37f8ca6e05d397bU, 0xc508d620b1d42dddU, 0xc309c65f257f4747U, 0xaadd7f7ad4df6705U,
  0x5381b46c6cfb088aU, 0xc2175081fcd8ab8dU, 0x0U, 0x0U,
  0x0U, 0x0U, 0x0U, 0x0U,
  0x0U, 0x0U, 0xcf22b238ec20c3fbU, 0xbc3d1bcaf6e402e3U,
  0xfbd6e1b61e97fd29U, 0x9df9110c97d97536U, 0x4c340c5e3dde2eeeU, 0xe0badb50595d01eeU,
  0x5bbe3cc0a3f1701U, 0xe60e01ff873c2b56U, 0x260d1e2872f41a6fU, 0x9d26fe2fa6ded609U,
  0xf7cf6a07f1e7c847U, 0xccc9262efa044341U, 0x42c8120950085d4aU, 0xfcef3e5e2465a4cU,
  0xf0de48666335b011U, 0x97c833c9ccbebb1cU, 0x55c35c0160fbd746U, 0x2db8581981dbdebeU,
  0x48c44cc859c7dbc7U, 0xe0e2971b03b71a2dU, 0xea94a0a3cff0b67U, 0xea0f19c1e550fa29U,
  0xfd294765d308c42dU, 0x83b13700ccb44d56U, 0x2c2b09f1bf901405U, 0x9d8ba8de1723d940U,
  0x668fd06969cec831U, 0xed94d13a19610ffeU, 0x6f24e44653fced0eU, 0x1edc3e681604804U,
  0x61400845da8835f8U, 0x35180de6cefa59eeU, 0xfe1fb4fe620ad2e6U, 0xfbbfd52afc6ad113U,
  0xa8ac8ea16bf1ef2U, 0xcfd5410a0752d2a8U, 0x1ce4493b183d4349U, 0x1e330db5e6521945U,
  0xefc1005ef5160e50U, 0x41dcf99da8eac13fU, 0xf82fffcf26101216U, 0x4210f6a4bdbaadf0U,
  0xebdd1d035e2cddedU, 0x35ee16f2ea4d1eU, 0xa39ea03182314ebU, 0x36c9a6b7189ea744U,
  0xc4e209dbdedbe703U, 0x1706e5b0fb95b50aU, 0xaf1eeb07c2e49c01U, 0xe6f4130deeed1c1bU,
  0x17cff502a6e3f0b0U, 0xc4d1c722d603f001U, 0xc825d8afd6f0ece3U, 0xe9d402e181e3affbU,
  0xa07fcb0f3b21c20U, 0xc614d7ec4f0d54c2U, 0xef137c32b4eed01U, 0x39f1f35bc2133bb5U,
  0xe709aaff4f46cf32U, 0x946cbdb772aac19U, 0xb8163fc182d2af1U, 0xb181c249b7b0ee94U,
  0xf6169f5dca2b3312U, 0x438f3b62155e76b1U, 0x6229e94238ca12e1U, 0x16bfd33ec9de271aU,
  0x3e3250f6329adb2cU, 0x1ae30e2512b35bbeU, 0xf88444d5e4d0bec3U, 0x696e93224cb1addU,
  0x11f805356819d3e0U, 0x4b419228bbe60edU, 0x24d1d4051638bb30U, 0x98fa4018044ff2dcU,
  0x46e5081a1803dbd0U, 0xeab2d22ffdd2be06U, 0xc0e8defa25ffcd1aU, 0x4a4423f2d31cdbadU,
  0x3d11b53e1ae42114U, 0xd8bffd3b99f4411dU, 0xe0cd0d3522affde4U, 0x11e213fde0caffe8U,
  0x33d0aa2e3afcc5f7U, 0x1f9b45412513d0ccU, 0x479f2e4d3d8ae54aU, 0xf413abd993f8262aU,
  0xe8874e1adca4abc8U, 0x99d828429aee39f8U, 0xe7810c284fec2105U, 0x27da0fc1f820f6f5U,
  0xffc54820d1e3b256U, 0x1c1411042841372bU, 0xf70fd7ecee17d12dU, 0x3ae8ce432dbab8d6U,
  0x54f22dc9334e99bU, 0x1629efc0d020dbfeU, 0xb121342720e8e2a1U, 0xb4a252012f0d111U,
  0x1922f1bab72348dcU, 0x1a4c32097fc4c1caU, 0xd0c18f9d0cec240bU, 0xef34d6c668e30081U,
  0x3732dcf44246213eU, 0x4c1a3038f2ed504fU, 0xe529052cc3e6e7d8U, 0x1343e61f6c1118e3U,
  0xa00ce8d1e5e70d08U, 0xe22e1bdfd3bef9d9U, 0xaa5ed51b272515b3U, 0x171af8fded500db6U,
  0x84db5cdc52b234dU, 0xd12bb95eabcbc849U, 0xda9fe5ec44face1dU, 0xc3c1ee1a64ace25U,
  0xe1d755dfeea22afaU, 0xa9cdc716b438d6c7U, 0xedf5ccfa0d81ebd7U, 0xd5c32a9e9f38094eU,
  0x33e75afe54210700U, 0x23980a9b1719320fU, 0xd82150d629446250U, 0xd5ced90342e11907U,
  0xbed0474ccc50be3aU, 0xdb25173dc8a72d19U, 0x3bc8b94f34c4f405U, 0xca2c1e1ed1df5221U,
  0x5aefad253f1b6041U, 0x818a493a9c0ef739U, 0xe1a3382cfa1eb4c9U, 0xdb9223bf84d56045U,
  0xd5d2d9ef5f0ecf18U, 0x4d39dc57e22d4707U, 0xa62e0416b65b0cb8U, 0xe17cbfecde2526bcU,
  0x2fcf37ded6ccfabaU, 0xde03b80326e506f2U, 0xe120e950c7ed11d7U, 0xea9ddc0ed5bcf4d4U,
  0xc33370d3cb83547U, 0xf894465cbed3f66cU, 0xd719d66cd0bdf5e1U, 0x1b13bc37bc06b872U,
  0x5aa9db2d0532eb47U, 0x54ebe8ddc2243e2aU, 0xf6b93eec3f0f0d0eU, 0x2a13bd41e31ed3dcU,
  0x8f2d09c8f1ea0ae3U, 0x46cde165d15d223U, 0xe6459df11a5b9881U, 0x7cd593ba9539a8f3U,
  0xce21e64e463560e7U, 0xd5b4321f4a6126c3U, 0x81ab0defb184c85U, 0xadff7da30045284U,
  0x848fecc5cfcfe5c5U, 0x5d49312aebcdacaaU, 0x26a2a64b01ccc6bcU, 0xf40635f2be2bb841U,
  0xf5a7f1db063927b8U, 0xd9a4ccd232412b9U, 0xd38ae2d44a0f9004U, 0xe1a5642c855e320U,
  0x653c3d1a26e0c4bcU, 0x8c90d764c814bfbeU, 0xfd945b225c467e2U, 0xbea2374683e3d1aeU,
  0xa785fe0400e54c5eU, 0x144aa45b93a7bddU, 0xb8f8e2bccf092e90U, 0xc555e942d56404b3U,
  0xb4072df34bbf7430U, 0x1adec24204643fceU, 0xded5f647fdd0f148U, 0x949dc7bde5e05a35U,
  0x3e3db8c3d3bcfeceU, 0xad3ffd7c941e3fe4U, 0xe20d5cc2d03afdb2U, 0x1b4427d30de5027fU,
  0xd637ad3e54e745baU, 0xd024d2f618d73819U, 0x890bf2dc0330fae3U, 0x3a1bfe3e7f090716U,
  0xf4e210afd5440d04U, 0x30eea5cffec71aaeU, 0xf244e6c00df308e6U, 0xd115532711f5eeb9U,
  0x93a8d93c183b3ee8U, 0xbb1fbf0a4beff822U, 0x1ef2d1ef9d75e9cU, 0x361dba4e2ff81dd3U,
  0x47f41dc83d33d3f4U, 0xe93725f0d9fe29d8U, 0xbcd74752f513f6d2U, 0xc942d2d02cf5e4fbU,
  0xdcd014d9f9483fceU, 0x221ee65a33e4d1e0U, 0x51f2741e9c4030dU, 0x43e54cd4ff153adfU,
  0x2b0b27eb36a40706U, 0x39adf2ea74f4fdfU, 0xacd141dc4cb4034aU, 0x9cc63731c2bc56eeU,
  0xf7e802de07e83210U, 0x9a8ffed5dfd0e516U, 0x1398e12d25fbcfe7U, 0xbea413e80decdb13U,
  0xc1d15f4b14c7e76aU, 0xd6ced5d98112530fU, 0x4e7e1400a253908U, 0xcef7253bf9f20100U,
  0x23d4f5f723e3caf4U, 0xb401c2f8124dee35U, 0x27f61823eab92738U, 0xc4dfdb0cfac816f6U,
  0xfed9c73d53d4ca35U, 0xa425a9e4ce34d2faU, 0xc935ebe63c1809dbU, 0xe386dcc5dbb6ffe6U,
  0x27201722a45330e4U, 0xb0b0c7abe265ba2dU, 0xaba9ef404c0d140bU, 0xc98bd05b36a956d4U,
  0xbb2e660823d81caeU, 0x43f133f4b8ad531fU, 0x27f4eb42ca71042bU, 0x34aea3ea7ac27043U,
  0x27402bb1f05dc120U, 0xb513aa557f0d3135U, 0xc70b3833b511aff5U, 0x6fc055a62e0668dU,
  0x46d2196ed33e513eU, 0x1429ffee3cceefa3U, 0x58c639f8b3acb8e6U, 0x1eaf00f93ccb4b1cU,
  0xfa9fe129c6d948e3U, 0x153eb2eb2561f53eU, 0xc1e841c4dde33f01U, 0xd3e6fc190606c8faU,
  0xe618c01bdf14242dU, 0xf9f7bdeeba2b4156U, 0x47b732e8520a2a3fU, 0xd8acf1310603eb56U,
  0x2af16229d151d1ddU, 0xf9d52e2bacd34a3aU, 0x1fdf0c1cf62403cfU, 0x3c05e942814d3059U,
  0x59bd1418c9fc05ceU, 0xf212021929f5c446U, 0x33aab61a2c1b3a12U, 0x12d71b25d537e9dcU,
  0xf0a6c6c7f8b9212dU, 0x331b2f261e1d24ceU, 0x3df44dfb6318e700U, 0xc911d43bcace3d4eU,
  0x58c02ff0e0a342feU, 0xe9c74ef2aa5121ccU, 0x1521f50eebc5f536U, 0xe9bf23130cef22c6U,
  0xfc9e0544509162bU, 0xf938fad78108615bU, 0x14f2682265160a25U, 0xe3a9c9fd2e4d573cU,
  0xb175c1e0a161365U, 0xa3c3b6cecae51930U, 0xe9a93ef6dfae4ac2U, 0xa40a01e4c3e3ee1bU,
  0xce13235003d95150U, 0x1e839f6c3d829ceU, 0x13c425284f29fe36U, 0xa4f0ed4de3c64bffU,
  0xbee1ddf2ecc46038U, 0x1e01afb0f7c5f459U, 0xdd8161594d323ec2U, 0xffe7e4fdf302fd55U,
  0x1b0e5d855ddf63fU, 0x9cb12005ffca326aU, 0x1de0edd62bc7d44dU, 0xeedbd94fecfb6571U,
  0x3a3ff53c5bdcb1d4U, 0xf0d2b14449fa2a1bU, 0x49284616eb44e939U, 0xe5d62ee3daf3bad4U,
  0x3709bc120ed6ed45U, 0xfe07f0240cc4353dU, 0xfebf3e03a713c001U, 0x393e15de020dcb17U,
  0xc5b949bd951101U, 0xd19b70776cda49fU, 0xf826ca31fd2f1705U, 0xc4bfd023302fefc1U,
  0x1fdc3c0dea4a1e1eU, 0x3441161807d230beU, 0xe1d2e6e2f0ddbbd9U, 0x3f27da1e3eedcf14U,
  0xdcfa282a07c10229U, 0xbece02e33c28f4e9U, 0x3dd4e324290e22b3U, 0x221ed01052f021f7U,
  0x3dd8b9cfeaf2ceacU, 0xe4123c1f7f2606c3U, 0x1dbce23bd8ee2013U, 0xf50c32212f1319d6U,
  0xcec40ef7ff3c01d5U, 0xc0252bfd1e2fd124U, 0xdfd4bbeb1e3c0fd2U, 0x2932cb1c2005e30fU,
  0xf942fd46d70ff12fU, 0xa490250ab9ee0b16U, 0xeacbc70831d8bb01U, 0xc2c6ca6a89c01d2fU,
  0xfce11c30d3ae390cU, 0x2faf5a4447311807U, 0xedb6c2d718b80eebU, 0x2abd486de2d7fb9aU,
  0xc07220519233a39U, 0xd0bd394df22b35fbU, 0x15f5273ae2bd1becU, 0xece329c2e442be20U,
  0x56f92a3deeff3317U, 0x26360e0bce3450b6U, 0xcfe2fc4562dd49c2U, 0x209032ded66c56d5U,
  0xcb11d610fcf30f3eU, 0x620fc622a4dc27fU, 0x341cb0d33708d3ffU, 0xd7b26b69100d2a4aU,
  0xbbf6c44bca42cf3dU, 0xc127be24bd62e8e5U, 0x9435cc11512cceb9U, 0xbc400258223d4e02U,
  0xaefe3de3644e1e15U, 0xe3cb491e2213d3fdU, 0x28eb3bbf170c0d10U, 0xe72118ede3b4e863U,
  0x124ae442ba254f68U, 0xd1de18e803341771U, 0xb94bd1f85a437fbdU, 0xe544f0c70241dd45U,
  0x47572a39b16506ceU, 0xecc127c442c5d616U, 0xc0b2a64434304c0dU, 0x1a358bd4fbdc0a18U,
  0xc0e4b73b180c4e34U, 0xf64642d07fd02799U, 0xcb7150b570c0dadU, 0x3f3bf01f1c069df2U,
  0xe807953096d2f2c5U, 0x43eb0e3410f8b19U, 0x55f1d428f4ff1a02U, 0xdaecd8fe33512edcU,
  0xba8b3534f9202da5U, 0xdaff51acc071ef0U, 0xabdcc9bcba24fb0aU, 0xdf0743d0300026bbU,
  0x1920d13fee26cb09U, 0x26bce75a5c332d16U, 0xba93123e522117e7U, 0x3dcafa43130fe7d6U,
  0xfe7270ec01e00e0U, 0x2d02bce4825c394U, 0x311a17c85e96cd07U, 0xe1e8a7d5334a2b43U,
  0xb9bfdc2cb0bc805U, 0x1981c9eafd1540feU, 0x21a23f4de52ccae2U, 0xca1ec3af5da4ed1U,
  0x5efcdc153f47d1edU, 0xa59314c0fcd8281aU, 0x3ef11f29e7c93800U, 0xfecd3ceff4430561U,
  0x1f2200ce11d2af61U, 0x16a40ffc0e080c28U, 0x41add8d4e316f2d0U, 0xbd1beeea27ecde00U,
  0x1797321c059616ffU, 0xf7d6c61c4f401603U, 0x701629663311e514U, 0xd228b6ddee5bdf25U,
  0xd5cfa3f4fff80ff7U, 0xddcfaff2f085c18U, 0xf9a3be4d24ebdfebU, 0xf6a0fbdac3e04a1dU,
  0xe00aaaf7dbe425aaU, 0x4491eed45eee3b8U, 0xebaed1fc1181851eU, 0xa8ccc01bd9e6e133U,
  0x522750ca51df0605U, 0xced2401daf707948U, 0xe193d5546cd697ceU, 0xe2921d080427296bU,
  0x67d1283d4c840ff1U, 0xe6e7fc3cf4de164aU, 0x610446465f13f3e5U, 0x2927e218eddef757U,
  0xf6e2d9de4504c436U, 0xcccccb4bf268395bU, 0xec2bcc1531fb2ea3U, 0x20601da6ee1c535U,
  0x64f6dceef6a00d17U, 0xc608140e4feeccf2U, 0xe8e8e8d62fbb253bU, 0x183b61db36592abdU,
  0xcb04d4e6b51d0ba6U, 0x25cc89faf896c030U, 0x1c3ac93e2eb833ecU, 0x13e22a3d7fd4c112U,
  0x54cecf3ec716d726U, 0x3ba860ede2ec1c0dU, 0xfc36de040a5130bcU, 0x16cda8214e0bfddaU,
  0x5e0abe1418ea3618U, 0xd10ea713230edcd4U, 0x46bcc7bbf4ee2f53U, 0x41c644e8e24f4914U,
  0x781ecbc4b0bd8e0U, 0x9e14429bbe5e4122U, 0xebcb184778f8ea26U, 0xa6d32830da28245fU,
  0x7a09e523c14af722U, 0xcb22df00c744cecU, 0xffc4286762931f24U, 0x3332e936c4254ec2U,
  0x782ff02902c61214U, 0xb6f5a14f37e465e6U, 0x3bca1b092b48f359U, 0xe2d0ec4126c76943U,
  0x1fc946ffe4d127d5U, 0x93bd16f62ecd0fffU, 0x6dd143e144f3e32bU, 0xb3a04d6a8ecb5afcU,
  0xe5abb8c6d59dd6b7U, 0xb00c41534e685738U, 0xcf38affaae4e46c3U, 0x2fa75f3a1237c0f3U,
  0x4129f11ab628a35bU, 0x11ed64332c3b234U, 0x4f183eca0c7d1401U, 0xf1db42cfd0c23db6U,
  0x4d01d60901a986e6U, 0x2ff339f8d71d09ceU, 0xf20de242ecd2804U, 0xcc246ceff32cee3aU,
  0x55f14beebf45e006U, 0x259e6f814391f01U, 0xd9fdfe3c09b3e55U, 0x88341ed815552df0U,
  0x7fd1fb3d173b47bbU, 0xe6e00a31c25433dcU, 0xaf22bcd1c0ad46f9U, 0x31b61492714de1fU,
  0xe2a7d934e0d7000fU, 0xa4e0c21bb92107f6U, 0x6b511de240cd7e4U, 0xf8164619f2d6370bU,
  0xfcbe113251f6e2d1U, 0xcd0ad4c53115574cU, 0x3b0c0c3941f3d224U, 0xfdf4d7d4f1223e27U,
  0x3ae54f5e4fe94ff0U, 0xce21d72ae32a02fcU, 0x220146049ecd602U, 0xeb1adf0781d40448U,
  0xfed0fb1024d7c8dbU, 0xaff30350d42deaadU, 0xe71e4b165ede04eeU, 0xc8e116fde731e9cbU,
  0x14f84325e1ce0d31U, 0xa7bc243df8492904U, 0x2cb9dd396f996218U, 0xd0db28aa9ef362d3U,
  0xe52defed58c530feU, 0x15a24732c321e2b6U, 0xe428b9481708274fU, 0x34935f4811d4cf5fU,
  0x21f3e1af110ddfeU, 0x94921cc90a7b35d6U, 0x29a35d140ed7dd1dU, 0xaed7c2c874e4613eU,
  0x1b8c02e835245154U, 0xa733b53cd14c3167U, 0xc6ba70d4d6c1c3ddU, 0xa4f11c62ba7a7fb3U,
  0x2e2aeee1f5143e41U, 0x9de0c65c0970690bU, 0x4114634d56fe2639U, 0x3b89c74599ddfe23U,
  0x41323f7f3566be00U, 0x2ff5c5b81fb81d6bU, 0xbd14e3eabf38f666U, 0x2be301eff82dc050U,
  0x3660d0e1f7c5fef0U, 0x62c7d8bdd23befc4U, 0xde22241eccebe8d6U, 0x40248c9cbf9ea6e7U,
  0x3abf045419f311c1U, 0xf2cd17a302f3f417U, 0x2349e9ff8142eedU, 0x2ecfd29f829eee1cU,
  0x9f1655bffb1df556U, 0xd00149eae91816c7U, 0xf36dc1c6c205b632U, 0x5924c220f32ee5c7U,
  0x356fd700af2ef9b0U, 0x50102359ab1931d0U, 0x75aa0abb2943f8e8U, 0xcd2a1f45e8192ed8U,
  0x79413313c74cebd8U, 0xd8a2564824536b9U, 0xf7f43230210260afU, 0xf9e1fbd30b455ecfU,
  0x60c8f13d5b0538abU, 0xb8e10d1ae2cfe3f3U, 0xb632564a183b36e7U, 0xaec2ed15c2772c0cU,
  0x2810cf707f0d4408U, 0xed0ec61724d67119U, 0xc62e742e230c260dU, 0x1646a4d3b1eaeaf5U,
  0xea895cf3058a3a70U, 0xdced99b389ce0f28U, 0xec85eadbc8bf9d5bU, 0x98333795e7ed1962U,
  0x3feec450299dfe71U, 0x16b545badc5666c7U, 0x34e15158f84bb55dU, 0x8eab9fc2be000106U,
  0x34daebc617bd45e6U, 0x2c40f905ef1bc625U, 0x14d73d470704e005U, 0xc1badd57816360b7U,
  0x4f270fe348d8e64dU, 0xdd883f3b89054e13U, 0x36f220f9d1cf9cf6U, 0x11a6eff743103a18U,
  0xe9aee5004413b117U, 0xe0a1e3728cea70b9U, 0x1835ec2348cd6d00U, 0x42d440fcb33d15d3U,
  0xb7bbffd24e053312U, 0xbcbf2ce9abef0cf3U, 0xceffba172b3a05bbU, 0x37b0d8fbb318b93cU,
  0xec73ddb619f2ecbU, 0xdae89b02a01952f5U, 0x4aa72b292d9a0356U, 0xbdcce21ebcc35cf8U,
  0x34d95b43e33c3cc4U, 0xf032f3e98116ea1bU, 0xe9bfee5bd0eb245eU, 0x22ac3105c3220ae6U,
  0x29c759fd34cf0e4bU, 0xbacfb73411e238fbU, 0x29101cd8e73038c3U, 0xd63ad01dc326f10eU,
  0x51fde0262fd10bf0U, 0x3a0cd8c4d4dbc73dU, 0xbe15a9cb38a914aeU, 0xcb253b0bdcf9f9acU,
  0xf94a0a2e04fb385fU, 0x2214b4f898ef0f4bU, 0xaafedf50b24e2fcU, 0x21b1f7b117eb43d8U,
  0xb2ebe014bff51336U, 0xd0c21d9d8b33fb0U, 0xe10b433cf9f39067U, 0x5634b350ad4dd7e9U,
  0xb749fc264a7fc5edU, 0x2d20aaed15e67b3cU, 0x61be372cc948db58U, 0xc2cdf3db77245aa7U,
  0x58e8539b39b817f6U, 0x47c24c37c2bfd6baU, 0xa7f7142861bdd4c4U, 0x2e0fe5a0180e3aebU,
  0xe6df99f10ac7e6b8U, 0x82add5029c807acU, 0x0U, 0x0U,
  0x0U, 0x0U, 0x0U, 0x0U,
  0x0U, 0x0U, 0x0U, 0x0U,
  0x0U, 0x0U, 0x0U, 0x0U,
  0x0U, 0x0U, 0xe12135ea2ee3e107U, 0xb612df25f14826dfU,
  0xfb254a7d252e44U, 0xf2ea3443ae332a31U, 0x3516da373aef1deeU, 0xdbec05b83a29f949U,
  0xf7ecc7007527db06U, 0x3ccf42fe9b1fbe2bU, 0xb7335a313281d1f7U, 0xb6ace3b4d24ba733U,
  0xefd930b251e0ce46U, 0x6bcbfbcbdeed4d9U, 0xe9ede6dc3da52035U, 0x3c133f533e09521aU,
  0x43a52c19ba1b14b8U, 0x2f2cd0fedfcc4502U, 0x27ccccc82deef74eU, 0xe305d91be7fa32eaU,
  0x2b28e01536f6c70fU, 0x260eea03cd3d041bU, 0x37dcbf3ace0f201dU, 0x330824ce24e4c131U,
  0x2b15f0e0230a1a21U, 0x2e122c69fde4440U, 0xc3d1a91500f3323fU, 0xeeb4c1e4d3962829U,
  0xe5e432d02837cc09U, 0xccebe7baf5d606fbU, 0xd3f0f10cffd6d434U, 0x3cf9f208f6b2eef9U,
  0xe4ce211ec82648c4U, 0xe033f71afd0e100eU, 0x1edaa2f4d01edf7U, 0x38db4e4527dcd1c9U,
  0x391b4ccdd9e1341dU, 0x3de302cbedd81feaU, 0x40d42724412d15efU, 0x1d1afef50bbe4bc9U,
  0x8ae4b40ea451d14U, 0x36faf03842d44701U, 0x3420113afcefc1f6U, 0xf30a3efe2ce3de2cU,
  0x2e81c0d31cc700b9U, 0x304bbfbdfc1d0902U, 0x30c9f705e54ad8adU, 0x21e1be15cdded6b5U,
  0xb4b3b8eedef81aa9U, 0x5715149667bf0197U, 0x18f7334afab1433eU, 0x3cdff645413b0545U,
  0x2d063a121dfb3a0aU, 0xe0282bc212c528e8U, 0x16cef30510aefeeeU, 0xd2efd72dcd0f9e0dU,
  0xcb87170be4d6c148U, 0x3fc7451be901031aU, 0xbe72efb1bdbc19dU, 0xad9ad31bbbf7d8ffU,
  0x9ff4c7d0150c0d07U, 0xe4d7e5fee5e0f7d5U, 0x39dc491d1af94437U, 0xfef319411e3aed02U,
  0xdec13611fc1df2ffU, 0x393b0a1118dcd429U, 0xe310d50b460c3cc6U, 0xcad1e34d4035eb39U,
  0x172b45eb1818fc3bU, 0x52cd27f73a3eeecbU, 0xb3a2ff105e1d9eaU, 0x3bc611471cf31007U,
  0x24dc1b250221cbf4U, 0xdcf1370a3f2ae1fbU, 0x34e4e236e001ea0fU, 0x2fe7c3f2cd653ad9U,
  0x1a4d19d650270a4dU, 0x45cb1cf41bbfd606U, 0xd0480f29f817bbbbU, 0x3ff415a2367c003cU,
  0x245529f6d2fbeb0eU, 0x1dff0ee223c1b7cfU, 0xcbc9dc4be502d1f7U, 0x932b2625227f2d60U,
  0xe9f51233cf0c0a08U, 0xd30c24c905cdb0dfU, 0xe54c29c3cc7a23e0U, 0x5ae0284cf509f9e3U,
  0x120cde15e0f21d9aU, 0x5841412e3ff8ffc8U, 0xfef03bf43a47e7f3U, 0xe8dfbbe12e23fe3eU,
  0xc35e29bcb3fcda1aU, 0x47d34a25390bd82eU, 0x2728fc563d4bc334U, 0xfd2234d1f6274f2dU,
  0xe95641e14d4b28e6U, 0xad0f08c2fed91130U, 0xec19adf9dd12b7a5U, 0xfcc51a2699d1db05U,
  0xc5e20201300cab0bU, 0x361de8d9dcc81c95U, 0xb02fc00b2c10e5bbU, 0x2121ce2ffe02eae1U,
  0xecf8eb1bd53619e9U, 0x16e640b9113522bfU, 0x3e111812ea391620U, 0xf1e6021ddcc74ab5U,
  0x32671b4af744dae4U, 0xbc4f2c2c1657cf14U, 0xefc34ead94c1223U, 0xf9beb6b7d53f3645U,
  0xe550e1a5f85db6f7U, 0xf014d1e218bbb906U, 0x43344dae583ece19U, 0xc3265b2cfc010061U,
  0x28c4e55c3b270357U, 0x2314cb01a4c40207U, 0x276f4e020f364676U, 0xad5f265aeaccee05U,
  0x30f5bcbb2b165a4fU, 0x6116d5f38854b51fU, 0x1c3d26d35b10e508U, 0xf3f0efb8c61111c0U,
  0xb8c3ddf8d13f1d5aU, 0x124df85e566cf052U, 0xb8399a41ad0018f4U, 0x3b28c2c2fb3a42a9U,
  0x792e434dc8e01f9bU, 0x9bedd6fe483c1531U, 0xc8daaa424f6ff957U, 0x7f61121676fbf8a3U,
  0x48eabded131844ceU, 0x4bce1e27ab770330U, 0x2a456cb6d5620c2eU, 0x5cc492534e1d9edU,
  0xcafa25c51c6c4722U, 0xf536e0fd00b6d03eU, 0x62e0fdc2e34b033aU, 0x241c22454ebe27b7U,
  0x106311b8127006f3U, 0xc5ce57d3ba2f13c4U, 0x2cd4d9f65e6bc0f5U, 0x4144524150d376e2U,
  0x4636d274ffb7ec1eU, 0x717500ede4efa21eU, 0x293f4a0942e5d834U, 0x4002637d0ccf81dU,
  0xd6b834d9dc1c44c5U, 0xfd071b25ea16ded6U, 0x561efe272fc4c918U, 0x4bc1207c3da0adcU,
  0xf501e9ef171dd700U, 0xbac520033ff21532U, 0x3a085c4943e4c411U, 0xfd173f24e7c8fa01U,
  0xc80915ebe61ee0c9U, 0xd80dbd06d707cb23U, 0x4f2a0c4cd9e34232U, 0x5af817ebf2f0271cU,
  0x3aa339cae8c03bfcU, 0x28f738de0fe23c2dU, 0xd71f1ae6ec6e2ad9U, 0xedde0e07ec1d0efbU,
  0xf1221cd611e00a36U, 0x29c530173504c3c1U, 0xfa272afaeb554c4fU, 0x3c32c9cdd1074bcfU,
  0x2b101b3ed32bf9f5U, 0x9f5d0f57f5655e9U, 0x440efcd73eee0ef4U, 0xcabf132f1aaf14cdU,
  0xf1190408e320fa12U, 0x16c51d04cbd4f43dU, 0xc436100f00f4b7cfU, 0x363b2ee7dcc52701U,
  0xbb16cf2d152f35f0U, 0x2b26202ad0062841U, 0x1bc710dbeef246dcU, 0xd9fc2a364434fc08U,
  0xce0fe00adac04ccfU, 0x16e9bee313cad5f2U, 0x1fe52a091416d84fU, 0xd0b6d4e8f35e42d6U,
  0x4c0c52feebba22U, 0x2c1203eeb6edf0e7U, 0x152720ddedc9f012U, 0x3f5b3cf722e75238U,
  0xe06d5a52edd45131U, 0x33ed35fbdfef3836U, 0x4bd409090738fc0aU, 0x230806001a702adbU,
  0x332a02045826d92fU, 0xddc4e049ee082dd0U, 0xe5ec011fe916daffU, 0x463701e1f43dcc3aU,
  0xd4f8b6e6f1c4efb7U, 0xc4d0ad29c6e80324U, 0xcb2fb8f20b9e39faU, 0xe0fb46edc3f73fe5U,
  0xdd38c528f1e345f0U, 0xd2ead7041fe8c61bU, 0xbdfff631584046dbU, 0x58fce8fd0e4cbbcaU,
  0x1ed20e46443bdb61U, 0x52ff1c32b6363ed4U, 0xc9d558a2c3bc0dd4U, 0xc8ac0bbe0f7faa25U,
  0xb5f0b70cd4bd0204U, 0xf727becc2e0afdf7U, 0xc0c2c22538ca37c9U, 0xeac1c822fde552c9U,
  0x445dc0e7f5c53cf4U, 0xc04446f4f64435f3U, 0xda0af44bfb0f13d7U, 0xa263bcee8fdebf5U,
  0x39e6fe502849f0f5U, 0x1cf80944bb27284aU, 0x290b0f2af2e545feU, 0xcd0addf2228a0fcbU,
  0xfee9ea07b7f7e247U, 0xf5c1df4d0df4dde8U, 0x4940f7fec4cc0439U, 0x443a2ffb18d11515U,
  0xe8bffc0fbb373dd2U, 0x2ac63a05c204ffc1U, 0xc2e5b7f23506e146U, 0xf135dace4e883940U,
  0xddd816c2c12b0e44U, 0x18df17f52c4ae1cdU, 0x43492617edfdec48U, 0xd10d02c12eef2abbU,
  0xdbaf313dc31309dbU, 0x2c0d1af430310f01U, 0x2951e4fade3c0712U, 0x1dcf57d71281d9f1U,
  0x5b8e13b8e4ef3a2U, 0xea2b02de4f27e52fU, 0x4d2811d9b130e843U, 0x2d034300efc4ce88U,
  0x18c333edad10d2bdU, 0xd53527ee672d3a1fU, 0x27e41b22423bdf13U, 0xc081dda0fc7e2d5U,
  0xedd334c2d8490bf0U, 0xf729cd094acec8dbU, 0xf8163ecb170e3fc7U, 0xcf0c32c05f12ba0U,
  0x61f35b99e092bb6U, 0x14e721c9461613c4U, 0x42fd12b239262eeeU, 0x7bdc6bdb80f3c9aU,
  0x11abf0b6c5bb25aeU, 0xe1d23dc42b73b2bU, 0x4b37dbb9194ae143U, 0x2a39765de504b4f5U,
  0x39c3e50a8574b1baU, 0xe850e0e97e4f37d2U, 0x475c3bd9a000de3fU, 0x4ec1cf9b1c72400U,
  0xcc16fba6d7cfae88U, 0x6b6c5069164a6f57U, 0x13f12d14b166fbb7U, 0x173153c0b7ad62a3U,
  0x3cc451ba9768091dU, 0x442debd5034eed50U, 0x2203c7cb511b35efU, 0xd1d4f8da5a1cbc60U,
  0x69bb9b23f3f5d34U, 0x19c64eb367cd626fU, 0xfa4ce852a6f61b3dU, 0xe809c53fee8605d4U,
  0xed1dcf9b49eaf6cdU, 0x42ac4fdb31b141d4U, 0x6ccf44b397c4ec12U, 0x5c3c1e3ced8210bdU,
  0x95c10abd36d43edeU, 0x321f2df662fae927U, 0x5cdde072e02bb8f6U, 0xfe35672b3fea2ef8U,
  0x30c246c6ea5e636cU, 0x3716fcd415d4f93eU, 0x214f04aced7fe8faU, 0xfd3b2150be04f4deU,
  0x795d41106eb42e8U, 0xd41e1a2f6ce6b8eaU, 0x3b0014eda9e42717U, 0x29de283ef1a0df09U,
  0x39acdbe3112f304bU, 0x24a0585a1ff3f465U, 0xf70abbc319dbe12fU, 0x3cc518bf1e0cf494U,
  0xede6d6da2af8f5d2U, 0xcc333f181d3eebaaU, 0x541e29c9f9c84e47U, 0x373c063b53ec7facU,
  0x9abd860fa011b25U, 0xe44bedfadf05ec10U, 0x2d932364df1d2e2U, 0x6750f12c0fe83287U,
  0x5bcf59f0b3c53717U, 0x231c1323be33e81eU, 0xd82d2deee40ccc49U, 0x35332ecd1bae472cU,
  0xbbc9daeab2511fc9U, 0xe547f4d27ecde4c7U, 0x31021c11bbdafb33U, 0xc7e506c72acd0795U,
  0xe6bc04b523273125U, 0x2ee0372f1638b3aaU, 0xddd24c0d3f181df9U, 0x56d11be9c80ce2dfU,
  0xaa3e72c35f612ffU, 0xcdf7c91e57b928faU, 0xad21d462a4fda00U, 0x2bcc10e5bf32ffcbU,
  0xb3d9113f172a3418U, 0xebd825d16bf6b801U, 0xede6ccb7eee89fU, 0xdb0d10a0a2f258ffU,
  0xffe0b1ac4a0a2bcU, 0xcaf022ba2f94ec26U, 0xc4f433e11df1bed2U, 0x43ef29fefdea581bU,
  0x2f6adeee6e21314U, 0xd50136f4272db111U, 0x381c21e0f2a5272eU, 0x3162948290fecbfU,
  0xd5f704eafb1e20d2U, 0xb5febafedaf3d8f7U, 0x2f2dd1e2321d3ce4U, 0xe0f20d06fddf60aeU,
  0x6402385fea0e3fddU, 0x8e1f716afe530f6U, 0x42dce854dfe41012U, 0xf03a505af67fd635U,
  0x210b4240f10b43c7U, 0xd92a31e63327f957U, 0xf618f91301f0b5eaU, 0xb5d1cc30ca4b0937U,
  0x1cede7af45c5b93cU, 0xc64434bfc9cceab5U, 0x32def51228d147fdU, 0x36cde1404d984117U,
  0x2619f029eef3fcbfU, 0xc00d21d70a1433ccU, 0x411216582cc1fd0dU, 0x1003b2084834dfd2U,
  0x5531ff034fc3ef45U, 0xfb00d2251b28e8cdU, 0xef0a73ceb6440133U, 0xf1c439d7f16dffdcU,
  0xcfe4ceb159cbe3f0U, 0x30ca13260807bccdU, 0x2bfe3900b4bd4cfeU, 0x38430419d6bcd22bU,
  0xfdceee0aa6b5ae1cU, 0xc3df2ebc223901bdU, 0x3e33bcced3b9de0bU, 0xd9d10613f6adb926U,
  0xf02cbfbf43b93bc2U, 0xbcbc1fee163b0501U, 0xfee5233dd43717deU, 0xf0f9df68c6431e04U,
  0x34a64346fa46fff0U, 0x4f4be110d6570af3U, 0x1cc8bf40033149e8U, 0xec28ed6a0efcaa27U,
  0xeb46e05af6dbe4b4U, 0x2ee3ebcfb2e36020U, 0xcd26203c3bfc35d3U, 0xdb1e2223f771e80cU,
  0xdb2b34ca30bdbc3cU, 0x1efdb9cfae13053cU, 0x1919b41b20bf2a48U, 0x48c5cfddef561402U,
  0xc7e4c850f5d2174bU, 0x23b4c728a24426edU, 0x2ec9de25d504f721U, 0xb3cd39c9165c3149U,
  0x53c101536be1521bU, 0x43d61527feb9f4b2U, 0x2ceb5105019f0706U, 0xddaca743334ee110U,
  0x242a151aa7cc06U, 0x1037ece4aed0e102U, 0xcfc8d341edfc5a33U, 0xb9f1e64e30fa3becU,
  0x7cd36194823ded8U, 0xfad13735002ffc1bU, 0xcc0fda6362e3c65aU, 0xe8c624635d65ca1cU,
  0x42323bfb7fb740f5U, 0x391511d9a901e630U, 0x492705d84b2023fdU, 0xe12ee5392c7059ebU,
  0xc875080c0a395662U, 0x6017123ab6f7160cU, 0x15cac629ebb235edU, 0x6aeb5d6e6020502U,
  0xec16a628d20831b8U, 0xa53fce4d62abe0fU, 0xe804ad325e8fe548U, 0x415f2c2237163afaU,
  0x2ce7f51ce518e212U, 0x22735e31aeca04c9U, 0x570c3024190540c8U, 0x3963bfedf31112b9U,
  0x4f38f2116541f223U, 0x4d43f548f8524dcbU, 0xf3b911ade1b5c9c9U, 0x2bd8dfc7d7fa37f3U,
  0x993da5a59ebfaa95U, 0xd53b131a6998c6eaU, 0x1dd25ce1b623f3b6U, 0xbafa0c2f21981c17U,
  0x121cd7bcc4e3c324U, 0x2f41f4aec5d3a60eU, 0xcc40d4eb5d8ee305U, 0xeb5642d857ae3403U,
  0x4cc0145063a8ca28U, 0x17493d2fc1edeb98U, 0x8a92f90af70ec20aU, 0x1dcf83218b6301bfU,
  0xb29781a9fafcb1fbU, 0xe4c5192df3cc9fb9U, 0xfeebe1b638e5b31dU, 0xf49d1c18f49741bfU,
  0xd8def0279cf7a9cbU, 0x12ce2e18e9290bbaU, 0x17e9a8f819053714U, 0x1e2b64e18011a21U,
  0xb218b1a7dca79e18U, 0x1d2babb457fc1ffbU, 0xdacc12e41ff2e9d7U, 0x1f00bffde067292fU,
  0xdb112fda30ea32ccU, 0x31bae4c60027ca1cU, 0xfec727c33bf3c1feU, 0xee3222f3e5383326U,
  0x2d0cb1164419ddd6U, 0xd9be35cb343cccc4U, 0x10adebdac71b04caU, 0xe8b9cb27c169e301U,
  0xda05f92f340df7efU, 0xd3faf1cd5bfa26c1U, 0x1de43beaccd81cf3U, 0x1aeeed24300bd9d3U,
  0xe23354819cf0952U, 0xe7e4dce3eb431f1eU, 0xf9c9e60e2f133fefU, 0x2e46d1c0d87f195cU,
  0x41e7484a503b35d0U, 0x14bddc2ee3f11dc6U, 0x1811fa2fd4e004cfU, 0x31b82ed3e4fac70eU,
  0xc72d194358cdfc3aU, 0x222acbb518441532U, 0xbe47d5392207e0f1U, 0xc9bddbd71d581becU,
  0xec4630d7e2c3d604U, 0xf73a3906f7df12e2U, 0x8d0bc333ebdd4f9U, 0xc4433b38525c4036U,
  0x4bfce32602224034U, 0xcf34fbc7d81c3a4fU, 0x2f00053630cfc1ecU, 0x21efe4e5347b1cecU,
  0x4315323e2c0a49feU, 0x121158caea3c3f30U, 0xe8c0ecfdf2680649U, 0x34ef60f1f0c1d1adU,
  0xd70f68bca033e3c9U, 0xcd632422271a1e06U, 0x726fadaaef570a10U, 0x6c5c32c2219e16e1U,
  0x3aac0d1fe27f2434U, 0xba5c0a65d9106a11U, 0x2ec9fafb3d6ebb6fU, 0x55091b1241d75abfU,
  0xfaaabfe6bc4b5bb5U, 0x390cb5d76f73dabeU, 0x55bebdfb4edeb544U, 0xf144374ef2d56038U,
  0xe79dfef0e03eb7f3U, 0xcf3c45c822b915d1U, 0xf35a5fc7204dcdbaU, 0xf7ac4445bf8721c0U,
  0x2923cb08ac251eb4U, 0xbbafbaff3b30c652U, 0x3c75407f87abc9cU, 0x5d43b9cdbb4c00cU,
  0x33ba9290d2f53033U, 0xeb1fc3f905bfdc0eU, 0x4505df4c2828b330U, 0x74c33112b2d1c07U,
  0x5d7af51fd0bf0ffU, 0x1d0bef5636b55e1fU, 0xee0b3fb4c946a8aaU, 0xa6ddc21655f4ae07U,
  0xe4ba52a1d20ec236U, 0xca0fd8de0918d304U, 0xc70abd04a44c1917U, 0xc7f909f0fc3623f3U,
  0x1a19bc3c3ff3fef0U, 0x52d3c84c18b1273bU, 0xb70ec7260c0be41eU, 0x3b21ed032df6c9f6U,
  0xd219d415d6041329U, 0xf652cd4ae40ae8efU, 0xb7d044f6d69f20c3U, 0x1d28b22f0107041cU,
  0xffbbec836e21e31U, 0x24062b3515ea32f1U, 0xf0cfd7ee15c1aed7U, 0x1a250addde26043cU,
  0xbbe429242dff0ddfU, 0xaf82bc2f20fbc36U, 0xeaf3f8291f9b13ecU, 0x1c261df41229b1d9U,
  0xfbcf320a29d515eaU, 0xe74e4b0ae12b0ce3U, 0xd8e037eb42d0f707U, 0xe1ec03d1e75f2ef3U,
  0x34c1f5151ed63f05U, 0x635fe45a50e1c25U, 0xe9da29e4c9011bc0U, 0xe47fee63e7faf10U,
  0xe0c931c969201d38U, 0xe2dc253dcb0de4f8U, 0xc61b1f38d5f5492fU, 0xb4cc3b37300e0debU,
  0x3edfe4d8c7e03e3dU, 0x2a0cc81126d33713U, 0xeeea30d73ee8f743U, 0xe15353ec3769eb37U,
  0x13185a220b345567U, 0xdf220757d3d3d70cU, 0x4ced15de3003132bU, 0x3f5e3045f76c1eddU,
  0x53d95b5162485b5fU, 0x32dc4c18f3e0e427U, 0x4840cf2e2a25e7e5U, 0xe653ece6311832afU,
  0x1619ecbee409c3b6U, 0xa05d4d610c952bfU, 0xc31095d754364b02U, 0x2f552b012c83f7a1U,
  0x60b1425bc616072aU, 0x4bd83c41b51555d0U, 0xbc6cb3f9cab35b14U, 0xa17fe1a498b6ee1U,
  0x56a1e26e201e29bcU, 0x26105a26b4696826U, 0xfe9c447c0d1c831U, 0xe6aa53a701a465a9U,
  0x419bc807ba56302aU, 0x15d42b503321e8d4U, 0x56f994c0ded24d00U, 0x22e3edd911925e81U,
  0xc9b8bfb9ed091031U, 0xcebcf538121ccaf4U, 0xea1590eacdcb2f41U, 0x11ddc9d25ccb3ed2U,
  0xfb8c2d0287e0271fU, 0xc644b6e63bff10feU, 0x5837cac8b16949c6U, 0xf7ce27edb8331ac9U,
  0x145fd210f7495fc6U, 0xecc649b5fc00d665U, 0x92e453aee58fb0aU, 0x2405260523c01232U,
  0xe5d4cb0def22e736U, 0xf3fef8c656b7decdU, 0x5c24f408ffec460eU, 0xb2b5261908c3b84cU,
  0x3249bd3ae8b636d5U, 0x1ffeb2b0e145ace2U, 0xae3be408d69afc0aU, 0xe1fd094df08bcddfU,
  0xfe0cdbec21babc1fU, 0xe2fb3a57ac2de39fU, 0x5c44b3d6051e1300U, 0xe05122eb4cd015f2U,
  0x5fe05dfe63f338c4U, 0x651756e1f36429b7U, 0x4f5ddc93f4754cbU, 0x5b23ebdd5263b815U,
  0xd2ac281651ba2c1bU, 0x45e9f26b2704ed42U, 0xeda11e2bf8c4bfa8U, 0xd6332eede7d427f6U,
  0x805a6a4e529e40dU, 0x331244c5f6d628d4U, 0x3518ddff5ae3c8b5U, 0xd2fce55405813109U,
  0x4eea0c27021ad0a2U, 0xffef1ec2f91a5b1aU, 0x350dbc3514ef2ffdU, 0xf007e4fee8d01637U,
  0xf8b21fe43d4607d9U, 0x57ec5efa1dd4fdf9U, 0xb6ade595fbcca40cU, 0xdf06e020d8b9a508U,
  0xaca8b0c724b8cca3U, 0x1a06021f4dd81219U, 0x29daf0bcafedebb0U, 0xa4e0ec420d3294aU,
  0xd90bf8c40db0fae7U, 0x30f617f3d448aec8U, 0x3eff86bd15c5d1f1U, 0x1b4c035512c9d747U,
  0x163211e128d13e13U, 0x4426cd029cb21da6U, 0xcfde1a3e39e4cf0aU, 0xb4cceadbc76a3220U,
  0xd45f7cdfdc3cd11U, 0xe4e4cbd581fae717U, 0x13dd333b2c1c3ff5U, 0xdd1311e8fc6e0dd4U,
  0x3f69fee3d9f3d6efU, 0x2cca4720c3dad830U, 0x404fe25382f04cfU, 0x26122e48da02ffd4U,
  0xd96d02fd36d91d3aU, 0x31141ee7171b2a03U, 0xee04acce1c3a153eU, 0x2314f50fd1e5e713U,
  0x4017110d151a0fbdU, 0xe21c10cea1f3311fU, 0x16ed17ed08cfea1dU, 0xdc4220d92cfe12f0U,
  0x3e6d3e2d2323f83aU, 0x422cf121f33d43d7U, 0xdaf3f13231324224U, 0xcef2093cea4d1d41U,
  0x3c231f0c270105f1U, 0xd3cc19ead614f9ecU, 0xfd06cfa8d3c712e6U, 0xdec3bcf82ddb0601U,
  0xf3eec80c17c611d3U, 0xd3d1ecbcc5bdd5a7U, 0x213215e0ca0746daU, 0xf50112ed12c90d09U,
  0x44f9103401edd02fU, 0xebebccf6e1d7f91aU, 0x1ed2c91e0fec0d47U, 0x4f11d34148e6e926U,
  0x341d12330d2ed044U, 0x4206f72ef60dd43eU, 0x1e02a6ef2b44e2c0U, 0xbcc623af08a9172fU,
  0xbd4aff19fbfb1655U, 0xf43cc02610ba424bU, 0x5245bf4dce2f4fd3U, 0x2c8e4c44e0c16deU,
  0x18f535c1dad757cfU, 0xa6e31b58f2363b57U, 0xe8dfda510f605330U, 0x4541341227d43710U,
  0xf2b72b4ae35e33a8U, 0x14e23cca092316ebU, 0xd242b4f23ffc2e55U, 0x373462d7dadb4631U,
  0xd8cdff289f2ada1bU, 0xe4d3fbbb62ea2a3dU, 0x57500246127f4ebaU, 0x4a42ca20bdc7e232U,
  0xb8e0d9eb81dce8feU, 0x562c0e3568e83138U, 0x5731e8e1cb51fcf5U, 0x1afbf51adeac0f99U,
  0xced74c3d8bc2479fU, 0x5617ebd575d50baeU, 0xf65ad20b2e3641c6U, 0x17f31a02edd503U,
  0xd1ebd5f7c71acdcdU, 0xbfbd1b1558281e3cU, 0xe41e724323d19d3U, 0xe121bef52b24fde1U,
  0xfbc70ea84325c4U, 0xfff0afdf37ce3106U, 0xe9b5f31bef49f0f9U, 0xeccc4dd5ffa10207U,
  0xe4d4f9d5f443443dU, 0xb2f5fc26ec1d0c24U, 0xd8c55f430a67dbf1U, 0xd131e8e6226d47deU,
  0xea6d2d472738ba0aU, 0xc310fd5b23cb3e0eU, 0xb36f730e808e6b2U, 0xfafbd7bec042ce1aU,
  0x4149c1c6c61e4b25U, 0xe42711aa200c0f44U, 0xeebd43afbe58ca03U, 0xf29dc32d98201ad7U,
  0xc311fa2e273fb1c7U, 0x249bb9c751efa7c1U, 0xfa3c4af5c03ac5ccU, 0xd1be5a4fe92420e9U,
  0xc5052d060cef0b45U, 0xe42bf3959bc0301U, 0x41e757dbe9f5cdd3U, 0xecd535d63638e1eeU,
  0xc01ce30adf0c3422U, 0x1f0fe7d94209b405U, 0x29dd44f2edec39abU, 0x45c4b3caa00e0becU,
  0xef5d3a1d1ffb18ddU, 0xca06ea1a22c8e1d4U, 0xc034d31b264112c7U, 0xb8d5145010e92c1fU,
  0x3d7f25cece1ccdefU, 0xf1d04164c270bcdU, 0x9bf1f370c13ba00U, 0xe2ecb839bc1a3cceU,
  0x3e0bdcdff7504ac5U, 0xf91e324af6e802e0U, 0xc6f0c3fff44da6f9U, 0xc0d3280cbadefe2fU,
  0x3209d006ba0a022aU, 0x1f3a0a1a1ae30bfcU, 0xdde024d6073ae0ccU, 0x64263a3950eefd2fU,
  0x4f81fff846d7d702U, 0xf5fc3cfff4610f42U, 0x4e471fca22a2d01U, 0xe8493a112709d035U,
  0xc50bf9fd1543b62dU, 0x5e69390f23c1279dU, 0xbcb12bb31930d9d3U, 0x12d0181917e2bad4U,
  0xfc1a0321d4b1c5d4U, 0x3d010eef2a29b6e9U, 0x34d20445e2d8c3e5U, 0xd3433f1b3e0d9fefU,
  0x86c3e32ab8db54U, 0x625f4f3323e1be9U, 0x360cfa2610d4e1d6U, 0x1da415ebe703b92aU,
  0xae8ece0ce7bac0e0U, 0x44e9c6de219db3e5U, 0xca19fd1f3ed7c79bU, 0xa30cd7ffa20fe018U,
  0xdacbf5f746ad082fU, 0x2207f408bfa51c09U, 0xf81c096748290212U, 0x404adcdc4c10f9eaU,
  0x2a065fdc5bcc044eU, 0x55481a3bfd38411aU, 0xbfe45afe4613fcdbU, 0xf3db020ffd40284fU,
  0x3fe81d2bed2ef35aU, 0x2f36211802eaf83dU, 0xde1c40e9d8dab0c2U, 0xbec0f81b11ea2429U,
  0xd1b4df1b2edfc1ceU, 0x503fc510c4d7d6f2U, 0xdc0669d7100319b7U, 0xdcc4bf0eef411759U,
  0x481834ede7ea061dU, 0x2c031abddbce453eU, 0x2d2e3631f33a0bffU, 0xf214d02faf55fb35U,
  0xee9caeb452ee0d8U, 0xfe3c35a9ce0c0709U, 0xacb206d73ba4f30dU, 0xc2bfb507def640deU,
  0x3e7fd8c824ed142fU, 0x1f0516fcdffcf350U, 0x3be532d16dfe2beU, 0x36d5ca1cfc750615U,
  0xf9dc0000f82a3f05U, 0xddc236cd0e013102U, 0xfcd2ca134eb1c721U, 0xd0f719fde8404361U,
  0xc55b39f51cca45e6U, 0xce00c3dbd21eda52U, 0x6e3eacd0797e7feU, 0x17fbc536f5014d1bU,
  0x442a0ff108e7fc32U, 0xb12df0371700f54eU, 0x33f42002dc1ccd4aU, 0xbf3ffccd15044321U,
  0x5029123362111a0aU, 0x1234036c92f1440U, 0x2add22231c1aeb01U, 0x6483003e31d52ddU,
  0x5b05d71b28152a28U, 0xf1c49d9d40b0009U, 0x48202d3cf34d14f7U, 0xcdc033f3ea42e109U,
  0x481d4c1304323803U, 0xffcfd236c44154d5U, 0x194c46fe48df442cU, 0x4deb29f0428953dU,
  0xeefe2ec95ae8ed14U, 0x4bcb68e38a4b9b29U, 0x320d15f5db1b2afbU, 0xd3f3a40a514ef32aU,
  0xd5f3e4c0e608244eU, 0xe21e3603fa12c6dcU, 0xb2d30216d0e1fcb3U, 0xa8eb2bcb14cc217dU,
  0xdb55ccb300b755e8U, 0xb8fbf318abe0c645U, 0x3149ac0653326c31U, 0x432b5ac5f0f65204U,
  0x68144973a831d9c3U, 0xda49454f06ff163cU, 0xb5dec11db925590aU, 0x4a0cf43d0defe685U,
  0x68b14f71b14bdb4eU, 0x142eccb037e84137U, 0xbdfc96ec3e44d1deU, 0x41fbff0112436021U,
  0xf3cf4d460964cdd1U, 0x443adbd41c6602f1U, 0x6b7a9825ebbe6911U, 0xb44e2c5a06f2471cU,
  0x72471df010c74ae3U, 0xd8136dfae8621b51U, 0x696fa07f7f30c8f2U, 0x4cb5ffb440b73ecU,
  0xe834f73f4ac9214bU, 0xd25cf808c07410dbU, 0x6e2a4716e8e7d3eeU, 0xf653680a6250e0bfU,
  0xd5c700e441070ce7U, 0x19df23611af65a1dU, 0xf02e18c9ffbf4a39U, 0x17e8bce807ee4221U,
  0x2dd83b21b4d03ed5U, 0x1f2e3b280b00e4ccU, 0x222409e8e3aac323U, 0xd225f93d2db14ce3U,
  0x4cdb3febb4c51acaU, 0x2918bdf02a22c708U, 0xd0e1c2471f152ffbU, 0x301b520ffcb6e8bfU,
  0xfcb7f9d52b1b392fU, 0x312122f7dd461af3U, 0xdcd30819ecdcc3fdU, 0x1c11d91700ce0826U,
  0xc0cacdb7e93136ceU, 0xf6e736171738ebbbU, 0xf71642bb09f3fce4U, 0x41143e20d6b401ecU,
  0xf2b3eee3973dc29fU, 0x31011a1f3d30c29fU, 0x30d0a05c3a5cadcU, 0x744f4c6ca0704a5U,
  0xedd22343c3112ceeU, 0x482f2de2ceec17f6U, 0x2214eced2542060aU, 0x135f7041c2ccc10U,
  0xbfa82de81324b9a9U, 0x3720b5b77fece7fdU, 0xff203110e310b313U, 0x72425e5bdc3f3f1U,
  0xc808d5f891bd0fbfU, 0xc5e4b2b51c00dba9U, 0xc924c4d601f6cd27U, 0xfef3f517f2c4d4d2U,
  0x631192f93e1b300U, 0xe3f4b0eaf3cb3c0bU, 0xd7f6e84e5ab5d703U, 0xf527f3f7fddf35c9U,
  0x57d80761e01533d8U, 0xbb1f524d9e5a3a4bU, 0xd85f0d47c0170961U, 0x4311cc0a4781ce29U,
  0x4a9dc8e9e3eec746U, 0x3efa565a19e94ebeU, 0x5bed5cdaf8523ef3U, 0x25f33815ec21f415U,
  0xbae7c8b9cb49bc4eU, 0x1b2a05e518b6414aU, 0x5ddae3e4d4ff090fU, 0x49db0a53fa065109U,
  0x35124ceb103cc2b9U, 0xe63c5f3339cc4b0bU, 0xe7fbbd00015bd010U, 0xf2ca21482213f2a1U,
  0x1fefc12cd2b3c31U, 0xdc3750c458221a2fU, 0xc1235319da531352U, 0x19e0f3094fdecb2fU,
  0x35ca3010d04cdb38U, 0xfc58f2d0c1d428ffU, 0x10c36ecb0bdc0c3bU, 0x642bdfd2f3fbfadU,
  0xd3d1c1b6d4cf4d2cU, 0x57b2beebcdb6d0c9U, 0xbfbbf7e7d312454dU, 0xcab6350b0deef43aU,
  0xcb180b3b00a91daeU, 0xf20cd1d4da201fdU, 0x32ff22cd299fbf3eU, 0x1101e73ae1e8b2faU,
  0x29db1be71dd2fcfbU, 0xc7bfed4fdcba33c7U, 0xbfe549e51fcc3a03U, 0x394a45e8d11fb3f2U,
  0x4de3cb554605da3fU, 0xd5013617034045edU, 0xef0520ca20ec39abU, 0xecbcb72dc0f5d028U,
  0xbaf4e506f3e7d13bU, 0x2eb53b25ccde0c0cU, 0xc32ad8ccbeb824a4U, 0xd4e3351ae97fe235U,
  0x9c1db4bcedadc1e2U, 0xfb8dfbcff270f21U, 0x19485b4de224cc45U, 0xc7c9412a2cfdfe1dU,
  0xd1063a5748bb17f9U, 0xd90d292dd7410cc9U, 0x3eea272cdebb0414U, 0xd0f8e2361514e52eU,
  0xca294ed64bd4c44dU, 0xeaa9dec8a0e0e2cdU, 0x5d241ef3ed2c7aaU, 0xd03c62c1f49bce7U,
  0xc41125d2fe19120cU, 0x25082700e1e1b02aU, 0xdc200f3206bd5b4aU, 0x3dd911034b4df9e5U,
  0x2ffb0502e2bafeeaU, 0x4fece41cc6ce2cc0U, 0xc2eed2e250cd4544U, 0xd93027e01a3dd818U,
  0x47c93de13f0fd654U, 0xb36d1c9cf1f56f2U, 0x14e102c611cac5d7U, 0xdfba4423176b2754U,
  0xe52a4edcfbbad90aU, 0x7ea5116a5fa4047U, 0x36ffd64a15d3fa43U, 0x4bebf8e9dde31bedU,
  0x31dc045252ac4bdU, 0x19dbdb119e1f39b2U, 0x1a41472fd8f3e414U, 0x2926c053c2fdc2ecU,
  0x41101d164dcec7e8U, 0xf1d50bf4fb3ffcdaU, 0x224b56ea01d8c6dbU, 0x493bd220e0d4eac3U,
  0x25bd52e2eb052ffcU, 0x52483af800c5e7efU, 0xd6cc1734e2a51dd4U, 0x49e910e017812711U,
  0xddda1b0ef4bdff0fU, 0xe62348c7d7d6c0d3U, 0x251427261bfa4e00U, 0xfaf62bd22cc7e53fU,
  0xd60c22eff5b3c74eU, 0xc80110c8a5ef413eU, 0x3302304119d137d5U, 0x20ea2e1cf32204ccU,
  0xc1ebcde8ddfc103fU, 0xeb3605c1d0d90bc3U, 0x18fd05d4cee037dfU, 0xd21c28dbe6e5ee58U,
  0xc63af2ee19f4f518U, 0xcf21f20cc6d1fd1fU, 0x3ad32527f6e3f31cU, 0xbe170ff1243414e3U,
  0x529ee40161423e7U, 0x3227e9e420f80ae0U, 0x3e49213c40e8f940U, 0x2ad6fd4ad51b04faU,
  0x4fc2482cff422752U, 0xe52ad3e2d7104b4bU, 0x20232225d8171638U, 0xd9e526c50554d6f3U,
  0xe2f00724ed310530U, 0x8d31d49c3d3d1d1U, 0xcbd8f43ecbcaf33aU, 0x16ebbbe7e029cc46U,
  0xfed8ccc012121e3cU, 0xefb61eddb5c91ffaU, 0x150718f0ce81bbaaU, 0x3a2c9bdb664d065U,
  0xce33eb054b18c74dU, 0x239b1019cbd2ebeeU, 0xe7c51d2e55304f2cU, 0x4bf9ceea23d6dcf6U,
  0x46120a4333df0bf6U, 0xdae10ee4d44bced2U, 0xd70439472be328dcU, 0xc3628e3ebe8ec50U,
  0xdbae022541cb252aU, 0x10cc27e2e8d50cd6U, 0x2610e30013f6c6d2U, 0xf4cbe81fc0332425U,
  0x16fcca394b1df027U, 0x440d1add3ae92811U, 0x383d14273a153133U, 0xcf17ddd3dab037ffU,
  0xebdf22448f9f9d3U, 0x3bee27c6280b3127U, 0xece3ddcdf7e34dedU, 0xef51b361030eb58U,
  0xb9c12e6eee6e1e8U, 0xe6c00707fdd5423cU, 0xedb1d8deecfefbe5U, 0xbe1adb3a27de2616U,
  0xcd93c5bc60bb112fU, 0x213d3d8dbf00a19U, 0xcf5bc332290eef8U, 0xd2d23624ed6ccedfU,
  0x57111f2066060a0bU, 0x42c15bf71c3030cbU, 0x30533a26d4c4bdc1U, 0xb315a836cd3dbe04U,
  0x2a35c40a1a27b355U, 0xd92acf3d0d28e33cU, 0x322c851198bea4eU, 0x2a240720fe39e711U,
  0x151c5cf57fbcdd0bU, 0xd037130b91520cc6U, 0x4af6a0fa350cc72fU, 0xbb08093fe90f0907U,
  0x3ae939e54bacf437U, 0x31fd1dfeb9083ff2U, 0xbcde1ce700ce5e48U, 0x14270b55c012ce18U,
  0x20f116ee311ad0bcU, 0xba13ecfda4f5491aU, 0x2812c303f0a5e122U, 0x38f2e734d72f2925U,
  0x8ccdf2d3ba93b42U, 0xe9ff5be4aa235fadU, 0x49dea9cdbcce3d19U, 0xeb31d5ed113543d4U,
  0x3abd20ebebd0f535U, 0xf7bb61b514283fdeU, 0xb3fdd5cc32e45714U, 0x43aed8d6cb64d32fU,
  0xd93ef608f4a737dcU, 0x3df04648133261e3U, 0x54173139ed12d7e7U, 0xe54959f2603e51b9U,
  0x221c4661614c294dU, 0x1365d92d30da2dd0U, 0xfd1b411945eb28f1U, 0xb02fb3ab400a15aU,
  0xaf0eb1cfea104120U, 0x161601321bb0d71aU, 0xe908b5df438ff7f4U, 0x1545c04c3103cc4eU,
  0xfb142c4903b93542U, 0x342ff60ed42cb7bdU, 0xfde2f21e38dee7dfU, 0x30452ed6d412d9b5U,
  0xd4d2e3b700d94931U, 0x1a2303fa933d3705U, 0xed2ed04d0ab14406U, 0x4d43df54d640aff1U,
  0x2116e50ec2d73d07U, 0x53fa4a32150735f7U, 0xf20ad9d9da1bf0e5U, 0x1a443ae2d2c80d09U,
  0xead708c9c0381218U, 0x21593c35313a1dfbU, 0xf5eda61dd3dd5a36U, 0xa010bfb362f4a9eU,
  0xeeb5f44d9ec2000cU, 0xe548c9f9ce42cbeaU, 0x21fd712dadbf04bU, 0x3ae36527d03aef13U,
  0x59ef053a52523533U, 0xcf0545111a0042f9U, 0x1a19b7f229112bfaU, 0x4aca551a09db7fdaU,
  0x853e80f44c73c4aU, 0xdf595807b463d431U, 0x452cf508150d06cbU, 0x50f758364f7211f5U,
  0x36f9115f60512c4bU, 0xbf0b5d332fd53c38U, 0xfee4b0480529e0c4U, 0xd84ff81dfca06cceU,
  0xfbb505fe31d4bed0U, 0xac09121e34441a2eU, 0xcccbcf45c3ebff13U, 0xdf15ca171c024944U,
  0x10fc57d3be0830c3U, 0x2c02f55c1b42453bU, 0x1df2c44007e3da2dU, 0xdf250327129c2908U,
  0xfc9a2426ea423ce1U, 0x303d011fc3fdee0bU, 0xe125b6dff267f3e1U, 0xefdbc94f38ee24d3U,
  0x7d30e34d95537f7U, 0xd7522742f01018d4U, 0xe625ec27eb410211U, 0x5924f2203b843f9bU,
  0x2af947c3eb53c121U, 0x4e0df3d93f081702U, 0x390bedc1247f16c2U, 0xe52b52f81f9a4590U,
  0xc7c70858c5531ac2U, 0x3a3219d53ce94beeU, 0x18b8b911ccd31b1fU, 0x38dc22cce2ab1cceU,
  0xc6e2bb08f337383fU, 0xf7b419203d05d8c9U, 0x33394bc2f6213be0U, 0xfa0507f22dea3ebaU,
  0x3996b5cae13cf3cfU, 0x15c5c1dfdedbd9b5U, 0xd42adeb4e03ad9baU, 0x1c9f6a2e504f14eU,
  0xd8e6c8b12346ef12U, 0xf702bc265f2a1030U, 0x37e42ec83c3bd2c8U, 0xfa20e7bff91a03c3U,
  0xfa082fc92ce1d803U, 0xec99eafb01d3ce34U, 0xcec7b31422a1441eU, 0xeac0f19ce5a63e26U,
  0x27e3f111ef42120eU, 0xe6e5c008cf1b3737U, 0x24af1f6203cf91aU, 0xcdde4050fa8ddefU,
  0xc3602803c9fc4f0dU, 0xf61f425c062ed828U, 0xe853e42bd0202e50U, 0xd6eaeed82eee77b0U,
  0xb22eec4b13fbaebaU, 0xc92614482562c65dU, 0xc3488b42444ed363U, 0x2c31660b361245beU,
  0xcec4ffc117fa59a4U, 0xd56b50354c45ed01U, 0x355ad50e45303465U, 0x1367362f648160efU,
  0xf90365d21f3106e9U, 0x4ce843d66ff03915U, 0xee3b5bbb21fbf0c2U, 0x103c2f19f1c306c8U,
  0xcceb0cabe9c36468U, 0xf71f09daf1fe566eU, 0x17bb2cb6d764ef4eU, 0x2ed6f1010051a9U,
  0xcc174cf797fbbbeaU, 0x2d18250948151514U, 0x2ac1f2143d01e0e7U, 0x19b8e7dbebfe2d19U,
  0xad11242815f6cff9U, 0xfdfefea85e4c0d3bU, 0x0U, 0x0U,
  0x1U, 0xffffffff00000000U, 0x1U, 0x0U,
  0x0U, 0x0U, 0xffffffff00000000U, 0x0U,
  0x0U, 0x0U, 0x0U, 0x0U,
  0x0U, 0x0U, 0xc728cedd00168f0aU, 0xcc12e41cb916f1b5U,
  0xb80c39810408f002U, 0x1cc32ee9bdc6b3a5U, 0x4bd01b2211bacd13U, 0x44104bd511060336U,
  0x2d3d49d2e743dbb2U, 0xa3938040621f3e1U, 0x3058cd332f161003U, 0xe6c71acfcd1ac433U,
  0x1745f4d2301cd5c9U, 0x1f3f0b3903c7ba03U, 0xd9010642ceffdb01U, 0x1b22f327dbd5ddf7U,
  0xc2eedced30930adU, 0xa1af3d700c5bcc1U, 0xd0aab2213eb0fd5U, 0x11db0308bd36ebf9U,
  0xf634f0e83e22d4dfU, 0x341becc4ce27bee2U, 0x2925ace43106cb2dU, 0x31c91dd3b3ffd0ceU,
  0xf4c5251301d8ffcaU, 0xfcd006c1d1251a48U, 0xfdeed5f14f293bfdU, 0xf04dfdeaa3dc0a21U,
  0xbf5bfa17b11c0be7U, 0x2f141937e23f0020U, 0x4afeb10407143036U, 0xe1ed4a28b803a01cU,
  0xd8e82a4a0ce4c8f4U, 0x35ef2cee04263351U, 0x1232b50805271203U, 0xd7294e229a1f981aU,
  0xe4fa25de18f21602U, 0x20c5eab603d0b708U, 0xf6f6efcb04f4fff7U, 0xe5f5d1e2bbd71e39U,
  0xe9ed081bae08b62aU, 0xd5d316e521390b07U, 0xe6bfb403ee0e44eaU, 0xc3313b2604da1c20U,
  0xd1f6095a1ec30d24U, 0xe5bdbaccfb2ae0e7U, 0x1eb92242313c2bfeU, 0xf0cc1815e4343539U,
  0xc2b6fcfaedc321baU, 0x33e6cd1a180f22b7U, 0xc1feeeeadadd28d8U, 0xb8fee41c1cddf3f6U,
  0xf1d12eda1e8ce42U, 0xd3ccd1f5f8e934d6U, 0x1120bffc3dc28e2U, 0xbbfedd2e1cce2f34U,
  0xc41b3b0d81f7daefU, 0x8ff3918e0eafd22U, 0xfede640eaf343b8U, 0x14cca3e61fcd4c0aU,
  0x1a2fe741e4f4e1ceU, 0xcf311e1a3f17efeeU, 0xc1064b50c1191c4cU, 0xee3fa5ce24023e6U,
  0x33345341faeada21U, 0x31202f1638f83ae5U, 0xe4d9d12a2be75327U, 0xc8f8c61b05fbf1e1U,
  0x2a4e102ac9e2b9f3U, 0xe40b30eb213ee5d4U, 0x251cec09f2ca43ecU, 0x15f9c33549fd18e8U,
  0x48141a59a2e7bb21U, 0x3ef7e608fced24c2U, 0xef0f2330ffac14d5U, 0x151dd86444e13339U,
  0xc7230d48a9cbeac6U, 0xdd5eb00322fedU, 0xd7ea0a051fcbd303U, 0xf3e2e8134cbdf60cU,
  0xebd321f0d05f5ffU, 0xd3c6effb4ac0e795U, 0xcf4d09c402c2a1c7U, 0x3dd942284bf8625aU,
  0xe6a0ebb5dcf3f5ffU, 0x30fb1810dfd881e2U, 0xbf2ee250a0ff5bfbU, 0xcad9b05201130bc5U,
  0x301d32f5c1edd0b1U, 0xf11f0bd823f044d4U, 0xe906f5f61b1211edU, 0x3eb71ddb021b2236U,
  0xcae51fdaffad411U, 0xc0e61ebb56e84cf5U, 0xf9104ed2cbc8f1f9U, 0xc9ed9d25ad9fee2U,
  0xe5f5c5069d1ff550U, 0x16262c094ecbf21bU, 0xd90ce62707ec1c0aU, 0xd03eed34f453d235U,
  0x40495b4ee1dbe58cU, 0xd71ffcd8f7233d44U, 0x335d1ea09134205U, 0xea9d164113fb2c4aU,
  0xdf072a59f54013dcU, 0xc2e8eee815aaed02U, 0xd8e3ece9b6da1bd9U, 0x1714d30f2ca8100aU,
  0x2fa1c918c94dd2c5U, 0xebeeb4fcf3f3fad9U, 0xb4373bb9edc7e63aU, 0x341c22ce5824ff3eU,
  0xdd04e8a4f527ff3aU, 0xf326f348143704eeU, 0xfdbf0e2c1881e5eaU, 0x16e9b00cf60a0bc9U,
  0xd721eb3907e0cb19U, 0x12e5f5fe3726e81aU, 0xdfe1b746bcc92552U, 0xd41503ebbe18e7e5U,
  0xc6001012bcc91825U, 0xbe4d642fdd25001U, 0xe3090616090901feU, 0x3dde05dd31cfe2ebU,
  0x2c07d0911c2437ecU, 0xf30515d3c61c50e9U, 0xdaee1dc7be9c2d3cU, 0xddd0c8cc3229ee1cU,
  0x1526c310d40206dcU, 0xd5ea140b29e42b26U, 0xd4e81e4309d9e905U, 0x438c230d5fbeed5U,
  0xfdcce7da17c012e0U, 0x14083110f4e64af8U, 0xd4f030e320b89714U, 0x2bc5f7dc52252bfbU,
  0x13e5aa891d260c07U, 0xd6c81023ed3309f8U, 0x900fe32e4b5e844U, 0x1513def835d63cfdU,
  0xe0f4daef0cbd0317U, 0x3cc52109c7d21203U, 0xf4ecf5dae0cbd246U, 0xbd40fa23cce41110U,
  0x304103fc0becf7e1U, 0xfb20481eea2945edU, 0xdfc3cf041f4735f2U, 0xfce29f23d04764f4U,
  0xc30a47dfe1fe4420U, 0xf620e42c5a145fccU, 0xb5fee3e4051d49b4U, 0xb3eef058d7c622ebU,
  0x893e295229a22ebdU, 0xb722d14252b946a4U, 0xb9a25dbe51e26a2U, 0x9bba00e8dad952aaU,
  0xbc2b27500fde5b0eU, 0x2a1cefb2cab808fcU, 0xc3fdd5f5f8cc33cdU, 0x2016141cdcc121b7U,
  0x3adf42b3c736b313U, 0xd09e147f841df14U, 0xb70442e6bbd0ed01U, 0xb2cfc0ee1e2b4cacU,
  0xc3281816ecc5d9d0U, 0xfa1f3ddb1c06e516U, 0x8f304202cad6eb0dU, 0xedd2a04aace9e7b6U,
  0xfbd03edf812ccee1U, 0xcd173cf2412a0d2dU, 0xe5cdbe44dd1fe742U, 0x2736c0f6fd52ed0bU,
  0xe320d844fa35f9c9U, 0xf620f84d37cee8deU, 0x2fe1f51cb7eaf634U, 0x42f3210ee9fcfac2U,
  0xf41006d4b2f8e30bU, 0xf3494ce83ec32141U, 0x1312c220cdebf9c7U, 0x22273f0fefd039faU,
  0x28f90718ad38dccaU, 0x3d1b0ff8ca42351bU, 0x3ebd35d43bffd714U, 0x43c8fd2f24f23f0fU,
  0xf2f7f52ecd2342caU, 0xbab716fe124fe439U, 0x6516a8179d8d33b4U, 0xdc3b32ac291a2224U,
  0xe6a2490f3ef71efaU, 0xc6a83fbbac504eedU, 0x29c90f04e227ef95U, 0xe6ff4b19315650eeU,
  0x9c9b157546a3ed26U, 0x81a61637a5030fc9U, 0x2010c5e3545eee4bU, 0xa200cc3cf922c83bU,
  0xa453c2d611c62ad8U, 0x29103f3aed3d7824U, 0xd3db05ccdd472924U, 0x20e7a46299ff009aU,
  0xb32826bbf0c5a09dU, 0xb4e53dc7143e1423U, 0x24acb015a04dc603U, 0xb3368c20d5cbefc1U,
  0xb14531b82bb3419eU, 0xf3a04fc5142ecfa1U, 0xf8020454ccc93025U, 0xf437061bf7c9fef0U,
  0xf454e506bff6aef8U, 0xd1f80defd43ee90fU, 0xf32137dde139dd03U, 0xd04ff5c3c53fc5e7U,
  0x1937261704a9e73aU, 0x35291137bb43d6c4U, 0xbbfb12392de24b2fU, 0x3b61ef1a08ea2de8U,
  0xb76419b5a915c7e6U, 0xc3d957eeaf132817U, 0xf725004141361a00U, 0x2ddfeeccdfd81d0aU,
  0x848c9ce2d64b8fcU, 0x315fe5443d11135bU, 0xecfddd20fa28f703U, 0x5bd45522f609ee53U,
  0xf73db701e70398e3U, 0xf9582fe0f9dedbffU, 0x1825c2fcd8700005U, 0x319920f4f1f9e54fU,
  0xecfecd2b10158c3cU, 0xfd32b8ab3d00f050U, 0x541c10bb8fd0120U, 0x2131bd6da2cdaecU,
  0x4cdcfd4f3e471103U, 0xf7e4cafbf416e55cU, 0x35d7f1f0dfdd00f6U, 0x14b714c4aaeaaff7U,
  0x26e5c3420cfa1d03U, 0xd22ec1031416c92eU, 0x14e903c3c50c2eddU, 0x13a9220795ed9bdcU,
  0xdce3eb152db8a5d3U, 0xe20bcacb2b0400caU, 0xdd109941b52bfd31U, 0x2a3316e0ade896baU,
  0xe23dfa25e50bd2c3U, 0xb7ddd4fb000f3a4bU, 0xfcf3d8f1a13902cfU, 0xc3d7f9dbd015cefbU,
  0xe8b92f2d2c05e1cfU, 0xe0bce6db42dfe4d7U, 0xe10eb4d3f7c6d8a1U, 0x1c4b0ecb6df92f7U,
  0xeededb1625dbb681U, 0xeca7c9bb2e0933adU, 0xf438a3c140380a1bU, 0xdd07e81a50c22ce4U,
  0xd24b3aa9240ed7e1U, 0x263fd91bd9373af4U, 0xb51c38d353573e3aU, 0xf3b7e7a1e5b32513U,
  0xdf550890d3e1cd21U, 0x47d2ccb94d3ece49U, 0xf9c8414c1dd4bc2fU, 0x25d6bcf0cade35ddU,
  0x51f4d8e3e443ed26U, 0x4b27ca494cf981b9U, 0x101486b9c71d2fc4U, 0xfd432b042ed6e9f9U,
  0x284117d02f52c41cU, 0xabc70c549bf0fcb6U, 0x3216ff480a216de4U, 0xcefff6231d5cb7e3U,
  0xf6dfae5c4636360dU, 0x404d5630c20635daU, 0x68420bbfa711d6a4U, 0x232df8ccd64bd536U,
  0x2d200f58c50e0617U, 0xa4edf6f8d4e9efd9U, 0xadf5fd11f8180901U, 0xbeeab1170d2cb40dU,
  0x412229dcf8f32144U, 0xa8221e29d83330dfU, 0xf8b1b80f15d347eaU, 0x523a93abd58b1d2U,
  0xbd0b1c8ac12ab01U, 0x3d25f7f610cd5e4bU, 0xa2e0df623ee59aaU, 0xac2e2a4c14d352aeU,
  0xe002f39419b353cU, 0x18fdc23df74352ceU, 0xb039c8ed360ff91dU, 0xea18e6947515e1e4U,
  0x36e188fdd12a1505U, 0x423019dac7b6e732U, 0x253d0c17c71aee10U, 0xbff2f7292923f5dbU,
  0x3d12cda132c0083eU, 0x2f24e93bd110c806U, 0xb539d340c415371cU, 0xa1eb2e73de44b52U,
  0x44ffe7c020cad627U, 0xf54ee05373585f04U, 0xddcdf7ffe6d9c7e3U, 0x4f001fe31dc3f71bU,
  0x54b8c310cdb5abe5U, 0xf5de08bcc91f0320U, 0x30cf19e20ed5b0dcU, 0x1235f222f1ec1f24U,
  0x4d1e120acfc8b7fdU, 0xce01cadabf054bf8U, 0x2f163237cbe5e35dU, 0x5949fbd30650140eU,
  0x58c20ad9efeb08e4U, 0xe3ca08e9ca4e50f9U, 0xa938c81cc95bbdf8U, 0xd0a7b3b0e9f6da0bU,
  0xd1b2b494e202b3efU, 0x2a05f4d94eeef4d3U, 0x2cf25423344951eU, 0xba37ffc843cdef0aU,
  0x11b4a7fdfc22f639U, 0x3f232b1b28ff93faU, 0x2fc9d343052cb73cU, 0x40c30d2a552fe728U,
  0x3c2034813fe81430U, 0x25fed43936eedbfeU, 0x32d1a1262515c006U, 0xd90acd2d27e102e2U,
  0xcdf622349a1d132bU, 0xc9f33c2b15e03ae5U, 0xd0528513f82e303dU, 0x27d2be461b2dc3e3U,
  0xbb51d422c24a11a7U, 0x3ee02dfd17c814cdU, 0x1b34ea0f0ce7db31U, 0xa7f49cb2aad3fd01U,
  0xc8d9ee171cd428c5U, 0xc0bd1b1cce090a15U, 0x1ffd8fcd28b921dcU, 0x29492806dc194f46U,
  0xe7fb21dc1118d55fU, 0x9bbfbd248d53f63eU, 0xefdfe148e1e0cdb5U, 0x84e4df50104b4beU,
  0x48abc52548a90f27U, 0xef534afa1bbfd0beU, 0x5ae2ecd62be1b1baU, 0x43d34350ac52cdecU,
  0xa9ec261eabb19ae1U, 0x43ddd41da10bfdb1U, 0xf21b1bd3d14b9d7U, 0x49493ad8ae1a2b39U,
  0x11ad40ec92ad6aeU, 0xa0ffe80fe6b31be7U, 0xedf9e5f025d7da07U, 0x45ff3506c15bc554U,
  0x254e11a413248131U, 0x2b060a4cd8011edbU, 0x3d06cc455d5702d0U, 0xb91c1c159949b92fU,
  0xe9fb22c8aa22d5eeU, 0xe9145859aed8eabdU, 0x9ea613b7267bfca5U, 0xdb19d120de3ceb1eU,
  0xb2a83ccdde0722c2U, 0xdccbbdbcd5f6b181U, 0xaceb4cdf1bede0b1U, 0xb725d85defe20040U,
  0xa2de4a0413b22cd9U, 0xd398eadfb32e1b02U, 0xd5e906e1e2350701U, 0x3d5fcd2e3d05ddfU,
  0xe6e10db54150573aU, 0x2e0bdee2f13e33cfU, 0xf2c4de163029c82cU, 0xf2d6f522bbd8c8ecU,
  0xb8054b0dccc628d3U, 0x2eb7d7e1e1cdbb00U, 0xbff762e8551832beU, 0xe5cbb569ce370230U,
  0x260c5629d7bd1cc8U, 0x41bdd235e4ff1fadU, 0xf8c219f13159fd38U, 0x1a24de28ea404839U,
  0xda2b1b0c00daeb29U, 0xe5ec5256ef53bfb4U, 0xe7d353f3230817e9U, 0xe2e6f335cf54093fU,
  0xfcf838be0436cfdaU, 0xdfa613149e610e07U, 0x23161bd61f17f4b1U, 0x464defd0b2df9daU,
  0xd22b4edd03e50fffU, 0x2c2e5016f11f06c9U, 0xe21251f03918cfd6U, 0x55204127570e051aU,
  0xe34722d82be6011aU, 0xcfc5611ef9e434b9U, 0xbaf8e4f23810aedcU, 0xe1e4346712c596ceU,
  0xfb1101ede75efe02U, 0xc94ce91b171cd14fU, 0xbd6ab6ba06cc9905U, 0x3cbb6a3d36a4befeU,
  0xf738cc88dd1fa806U, 0xbbd24a21a6d685f1U, 0xc54edd2ac94a0606U, 0x41f6e0d73bb09e20U,
  0xce2f1af2d03d9341U, 0xd858edd9f405dfc2U, 0x50f64ff6194036U, 0xe02b3c4cabfccd1cU,
  0xf1e637f2443f1e1aU, 0x4e2bdf2a8dd6d7b3U, 0x3e253ed0cbe4d7a1U, 0x5e19e2f484f7ed17U,
  0xd733410e2ae34ebdU, 0xcee91530dcc5f035U, 0x29cd15b5e2f5c59eU, 0x4c335537db27cbd5U,
  0xe51f29fa202c43d4U, 0x45242d4a81fa9ec9U, 0x1e54ee0e0937511cU, 0x3b36d2c68b26c54cU,
  0xac71e937460e000fU, 0xda493d1d87b2ee58U, 0xedfef4ced2134affU, 0x1e2a3615a3bec744U,
  0xf1e0e4c80fc7d8d8U, 0x42df4c0ba70d12b5U, 0xae19fc47dd3abd17U, 0x120139421be8c511U,
  0x15db52a5540647c3U, 0xf6baea2ea7f0c41eU, 0xd0c22a083015e210U, 0xbfe7b7f8cffdb9cdU,
  0xd1d7f0a1541bcc9dU, 0xd82827f8e5b8dcc8U, 0x23e80b46c506261cU, 0xdc48180505b9c9feU,
  0x23cdd6c6e5261102U, 0x403c0d47e9b2fbd2U, 0x3458193bf0c930baU, 0x4d05ecabbecba9c7U,
  0x3d03e41af4311603U, 0xf84048e800bbbcbdU, 0xdde1275ac4184cebU, 0xfaffc5afc301af0aU,
  0xcbd645c84af51030U, 0x27ec30d6f42ac43dU, 0x4ce2e817eebe3cf1U, 0x39efd110bed804c8U,
  0x2b0ce0cc2e27302aU, 0xf6de2920f839bd40U, 0xde4c1ddb3403d81dU, 0xdbceea94d11aeb4cU,
  0xf2c0291b7302e131U, 0x3e23003d25ded042U, 0x392914cae4c52452U, 0x1b0bd7fee81ae921U,
  0xebf30fd5320f0113U, 0xdd2838c711011540U, 0xeb5206092df51539U, 0x430bbecdf80ec336U,
  0xe24dc93edec9fffcU, 0x2e09fdef2c353aecU, 0xe1fe1137dd2e01U, 0xcfebe7ee09c8e508U,
  0xccdffbfb7fde1f26U, 0x4dfdef01bd0cf8deU, 0x47c4cfdf4429f43eU, 0x4c21dcc12c1901c2U,
  0xcb45f4fee5d1b70dU, 0xc623253ec44310e5U, 0x4d32f5191c81ef45U, 0xe6414b0fd55cff02U,
  0xcba60458411d13bcU, 0xddc336112f354005U, 0x2205b6c3ca8c61c8U, 0x48ee380f0930dc1bU,
  0xf6ea40d72d11fd02U, 0xfecaf9e7c4140f24U, 0x32cb1b1ec5c4e8d3U, 0xc4f1213fd8d5d624U,
  0xbeed2e1f1f01c2d4U, 0xd5fbf30e240741c7U, 0xbdebf129ff4d9e00U, 0xe34f063b2a08deb9U,
  0xe35224f3d03dc613U, 0x48050cf1d9d7d1dbU, 0xb8ecc607bf2fda24U, 0xe23fd8261605c8daU,
  0x9d2eea9cc7b7dae2U, 0x4b0a0548e4a0fbceU, 0x39bcccdc67c9f7U, 0x2e01835e555f255U,
  0x38146e0a2bba8da0U, 0xdc3c07c2141be5d5U, 0x2a1629ebcbd3a93eU, 0xe82c12e5e8d9c1efU,
  0xf8fd22e0dcb8f4a4U, 0x19341c439b42fecaU, 0xae0ad908422faeeaU, 0xda3b4c399c3ade10U,
  0x1416dd9d154da8abU, 0x200be956f4eec729U, 0xd840bf1fe0ccce3cU, 0x544230f5e81fb044U,
  0x1463521dcdb83e1U, 0xdcf7b5ed53c231d6U, 0xde3c327dd89f410U, 0x35bde6b656edfe01U,
  0x180bab072f10d4d1U, 0xd5b94b03dfeb4cfbU, 0xcd1b4e1bf695f01cU, 0xe7270ef74b3f293dU,
  0x5b21230bdfd5a135U, 0x3d4ffcfa30e4d1f0U, 0xdb030e143303d10aU, 0xf7c6d7b91bb4ce20U,
  0x13dc3a09fb2a87fdU, 0xf4cf0e23faf8d333U, 0x2eefa103e2c14a2eU, 0xdff7f6ff58c1a95aU,
  0xbf1c0300bccef0c3U, 0xa39ed0e4a4edcU, 0xbce2dc4750e73d25U, 0xffd8b2c0f3d8cd43U,
  0x480d139ce03217b3U, 0xfbf1f12c3729153aU, 0xc4489949e7f4f944U, 0xe3c72cafbaedcdf5U,
  0xbd2a191cbf0f81c1U, 0xdbe43f291018e8c7U, 0x53629f947cce70aU, 0x51e7cc1c02492bceU,
  0x430dad2dbd5bb95U, 0x2fd41edefa46e73eU, 0xd229e303d73a2dd6U, 0xdfabc1f6f4ea04edU,
  0xb8b0251e242db02cU, 0x43133eef0bfbe011U, 0xe4b6cf31dff6be31U, 0x332de2e1154507baU,
  0xa94cc9f4d4e3cefeU, 0xdc012e410e543539U, 0xace662b240ddd6cdU, 0x2f5636c017e2ddfbU,
  0xc240ff07452511f8U, 0x1ca70a39c3243426U, 0xc8d2581ad3f011a9U, 0x1ddb9ea59b055e6U,
  0xa1f74f2d091dee4cU, 0x2bfe0346c8e553d7U, 0x371848da15bc335fU, 0xfab3ee27c6ca1ad2U,
  0x1fa34cef9da291aU, 0x17f12f1bd9eccb22U, 0xe3a924e7e448f046U, 0xbf47c3345055c2d4U,
  0xb5cbeaa7b410ef45U, 0xbdebd10014aa2517U, 0xb928c22741ebdce8U, 0x524d5211ddbebd7U,
  0xf3ef52904f21bdcfU, 0xfc365412cf45030cU, 0x39d2d8104c2adf1cU, 0x413dfcc91d540010U,
  0xae325fecd2bd948fU, 0xbdd713540edbcca5U, 0xb0ce39c81312ec2fU, 0xe63e9b234f34df14U,
  0xf613ed1bb8488281U, 0x342e16c6aeafd0ceU, 0x2dd335e74ac8ee32U, 0x3c079e06bc5b512bU,
  0xedf931d4fbc299a3U, 0x22ffbfdd2ef39d3U, 0x43ce262e1000bec1U, 0x1e10e1b0eb698cbU,
  0xe6e3b626ac2be21eU, 0x453d46f8c1eb9dfdU, 0xfbba1afdc7ed2ac1U, 0x34fb1f082ef5d742U,
  0xdde3b523d9bcbff4U, 0x1c2c46f98110edcbU, 0x513830c3ea2b568cU, 0x2528263ae644a207U,
  0xb8c7cbeb2801bae3U, 0x39d1ecabc401dc29U, 0x4112dc1c190649b3U, 0xb42ab326bc491a38U,
  0x243fba30add5bcc0U, 0xfdb4f23fc02f502eU, 0xcb2dd459d503becaU, 0xcf4123c4a42ba431U,
  0x3a3dd3e3db45bdb6U, 0xe2c3e1d1b40b2601U, 0xaa40c4f0e3b227cdU, 0x24292dfcbfd4a1bbU,
  0xe9f409cd02fde5a6U, 0xd01f4809b63c45e9U, 0xcdd91c0de7cbf208U, 0x28cd45ecef64e54aU,
  0xb54cf41ae23ac20bU, 0x352528bf1abc6021U, 0x194e61663fdd23d7U, 0xce1cfcde4bdefdc8U,
  0x25d7f2a600bb0db5U, 0x343d6043b60d47eaU, 0x1434200920ba1cc0U, 0xeb32d2cfb4bf0766U,
  0xbde734de120bcbf4U, 0x8e25e51db37ad0fU, 0x5390b173a9e32f6U, 0xb82901ace53d4ac1U,
  0xd0cf13efe3069b3dU, 0xc5d42ebdc2e3fcf7U, 0xe34d39d841dbf4e7U, 0xfc3ac91a16fc0121U,
  0xf846b80b262ad609U, 0xf0f4649f745d4b7U, 0xa013c2001433b639U, 0x8cbecdaed03c6d8U,
  0x1cfb34ff4afd28f5U, 0x2ef9e31f250bb518U, 0xd7c504f93fafc7bcU, 0x218df3cb1e80af8U,
  0xff5cf22d4fc81c6U, 0xe5c7daffc2f2f8cbU, 0x1bc2fcee1b0d403dU, 0x571eeaca2e0dc405U,
  0x25d1db2ae1d5cb1dU, 0x3a2c42b59152ca14U, 0xf9c74002c8863abbU, 0x5d27f81b05d91726U,
  0xe708d2a9202bd630U, 0x6053437e4d83fdeU, 0x1efcb310d8cfe4f7U, 0xaeeff56405f82cc9U,
  0xed07e818dddde512U, 0xd3bcc83b0916fe17U, 0xaf2b1ff01f08e13bU, 0xd352bc3ed8dbf2f9U,
  0x4cadff827bdcb11U, 0x19404ef406acb2f2U, 0x36e3d4eb0822c8e3U, 0x1b4defca3646e4faU,
  0xad55adafadddc28U, 0xeb22ecd1ff333c15U, 0xf2f2082fc70f724dU, 0x4ccc78c94e1c1e5eU,
  0x29ba881ce90ba9edU, 0xe1808c05d123b6bU, 0x32b73025a160f52dU, 0xd3b00bccfbba2167U,
  0x28cdf37757c719c9U, 0x16feef1a3f534814U, 0x1a0cf5c90e62d699U, 0x553bea3c60ceddd9U,
  0x2f19dc140d4d4d2cU, 0xfb1d12ede632edc5U, 0xd8ddfc46e7d442b0U, 0xa9923cce2f31509U,
  0x569ba8294cad29b5U, 0x9eb1b78e48ab183bU, 0x9713e0c3e6131addU, 0x11e4455dd0c13ae7U,
  0x49011bf0400dc331U, 0x23a2ded622d4ee13U, 0x8b407f9e7f73af3U, 0xff3e0f4d54ffda29U,
  0xd8ab03cfb7d5383dU, 0x4cf3c5f9ce040fa6U, 0x3caab93bfbff4de6U, 0xf1b2c4f7a2bfc72eU,
  0x14d6001b09d081d5U, 0xa00315ce3efa73e2U, 0xd1a9e92fb0641b03U, 0xf6bf282522bc1109U,
  0x619db55fb20b45a7U, 0xa81e16aedc99ea90U, 0x1bb8340f6007d6ecU, 0xba7e033f6dedfd2U,
  0x67dc1af538272202U, 0xdf7f8dae2f63f92U, 0xf0fae8bbdad29c94U, 0xa4e731c24649dcb4U,
  0xd330b81e2a50f28U, 0xe8f90038ad269e04U, 0xd55f9732eed81e3cU, 0x3c052dec9aaa84fU,
  0x40211185e7f693ecU, 0x3341b04e940fe51bU, 0xba6a2d4df4cebc1dU, 0x2152b151a513fbf7U,
  0x11b0e60da160181aU, 0x4ef00fcff35d86fdU, 0x671eef1334c1f217U, 0x1c24cdb4debc2041U,
  0x371f31a5de443ee6U, 0x12f5d47a350bb98U, 0x1e14a716ebd4d98bU, 0xcbc211380cff1eeeU,
  0x274d41b92c2e108cU, 0x57e43f1908c2aaa4U, 0x42d5b02f5b04cb15U, 0x36ebe4debb48e7dfU,
  0xcc3f33ab01dafa05U, 0x5253d6c4c3e28feaU, 0xa8e4ddcb16fdd6fbU, 0x1468cdfabfb917dcU,
  0xd0d3f3c1b4ccd103U, 0xb73403d999a5be9fU, 0x5b29dd40660b4097U, 0xc7fa59a70ec1d41eU,
  0x2c5428b2b2ddc6d3U, 0x39df1f0ff33d0214U, 0x41f8a8123af3d5b9U, 0x21b54e3dacbe5cc9U,
  0x4d4abd552f5c31e0U, 0x2ce5e243f8309e2eU, 0xf1f5282818af2fb3U, 0xfbd3fe501de1728U,
  0xb9dcce71281813eeU, 0xc20edb27f7e25d0dU, 0xcaf1ed2ad3de64adU, 0xcbdabdd02b1ae5caU,
  0x201aba745bff3650U, 0xb7ed24bac22f59f8U, 0x200dcf26362357fdU, 0xd2fef325d42e2a1dU,
  0x43b0f771f8d32a2cU, 0xb026d51137e61db5U, 0xe817cc48bd191956U, 0xd50381f529eed8d6U,
  0x134ed5e620b83c45U, 0xf0ad48455ab121f3U, 0xda31071532d6d041U, 0xfe148a52372731f6U,
  0x2e1626112adbdd2bU, 0xedb1c6bf27c212fbU, 0xe940cfe317f5bf39U, 0xab53fc46d529f621U,
  0xc2c20ce7dac32021U, 0x15c3244a23be442fU, 0xcd114605cffdcf45U, 0x60c4c2cbf92f0f19U,
  0x631625d6fe40ed72U, 0xdd25ef30303a31c7U, 0xe75319d506b6e454U, 0xf4114828e2bb1706U,
  0x3e47e03f20cbba07U, 0xd20eb64df1f41629U, 0xdeec2d52fc1824d2U, 0x39ac26bdf2b94f08U,
  0x3145b849a4c22214U, 0x17280ae30053ea33U, 0x3cf40761366321afU, 0xd14049cbafc1d1e2U,
  0x136b9efbf14c0cd2U, 0x5130cdc2f3ff55dU, 0x26af212dcd25819U, 0xd0e7120783ec0d49U,
  0x6cb06981d6317a9U, 0x4013e2aea059812eU, 0xd11b444ada98ab09U, 0x68d516ccd03bd1b6U,
  0x4aea01c8e2e50ee0U, 0x10f0ee1194f386c1U, 0xd940c4b7d8251da8U, 0x84a4607f6e9b8dcU,
  0xccc5c6e93e169098U, 0xd629ad149ee3d936U, 0xdfcc01411338e905U, 0xc19cb41d0042214U,
  0xb720f72901ce0e9aU, 0x4434fb0001bd11d0U, 0x632630f142b42809U, 0x524525d2dce72e4dU,
  0x4d2c346118e39c98U, 0x182bfce6ea6147e9U, 0x2b47e264f10dbeedU, 0xb3fb64a2558b0c1U,
  0x9fffb64335b95136U, 0xeb43e141c4abb83cU, 0xc02544330e13dcdeU, 0x3fdb1fcaa9ffc851U,
  0xc339c725e66f0abcU, 0xdc5ad8d7f44aa429U, 0xb8172607ce0a4a2dU, 0xdca1563d99adeceaU,
  0xe931d25b0b5cd6abU, 0xe2a4ecfbbc71ff4U, 0x3134ccf82de5c7d6U, 0x3e9d9fcfebe000eU,
  0x20afa4e019fd2a41U, 0xe2261c0eb324c913U, 0x22d6332126c4a91bU, 0x37cc0c0c4d23d14aU,
  0x2ba9a516badf0427U, 0xbff18dc15e64316U, 0x1dbc2ee3201fb630U, 0x3431f9fe643f4737U,
  0x37c2eff7e9b9e653U, 0x1f38193ad258e2f0U, 0x1a0d07fbf73106dcU, 0x3bdee9d6e9c5243dU,
  0x62fad5eaefcec7dfU, 0xfed1f31be4c619c6U, 0xcf35fed61fde104bU, 0xe5d529d14fbbf812U,
  0x2bbde0981a2fef2dU, 0xa0211d8e4b9ededU, 0xf52f30e3253bf815U, 0x3cf2abe2edbd4753U,
  0x30c8b881dfd310f6U, 0xcab83dd6e2ff31e1U, 0x1e2ea1bb0e02cbaeU, 0xe8d729fd13b1d4cfU,
  0x46d5f11022e5df1cU, 0x9b349e15e2fb1219U, 0xf6dc27d9d860f9e9U, 0x30e412c23ba7f43cU,
  0x4904fd21e9e6e1d3U, 0xe433fc0bd922ede0U, 0xc814222027e3a2efU, 0x3528140f3626ff2bU,
  0x27c918b8cbeed30aU, 0xbefd2c0aa23dced8U, 0xd2ccba25c2e31443U, 0x14c79ecdfdef19d4U,
  0xe10a18a507cd0f2bU, 0x1f23da0139aa17eaU, 0x131c31ae042aee9U, 0xc127d317dac6d6b2U,
  0x1e0fd7b329fdadf4U, 0x4d042c282cdf939cU, 0x8703065b6decaba4U, 0xd013d121bdf5b0c5U,
  0xc45528fba340a9caU, 0x64191cf3489212cbU, 0xdb1f0305c8833c36U, 0x48f4ac519c51b8dfU,
  0xce0ea8cfa1412e07U, 0xe305521881ca1a51U, 0x29130aacc1d935cdU, 0xd2a2f32931e3950U,
  0x5802c0cd943ef50bU, 0xcecfe3d08528c500U, 0xbd46bdd9daea23e4U, 0x3af1e123cc27d951U,
  0x1048f0daec172ee7U, 0x1df8d2df933818e3U, 0xc3b5afce17ff4afbU, 0xf60a0650af2d223dU,
  0x504625c6c03ae50bU, 0x2c0b2e12bd192e50U, 0xff5f2e2b3d2d6c2U, 0x282c48f9f3ed2c5eU,
  0xb2e94e25f2f428cbU, 0xabec425b0fe6064bU, 0x30323a2813c93304U, 0x8dc361eb84cfb39U,
  0xa620f44714f5cbbeU, 0xb7124d1d1fdd33eaU, 0xb9cb5aeaf2ef3023U, 0xbd5af8b707256bf7U,
  0x19e5d3e6bceaae36U, 0xd13eb4601e397827U, 0xb13b5adbeb20fa47U, 0xecb60af6542af846U,
  0x31b00deceeadf454U, 0xd6f4e9e85ae575c3U, 0xbac9daf529b2e060U, 0xc71e0f16f05ad5a1U,
  0xd01953b2bf1f2f4bU, 0xa639caf331d22d48U, 0xe22db90609cae05cU, 0x171ef815081fde60U,
  0xd35c7c99bb6e20dU, 0x1439484b4712dc23U, 0x2942bbeae3c048bfU, 0xf53bbde70b4d24c4U,
  0x1384babf0bba958U, 0x23270a30f9113adeU, 0x9e3b44d01da0b54cU, 0xb83d880338100640U,
  0x50412daac0cae448U, 0xd7f319dfd44b3900U, 0xa7d7ee3a1018deb5U, 0xc09b82fd0ba0455U,
  0x42e4338b190b00dfU, 0x3807deb19936f1d2U, 0xe22020b1aafccf51U, 0x4d11420be4d2b054U,
  0xfff5b7ace2d981baU, 0xbd3715eaed3eee2cU, 0x5e62445bcd73e26U, 0xdffb2f413dd13f5aU,
  0x3b300e30c3cef567U, 0xed0b3c1493024954U, 0x1bc95419462243b3U, 0xb9182568267728f4U,
  0xb36106399cbe18U, 0xb212490ce80a4b31U, 0xc4946559073ac0f6U, 0xf69617f7db4556d2U,
  0x3c97b0f75204c846U, 0x2af334c4ecc351c3U, 0xffee19c8240b02c6U, 0x6549e75702c5ccfbU,
  0xaa179cdc565236caU, 0xe1b0c649d29e1e60U, 0x8722285ddc351d5bU, 0xd063a0e0d32e2656U,
  0x6366c430c3c73667U, 0xa5f9aaf4fa5fe234U, 0xfbdef6e1f2e4ab19U, 0xb26d539473cc854U,
  0x9dcec39912ebe412U, 0xdc21e4471f3163c6U, 0x11cb16cb373e0b0eU, 0xd6d69349543624b9U,
  0xc8036ec68fd068f2U, 0x31a6fe4c130f2bc9U, 0xf3b49de1d90acfbcU, 0xb02cbc442cef32bcU,
  0x3d121e0113e1ecfbU, 0x15af64df136141d7U, 0x96a69da8ebaddcf8U, 0x1aea35d6fd5d16e2U,
  0x81d7de03b324e3e7U, 0x401b5f2bea363610U, 0xd72f02514ad10ab3U, 0xcad9e2e933035b22U,
  0x13696ae6b6c52d0bU, 0x690c5e003f12dfc4U, 0xf4ffa435d0afda37U, 0x35be310806181ddbU,
  0x24e93318d9fca10dU, 0x47f6f62605e7e71bU, 0x2321b8133e1ad3b9U, 0xc5ab29172904c61aU,
  0xc930d2e103518f19U, 0xbdd550120607c2dbU, 0x1655f4c0f8ef301aU, 0x4926f30001bb0213U,
  0xc91f042c391407d4U, 0x1653041ef918b324U, 0xeae8f3bfcaa2f2d0U, 0x920deb8a65001f4U,
  0xdfe20c20e8f2cfe3U, 0xe4d11e18d8bd002bU, 0xeb1cc811af3947a8U, 0xfb42c733c533f5d0U,
  0x2a24c134a6bf3819U, 0xfad2fdbc811ba729U, 0x4620ff30dea641b6U, 0xb9fa24ded7ead5c4U,
  0xcce90e0110e435fdU, 0xbe35cb38c3c3af2aU, 0x31d9083949cb5021U, 0xee4de8e3e056f1f9U,
  0x3ee84cc010fbc61eU, 0xb8092bfd1bf32536U, 0xb91c331cc1d3bfecU, 0x53be428af39c2b4U,
  0x37121c29f6d4011aU, 0x44cfea23e8b53decU, 0x2048082ce62dec05U, 0xccdfbf0ee836c1faU,
  0xeefcc5dbb84101eeU, 0xde3554db1df243dU, 0xb422536c37e2e6f2U, 0xe41205bf2ac9bfc8U,
  0x1b53c7f539ee2cf4U, 0xd2a666302ecdee37U, 0x482099a5feac3429U, 0x2451d42d10a894caU,
  0x166045a5bee2b8aeU, 0xeb65ee58065e3e2eU, 0xf10e9dd4f74e8e39U, 0xeb3407e035c61808U,
  0xbc471e11a4ee95efU, 0xaa65496cbfc58821U, 0x7be7d3d438c6cd49U, 0x25c3d6e7f41d492fU,
  0xda416c80e3b8116U, 0x4e3feeb9924a2b14U, 0x2165f6bbf6e3bfedU, 0x61e768cabb4e10e1U,
  0xcf3f95debdd79a1cU, 0xb3ba3132ea4c8ef0U, 0x29c8a04352916528U, 0x5cb6112a37ec7715U,
  0xc018c33e3d21aa0eU, 0xc0ab340f1f2fdb9U, 0x38c4f0fbc1765d0aU, 0x1dece5b2f2091508U,
  0x2c267f1f600b4299U, 0x14b2dbc8524fc141U, 0xb80da512cc3cd6b8U, 0x4cd30a40371f8807U,
  0x62e4e4a081721fbU, 0x1dbc2dc99521caeaU, 0xad6a35db44e195dcU, 0xcd950c4bd3523340U,
  0x59dc15c4b917f41eU, 0xd60f0cbfd1e5d503U, 0xef9ee19e123b535U, 0x17b8e5fb96ea0d24U,
  0xbf4da720d4b9f924U, 0x255847e233292ce8U, 0xdc5e3d303704284aU, 0xf3faaff9c31ee707U,
  0x821c81a03b7aeaaU, 0xc9ca1bfbe64d0c44U, 0x6fa092d53f5abc7U, 0x2d3b1e09e61ff7dcU,
  0x1927d4bb19d6f0bdU, 0x345944ebac411d0eU, 0xefc8bafdd400fd1aU, 0xd73b22a5c132a933U,
  0xe4fb0ed838e528feU, 0x27e9411aae5008e8U, 0x37dcb627e181f1ebU, 0x46202bef04fc0dd0U,
  0xb3bdaeeed837e4a2U, 0xe63a113abed4f2eaU, 0x7512422d7d01711U, 0xb9c3a74a262f49U,
  0x32c6fa361258e80eU, 0x3cffff4eec62637U, 0xde0ecd522e2b0be8U, 0xd4f1320da502f220U,
  0xfc1ee4ff10c2de97U, 0xbcf8dae1bbe931e4U, 0x46bf3a5c49533601U, 0xd909ac3f9ad42929U,
  0x400fc3c3d527f3b1U, 0xbcf8580dcfc2cd49U, 0xc00335d11ad5a329U, 0xd81db641eb16fabfU,
  0x104d279fbcfd01c2U, 0xf60043c50441bf42U, 0xdf5b81b062a3d03U, 0xb7191c3d8c362f93U,
  0xf136d1fbd2c3a31dU, 0xb9e93f5e01e448feU, 0x1ba3f329a1210fb9U, 0x98c9b7d9e44145e1U,
  0x94e83358d805b736U, 0xddb310c710ec7df5U, 0x13d12430f5a8cec9U, 0xb0e341e7ffe18f8U,
  0x2592b5f5dc53df7eU, 0xd4053db1f022c493U, 0x40bf2365b2d9ed76U, 0xb63314e3d73f41c8U,
  0xadfc4a2fb7dcbb70U, 0xbcf54c1a696873fcU, 0x6b1c924fec208f4U, 0x8bf7e0deffec2cd4U,
  0x16ff4419e6a7b41aU, 0xedabcb441a31242eU, 0xb7e81f070e350ed5U, 0x37a9abf919d56733U,
  0xf3bbd620bb010b15U, 0xfffc0cb604e0e09dU, 0xed0fb061e2101737U, 0xdf17ed18196dda20U,
  0xd23b5bfdc5aad531U, 0x2c260355462a0516U, 0x30ebd2f7aa070f15U, 0xa709d434bf1ffc22U,
  0xfc11f550bbbe850dU, 0xc5075526054714adU, 0x1213bc4cb60bdcafU, 0xcc082ef3f00be7e9U,
  0xe51ff54a02b9dee5U, 0x60ce8d8dfd814bbU, 0x11eb21ce07f00929U, 0xee704cc3fbb0b2eU,
  0x61a4ff0338fc216aU, 0xed1cba17f342c614U, 0x100f4336faebc305U, 0x61dfffb111f22345U,
  0x18a4b6322b1da94bU, 0xcedfe10ce855d0fdU, 0xef44ed143ae1223bU, 0x50ac28d7f4251df5U,
  0x5bf5e93de9040cf7U, 0xfefdff253c4de54aU, 0xecad1a0ff14eb40aU, 0xb310f93e33cf1405U,
  0xbb2625b5fe34becaU, 0xb5e5c3b73406ddc5U, 0x2e1037d6d33fc0b7U, 0xf14aff0a09d7dfd9U,
  0xf9df061ff2edb908U, 0xbcab0de6a2dccbbdU, 0x28d741c6f903379fU, 0xd0d4464526f5e22aU,
  0x332541df240aa924U, 0xffe6df340d2a3621U, 0xb0f9f423d85b18f3U, 0xa717fd0e30e815ecU,
  0x29f0db1b3f066320U, 0xd9d70431fd30001dU, 0xfae439f54c7fbddaU, 0xc0f702f6db2ebad1U,
  0x6e330e33c3551d5U, 0xe4da0aea141ad4d9U, 0xd2e817191932ca0cU, 0xaf40280bb221c7c3U,
  0xbb1f621518392e1fU, 0x4edb242e1bb527b4U, 0x54c49e20e6065fc2U, 0xfdfe372f2dbebcf0U,
  0x46c4ed350abd4708U, 0xd22b47bc1f31c441U, 0xe821fab3b9f3f89cU, 0x411d4db0ed482928U,
  0xbe13fae6d709f8b9U, 0xd6b52c3c9a082ea5U, 0xe51e42fce0dc3509U, 0xdeb9fb0554fd5e42U,
  0x41a5a67fc3031f15U, 0x20f14dbab2d5ab5U, 0x15d7444b2e13ee1eU, 0xb03ffa57f1bc21d5U,
  0xd2cf00e0de0deac5U, 0xe4eac3d7002c331cU, 0xaa1812c3304bc1ccU, 0x3fe51a3cd20cd5cbU,
  0x37561def26c1d71fU, 0xf3cee1dc5d103b19U, 0xbbf0f4c207c7fd1dU, 0xba1d08213beba8b2U,
  0xc0de1339d850afcdU, 0xead600035615cdaeU, 0x3743c439610e5822U, 0x14adcdaee3b50e38U,
  0xf0deaa0b5f4d40f5U, 0x1b5eebf540dd2ce4U, 0xd55eec5be508e9dfU, 0x46ce0c232eb7e7feU,
  0xff1af5cdec5def01U, 0x1140fc0422d2b22U, 0x2aeb0d513b723a44U, 0xf7bef90aa9c1f101U,
  0xdb49e2ba30ef4a0bU, 0x631a4a46ffc2175bU, 0xb5402c013af7ef54U, 0xf81c36fe02414036U,
  0xdb0ba02ef3db2037U, 0xe84ad1ec59c9044dU, 0xe7c9192105b85e6eU, 0xfeedfdf44bdce505U,
  0xc0faacbc04e20c73U, 0xbfdefaee1dcb271eU, 0xd22adc0ec710d546U, 0xc7283e1458f4fb37U,
  0xb01253bafab4fc1aU, 0xca2d384247434cc8U, 0x5ed7d6e0fecf2ec7U, 0x314f2a10a4fc3d0dU,
  0xab0a151017c80f03U, 0xa2f1e2d644020343U, 0x59a9eb0ca4d32b23U, 0xf82ed7b327634edeU,
  0xe1ea00e945c688d4U, 0xbf394c42105749a0U, 0xabcd100da512ad2eU, 0x21d4cc21293003b0U,
  0x180714b9622fc946U, 0x20c406e5bbf04622U, 0xb2ff182a0a613c0cU, 0xc116a1f5cb340833U,
  0x4c327a00d6d6d382U, 0xbce9205ce5ecc6afU, 0xd4bd2dd5ec2bea47U, 0x74fa32f2135e72bU,
  0x943fe962ea3a597U, 0xea32832b34ecfb5U, 0xbee2d24a3eb891a3U, 0xefe9a00be76bae9cU,
  0xdf623681111a17b5U, 0xcaa30d24243512e7U, 0xdd0be9d808ef2842U, 0x43201c9832ebfc51U,
  0x4edcb095d44198c6U, 0x491c19b90444b423U, 0x2ce6053942ecfcf7U, 0xe93df0815bdbdd39U,
  0x4014898e2550fb25U, 0xcc32cb12da4f45f2U, 0x11f4d5e4e8b9fd05U, 0x2de91da026f119c4U,
  0x16efa8e2d7501809U, 0xee281c2c1331d727U, 0xedf7feb016eb0c2bU, 0x4aa92f9d1fb12a5bU,
  0x28d5de9ff411bff7U, 0x9f43ca34d1402241U, 0xb64e07e22aead0c0U, 0x29f0c7862ed72fcbU,
  0x46d4f70314f2aefeU, 0x3cb2fcbcd03eccb2U, 0x814ddf4ce1c08b0U, 0x5a15f80f0d28352fU,
  0x4c40d589d551a0f4U, 0x11c90439230a0124U, 0xb4442d152312b0c7U, 0xe3b5ba21faca26d8U,
  0xab7def6384bacf0U, 0xbe262a15a4e4e5a4U, 0xc6f2c1d3083402aaU, 0xd7b9dcb9310fe53eU,
  0x45c53e87440207e6U, 0x320a08f8ddaa99daU, 0x382d284cf0739231U, 0x10f9e245bd44c9c2U,
  0x400e4da3332dd716U, 0xca1047ccb8c7ab2bU, 0xd13ce026c03afbf0U, 0x2942f425d3ccb450U,
  0x155020a0aee29c33U, 0x3123e124253dc4c4U, 0xf154c60bf7ca9e04U, 0x420fcba90822b7d7U,
  0xdb24d2addf4c1afeU, 0xaf614c6241ec4bbU, 0xbe14b9fa54361631U, 0xf1dd001fefaeaa35U,
  0x3810e281d4ebfa13U, 0x4a402f3715ccc912U, 0x3430405ff074a11U, 0x3fea04039e03f90aU,
  0x20b361e0d10d18d7U, 0xd1ac644e92fdfc3U, 0x1cf3facf35c6442cU, 0x28e724d2dc3de0eeU,
  0xc81c0be00f29bebdU, 0xa37ed1fa5f3c320U, 0xc14cfc4c8b3fae1U, 0x5d373adac5efc53cU,
  0x4db0bcf619e52d33U, 0x1a2203d1c80ecccbU, 0xf12b9410c442ad0U, 0x49c6bc44af2dfc2dU,
  0x152614bfe9fd0fd6U, 0xe00b12d5cc25f1b6U, 0xfbd6455911dbe8c0U, 0xfc483105c101d1f4U,
  0x11cbf621fa26eacbU, 0x2bd5f62ed7f3fb20U, 0xd1f5d8d2defdbeb0U, 0xc0f24240b316273dU,
  0xb01c050adc5502b4U, 0x11b63a2bd1c8b03eU, 0xd0b1b22fcfd2530U, 0x2f3b3c4261c4023U,
  0xfbdec4edbbee515U, 0x3c2a3cd63b3f1ad6U, 0xf2ebe5311fab20f2U, 0xccdeee39a01f3ff5U,
  0xa924c6210d0238e5U, 0x25a2bc1574d66137U, 0xc59810cba2db5041U, 0xd51d8122b0f14dceU,
  0xd7c5366ee6144a28U, 0x9f95b9dc53d9638bU, 0xa4244c44e7d82256U, 0xbdd6333259ccecf5U,
  0xf7fee3b695e20f6eU, 0xe63b42eb67ce0944U, 0x144745341d3d16dcU, 0xaec2a858023dded0U,
  0xd944b1ad0007030eU, 0x23be53526f2d0fd0U, 0xa0270f2113dfef28U, 0xa1ecaa0c14c0e1fbU,
  0xb5e707b195b11011U, 0x29b111b921d23f2bU, 0x49b80ad2311cb8f8U, 0xf8511d07f74f1bf6U,
  0xe83929e5e021fe3bU, 0xc52140c3291d08bcU, 0xc0d20bbfb95d0f0U, 0x4b53362cbfebc747U,
  0x2b436e02b8eed5d8U, 0xe03a2b1ecf2b10d5U, 0x45dacd38cd9bee37U, 0xf3d20fdaeb09d0cfU,
  0xa743201bd4fd17d0U, 0x23eedc21f342dc0cU, 0xd5bbaf2313474ae3U, 0x58bc41673162ecebU,
  0xb01134fbb2b32549U, 0xb3dad0b1e6184a2bU, 0xf1a1ba0eb1f845cdU, 0x2acc26efc6e1ffe2U,
  0xb8db0f6710be3caaU, 0xe087b737b4021df1U, 0x21e3e53ef0fc772eU, 0xec0e5cc3de2bd4f8U,
  0xa344383ba98d7d21U, 0x93b627d422becec8U, 0x98cfe20d1a327668U, 0xcf178b133ce6cdb8U,
  0x2472f729aea5cd31U, 0x50fe1ed42c0537bfU, 0x81ac202d1305bff3U, 0xc606e63f10cc4f39U,
  0x37d1f637ae332747U, 0x5234275a4bb9e1f0U, 0xef37eb0e4ecf2abcU, 0x9d47af390b147bddU,
  0xa1eddb3aaddd5940U, 0xdec95f1f30b735c4U, 0xb061efe6ae9becdaU, 0x40fcb561665922d5U,
  0x3f5acdf48e2bd252U, 0x302a0c6733092611U, 0xe4231249c3b5fc30U, 0xde029dde2f1514d1U,
  0xf2ecce2f8610ab4cU, 0xab25f35df8031dd1U, 0xd218c3ba02e72ed2U, 0xe416070f52d307d8U,
  0x4f6617c298c63138U, 0xe3bf17f225b1cfbcU, 0x2b9419ffe807b8bbU, 0xc022c1d1dfa92faeU,
  0x2de4dacadabf1fb8U, 0x93abfe36d542e18dU, 0x5606e2e829fc08c9U, 0x40f2fb4947da00d4U,
  0xf4301e5447b14d50U, 0xe4e7ebe311d0040dU, 0x15e100462123cc31U, 0x1bee13cbcc95846U,
  0x29a7c436e93efcdcU, 0x9ff7ead7e0ca200eU, 0x1c7022d054ff490U, 0xd7ef12719d15d39eU,
  0x11356b40b8e64524U, 0xfda401322aa93f0aU, 0x10e2f09bb0427d4U, 0x985bf1fc97bb25c9U,
  0xf1e149e3d8f71eb1U, 0xdee342dec803ed01U, 0xe4cdfcab110ff9f5U, 0xdad6e02ddc5cd5aaU,
  0xaaf4e1e0b506e826U, 0x17e93a23fb0dd3d9U, 0xb5cbf01a6068341eU, 0xa612cb3ead063800U,
  0x99d66df49fd0e5f4U, 0xfae50e6413deebc6U, 0xd2d205363622f3cU, 0x27dfbc09be214401U,
  0x862f22da38e427b4U, 0x4b26203f003f04c2U, 0x294b3439e00af7f0U, 0xb06d9e107d43453U,
  0x5417fd8935f58b5U, 0x5265ee394fd0ff1eU, 0xcbeadcd934cbdedbU, 0x26c3efd037d857c7U,
  0xc129473aeb381b34U, 0xdf3ec1f4cd4d24e5U, 0xbc329e00edf4136U, 0xec0c4cfd12d90b1cU,
  0xb312dbe010e329f0U, 0xeebbe4370f2857f9U, 0xfab43dc141c10733U, 0xccd24c006e1d732fU,
  0xd9ca00271de6fc51U, 0xfcd8112223c4042bU, 0x2d0d4709df0bde26U, 0xe90ad953624e3d1dU,
  0x2a0cb0bad1ce0b3fU, 0x1af937015a1b41ebU, 0xf3c6d20836e3fd4aU, 0xc248bc38d6e7dee6U,
  0xda16f3d1ddd4c634U, 0xb6d5e435d0fa50e2U, 0x1c07204de7c0fee7U, 0xbe5af01d135000dU,
  0xb3ef4ee310ebd820U, 0xdb134b3befc2d31cU, 0xbb12d8c50aeb2f34U, 0x4646dc1249271105U,
  0x421b2bf20eab13b8U, 0xdea57d83be9edbcU, 0xaf2bebc9e5e7d1c6U, 0xdaff0739523de0f8U,
  0x130a1ba0dca481f1U, 0xbfb52302d4e8ddc6U, 0xda21d0421ba0cb20U, 0x5221d3d83e2a20e8U,
  0x303f14e8c3fceb28U, 0xcee9fc02e720332eU, 0x27fbfdd1bf2aae3cU, 0xb5420419c9e71f50U,
  0xe102fd0fc3559d25U, 0x365ac3d2c42ce5d5U, 0xdf33c02939f2d009U, 0x3acbd9f21ddfd615U,
  0x3f163b911e33c10fU, 0xec472537e82cfadaU, 0xd9d6e3ff4122d642U, 0x46d7d8ff0c19fedeU,
  0xd44500cb6a110903U, 0x54e73458bac30434U, 0xcb0d430225304fa4U, 0xf81c4d05bb2beac1U,
  0xcbfd19040044a5f7U, 0xd6c3e7190510cdd4U, 0xd056fa3034dcef26U, 0x3adcf5edea5f2bd2U,
  0x4aff25c307d407d1U, 0x2222002bf5d81203U, 0x6cffe21c50fed916U, 0xd7d9cfd29ecdd6dbU,
  0xcda5d2cb7ffec90aU, 0xa62a1409a160e1b0U, 0xd556134521e72221U, 0xc52abf66f4eea1f7U,
  0xfb62e4ec16ea28ffU, 0xe73de7beb601dc0eU, 0xd352c80dda4bd3e8U, 0xb5b8c1198b0ac92bU,
  0x35f5df352b9aa96U, 0xf3c247ef3fe6c2dcU, 0xbeffe661c44c92cU, 0x8c3ea21cddee0fcU,
  0x2f3225d56af5adc3U, 0x19b65b389c37b701U, 0x2bfb31bfb5f7bce7U, 0xd429b966854caa4cU,
  0xc32ad62af711dadbU, 0x262afa101afb93c5U, 0x52d62414cde45707U, 0x5ddd030b9ccd112aU,
  0x6338aab6810fc8e4U, 0xb1181acb944b85d4U, 0xad3f9e583fe9f494U, 0x4c473d1b9ee587a8U,
  0xf0170ad50850e225U, 0x3738b3dbf31c33b8U, 0x16b52117dc9a5fb4U, 0x5f2c184a063427cdU,
  0x5ff62a5d1ddd5a96U, 0x36c1cfe623b1f850U, 0x3e6325dad72eccaeU, 0xe827c257e1de2064U,
  0xbcee2602a1dcd8caU, 0x164610184c124511U, 0x34cfd819ea4af696U, 0x33d0c91a96b6c253U,
  0xbd11ce50d85ad0a5U, 0xd76045fdbaf02e2dU, 0xc3da1462a8c86533U, 0xb2b4b848e055f703U,
  0xa5c6c3273319bec8U, 0xe81ff23ad960cd3fU, 0xacedc44dd1380cbfU, 0xc5c3416a3ed0ebf2U,
  0x35b70262e8c15020U, 0x18acb946cfc10d07U, 0xca4d486ae434ededU, 0xdb3a120adce9110aU,
  0x3b43f053ee540219U, 0xed2600e7693718bbU, 0xba43dd1df6f19f3dU, 0xea3719dc15e01be5U,
  0xd056431dd848050cU, 0x3d081604d1e9ce42U, 0x37ef444b1111bbb8U, 0xf1bc1f3bc327b8e4U,
  0x251cdc91e315a926U, 0x44092f003ad0a8c0U, 0xde6cfc4ab50d01e9U, 0xe4d86b1cfeccdf6eU,
  0x2f29f2dd045e8a3dU, 0x25daaf0a485de361U, 0x68ed81c700c2c509U, 0x4346ecfbcb0e16bbU,
  0xd35b24cf30011dcU, 0xb812ebd61cd4bfe5U, 0x9b3b8503411fcfbU, 0x35276127fc13c3eaU,
  0x5132d4d4d1f90895U, 0xeb3f0801f7ecc5d6U, 0x8c3a511e83a17edU, 0xddd07c2e31f9cbdU,
  0xcc39162ccbace1a0U, 0x36effdaadcd7aa32U, 0x27072445c32f1ec9U, 0xc6c4c7e6d816c33fU,
  0x42bffc1fc60fa93eU, 0x270d08ea2bb1f801U, 0xb9d884ff3ff75fcaU, 0x1dee4f09ccc9bccaU,
  0x414424e315f48d2eU, 0xcde415c5fbf7ec28U, 0x1a3cefd3eab50526U, 0x29aac15795218e39U,
  0x2e4457cbdcd1a7beU, 0x13b7450fd0abadccU, 0xa0fab72fd9a62600U, 0xfd27ca28bfff1f2eU,
  0xcd20c12937212f40U, 0xb2ad0218011e24ccU, 0xa1d9c3c702f95d14U, 0xc7dcf55ca701aeccU,
  0xf21dfa57fffca5eeU, 0x35c404045abd5de3U, 0xe91619c1afbd4bdcU, 0xd0e4b3edffb625f7U,
  0x63a3bf931b1f323U, 0xd4b6f7f4649b3c17U, 0x250d1ac20dfea817U, 0x281f0e101f4924ccU,
  0xc3643c7dc2bb11cU, 0xfb1fd006c2f747f0U, 0x36faa80af1bc1038U, 0xd607e1dedad221e1U,
  0xc517fc45eb05ee2fU, 0xc8411bc9f1d6efcbU, 0xad01fa2308110121U, 0xabc9f231c0d0c0c0U,
  0x240bc3021bd8d4e3U, 0x2529200444d95608U, 0x2ee90accca81cffbU, 0xc3ec1fd2542dae1U,
  0xd11fe7e72c312516U, 0x3bb0ce3aece0490bU, 0x1eea0029f3884728U, 0x3b5130522e2a2537U,
  0xec40331fce15dbc2U, 0xb5bdef4fe1481ae1U, 0x123ad701b2d539f9U, 0x214b2d18180dbbe4U,
  0xe9e411fd05c4030dU, 0x2520cbbfd33911d3U, 0xe12c15422921cc0aU, 0x2a42141cd8110353U,
  0xdf300f25225910ebU, 0x5d3fdf45bed4b8c6U, 0x5750ae1ded4b1927U, 0x2faa5db31d400300U,
  0x5dccda0e3959df1aU, 0x192ed2ff4107aae3U, 0x8e0ad55df28cbdaU, 0xeef15c1aad41e846U,
  0x52bcae38131e9d0fU, 0x15eddb0d1c06ff16U, 0xbb470fdcae1e1bc3U, 0x16d41efde605cc0eU,
  0x39f62b0cee519d0eU, 0xce1211cee4bc17fbU, 0xcbc1b4ece51a5de8U, 0xdaba66f3bcc1da0fU,
  0x3bf6a05822e59206U, 0xf8fd3facee2fe331U, 0xc4c0a522eacdf1a2U, 0xbdcf271481d7e346U,
  0x1c6a82b08c7cdfeU, 0x1b0ae0e8aaf0b8bbU, 0xc9bfdfde1a5d27b8U, 0xc7220665f101e8fbU,
  0x828d9ec3dd50e06U, 0xd3ff0819da00420cU, 0xdbeca622ea4d42c4U, 0x324d473b5e2cae9U,
  0xc8c8f40ce3f29bd1U, 0xdceedeabe123ed07U, 0xb117fc382ef41fc5U, 0xb4fc0c69c7d30e13U,
  0xb5041ef638b70808U, 0xc40cc32f27efe2c7U, 0xd1bc54011bce35efU, 0x1ef2e9cb2f377f29U,
  0x48a040e7acfa7ce4U, 0x3233d834dad35414U, 0xd2ca58aa331e1206U, 0x43f32f04605d323eU,
  0xd71be4f6fae50ad7U, 0xdbdc44de55155211U, 0x25ce14ec049d2d0dU, 0xe33dc8374323d30fU,
  0xef31fc14b5cceb1fU, 0xaa99d5210cc5f6caU, 0xcfcd3847f19adb18U, 0xf9088ecc19e125d8U,
  0x4a1e08babbbb2e38U, 0x47b5c5cbc5085006U, 0xe81beab4d0facd5eU, 0xda052f213d301ae0U,
  0xe641e9fbd010b566U, 0xdd17dfee2c1426e7U, 0xffc04abaa9efebd1U, 0xba5c1b6165fb52d7U,
  0x23efb4139f96f2f5U, 0xe3c6e5e4dd3d41edU, 0xaf43fc41500328ebU, 0x47f6f8c9421a3bf3U,
  0xdeb93b1f0fc6b205U, 0x15b249e12c5041c0U, 0xcfdbdf4a02bef32dU, 0x410a9425075b2440U,
  0x4502be1a0f9cc9f3U, 0xef0e64c56f36c52U, 0x13fbbc32c5bdc058U, 0x30f4c3432b1b4d2eU,
  0x1fe05b260fafedceU, 0xd0b4475dfd1a51f6U, 0x6a1a0ef72e24c81bU, 0xbef2fbb636c5bff5U,
  0xd3d0d63195fc2c06U, 0xc00af82e9edb012dU, 0xfc94556dbb9ea3eU, 0xcfc261062547083bU,
  0xfd3ad2d51422cbddU, 0xc4f1e0e90315a3c4U, 0x2e55ec404cd5d11eU, 0xe13dd2a5c90d5743U,
  0xc6348d1e17d19b4cU, 0xc2651b4e4745155cU, 0x5c28ba1dcdc72cccU, 0x411422d6d15bf6fbU,
  0x413a3a4ec1dc1cecU, 0x3dba28b729d247d3U, 0x2e4c47dbbc8121f1U, 0xe7b23117ff54ba4aU,
  0xbbbf10653ac00408U, 0xb5de3baefbd33035U, 0xf9dd3bae0c9b18f6U, 0xc33c3edcc1d207ddU,
  0xb829004dd838f8dfU, 0xb2afe6bd0e465f42U, 0xac3c4ffd6addaffU, 0x2fe11517363923baU,
  0xe138f01e21eae0c0U, 0x1300324406d03edeU, 0xbde3fc331fc4ac55U, 0xbbea2f2f26c09f18U,
  0x2a3b2514dc07d5acU, 0xe6f1e33147f305d3U, 0xabc4c0623318dfc3U, 0xe41dae01e0c41aefU,
  0xa0130db23cab28adU, 0x43d730f9c8e73a43U, 0xd9312d0607f94418U, 0x2d2c25e502c4cfecU,
  0x101031e0c73fa0dfU, 0xbcf047eefedb15c3U, 0x2027ee3ec744192bU, 0x3237d0cee4301618U,
  0xf6cfd6f0bedbe9bcU, 0x44032be6f9befa49U, 0x14fcfa3bf80440c5U, 0x3f02bf31270dcac2U,
  0xc1df01c5c310e519U, 0xc7f912d6101d17d9U, 0xefd4e8f7b438fcd8U, 0x2902dd0c0a18b708U,
  0xf4f629341af4bee4U, 0xc212c0fdc712a82aU, 0x341fb4ee44dbfdb6U, 0x20de0af01bfd2b26U,
  0xf5ab26de4ce22e05U, 0x1e2200f9f0dab92cU, 0xdcddd24a39f932c0U, 0x56385de3b939cf4cU,
  0xf6f5bc36a75635c2U, 0x37d714ca1c30140dU, 0x1ed20332c4e7d7b2U, 0x13fd13fd11131c0dU,
  0xdfe1e41d41f99ff9U, 0xe7100bffee2f1530U, 0xbe32014fc7fcf24U, 0xbcd4fbdabbf4c3c8U,
  0x1e26e0164cbf47b1U, 0xbc2bd9c44d09e1ecU, 0xdef62924466d3fdbU, 0x15b3d62afcf9d6c3U,
  0x2e22e11d4f1c5ee7U, 0x44b5c9f62c44aaddU, 0x1221d554ee11dd1cU, 0x571ad7fbf80437bdU,
  0xfaa7fa31c414ee05U, 0xdb5a3536ce09dcfdU, 0x4cdc9c22eefb44d1U, 0x1cdd13f5970810caU,
  0xdd1213370ae8b425U, 0xb4e1f51781ec095cU, 0x482c8d43260a45b4U, 0xe7f4fa09c830d536U,
  0x3bfc233b1635d615U, 0xceb9d745dacfb149U, 0xaa47923bc6dc1233U, 0xf655e61007b2add9U,
  0xbf0311b4f5fb0ee0U, 0x1cd3ea1d51b0b11eU, 0x13fd97e82708e7c1U, 0xde46bb3daed41bf2U,
  0xfce1fbf8eee03925U, 0xc3f7c5bb4b4fceU, 0x34d3e22f372f2502U, 0xc54ad204ea48d23cU,
  0xd52e1735f2090d0dU, 0xf0d1fdeae1c6e7ffU, 0xf05cf69043fec52U, 0xddd6289db81c0ac1U,
  0xdcccaf34fb53b2efU, 0x663a0d4034414ef9U, 0x481e41191b28e1e8U, 0xc205e4c1babcbadcU,
  0xd8bdc5ea1be44147U, 0x4f54fec8e2319550U, 0x2625e34c0e69c020U, 0xfac1e6a20e0add4eU,
  0xff538cd847255e5fU, 0x381ce3d5dea40ae8U, 0x51bb9e16a8e0d5ceU, 0xb412283d3ae3a6ddU,
  0xa93dc36430403e09U, 0xa14cb44dd5b415c3U, 0x11ce192334252733U, 0x13cef31913c35859U,
  0xf1646a60f972bbbU, 0x1de53337db14dcb4U, 0x36c06a9e55c72521U, 0xd21d2bcb14605224U,
  0x4494c8a0cce2f028U, 0x37c8a7d69be84cf3U, 0x4434b6f8faa6eb2dU, 0xf25a39f9f5dde9e8U,
  0x5b3af7de4be989b5U, 0xd0175ef3d5013be0U, 0x28d806610533e4a9U, 0xba22cebcc735a645U,
  0xa3ef5a9614eb2f89U, 0x3e1a423e4dbcd7a4U, 0x1253e4fbd8b706bdU, 0x5eddc02f3401fe44U,
  0x30b742adecbd0315U, 0xfe11474d0a15513dU, 0xee9ec169cfe3c2acU, 0x14bf226e1156953dU,
  0x2e271301a8d18189U, 0x9baf6ed6b5fa08f8U, 0x40e339c5d9a8db03U, 0x371ab945de35e6f8U,
  0xfcdd18e8ad1d9bd2U, 0xc7962749d257513fU, 0xac43e9acd400f043U, 0x63d5b11c0c08edb6U,
  0xcdf7df0fc50312b3U, 0xfa430d55b2f5f4a4U, 0xc335b7ece9012acfU, 0x39fbc88ff0c543f3U,
  0x4af6c0f9f009cb2bU, 0x436b44527d05249U, 0xf2eadce003f92b06U, 0x3d2311ce5d1a541eU,
  0x3f3eedcd19f5493eU, 0xddddfcd74d48d642U, 0xb8cbcdcee192bb34U, 0x39f70337540855d3U,
  0x223221d195d2dbedU, 0xb5045cce4d5352dU, 0xe135fe17dbca47fdU, 0x32adc7f9fa01fcd6U,
  0x2bb03cb4e2fefacU, 0xfbe4c8cbb4f3ecd5U, 0xfbd949dede0e2acaU, 0x5cd7d6ce53af105bU,
  0xfcc00cf22f28a714U, 0x34f1d0a130112c9U, 0xea4cf8def72ea41bU, 0x5a05e5ff0e35543bU,
  0x4ced0bd1d74dc1f1U, 0xd4fc2a43ed5cf110U, 0x60bb121ccec0d25U, 0xd58133b4c2f122ebU,
  0x3803aeda36cdf8e4U, 0xa72900a0e7fc993dU, 0xcbcf45ffd62ad5ffU, 0xc0d81f372efff0f1U,
  0x25dc14ea49c51224U, 0x7c7f2b4b502e7d4U, 0xe41240ef3c1ed4bcU, 0x33c005c3efb71748U,
  0xc00e2db0210df9d0U, 0xb4a6fe13ab2b8fc3U, 0xfce520ca331a4bc4U, 0x19fdfe0cf603e91dU,
  0x3d031738e03a3f22U, 0x120dc50b24f9f4e6U, 0xdddde5fc0ffc05f7U, 0x4e2423505dc7fb52U,
  0x915ced7e802e112U, 0xcacbc532553b201cU, 0xf5fb5ed8e70e0419U, 0xd5edc42c04f94917U,
  0x3045e7f71d121c21U, 0xe4c6defd39e7e3bbU, 0xded425171c00d7dfU, 0x1212f3fdee193407U,
  0x43230217defdf638U, 0x2940e6dedcefe928U, 0xb220fc05da7fddf5U, 0xd051cd161b3ddf2bU,
  0xf8cf482203da0650U, 0xcd33cd0939d93a3fU, 0xd00425dcd9140a1eU, 0xfaf1cd0953fd0b21U,
  0x134915affe2dfbe6U, 0x40639251eec2c23U, 0x2b34e7fae1eddee6U, 0xe1ab1fb242d3f620U,
  0x34c9d31a17ca331eU, 0x2dcbae40ff7ec0aU, 0x32fb232d05033e44U, 0x1db711a81f1b192fU,
  0x2beaadbebf80be3U, 0xd0d5e23fe30df814U, 0x3515f6f0f75725f2U, 0x3c2c04bbe8c5f2e3U,
  0x16dce1e830f73630U, 0xe50002120d3a28c7U, 0x142ede0d1581d253U, 0x57050aa164b34ddeU,
  0x432c0433cbcf9a0fU, 0xaaf71b1cddf632faU, 0x101c1acd15bc0be7U, 0x32eebcb6fd103d27U,
  0xe81f860bc1e4d03fU, 0xf70527114b52db02U, 0xfce64003edd6da3cU, 0xf16151235471e13U,
  0x3424d6905fd0fb62U, 0xd83d1d1d0410e745U, 0xba24f6d7c04db225U, 0xe2b9ebba3c270ee2U,
  0xe0db21fbf800fdedU, 0x1b02a80405ac1117U, 0xd434dcf8291aa637U, 0x4ac91cf0f0f40c0eU,
  0x1d05efc05e3811d6U, 0xfa2235a80220e52aU, 0x30afe16e2089242U, 0x32eaf8ea3fd455f3U,
  0x3f1103900acdb7cfU, 0x6f70ce7df3acde9U, 0xfc220046a9351fe1U, 0xef37302617c9a1e6U,
  0x1b3e2053fd19ff7U, 0xb3b6b6ffdb30aaf3U, 0x24f3a6270b4e21fdU, 0x24264dedf0249c44U,
  0xbebb3b3038bdbcd3U, 0xa72c0aaac8b8b7b2U, 0x34ba3cb7f11ac39bU, 0xcd32ef4ff9c0e529U,
  0xf10337fbd71bfae1U, 0xbdd2ef00ebeebb00U, 0xf12134d039190dc9U, 0x15b019da5fc3e149U,
  0x57f7dac5f4e2e1ddU, 0xfd6fb37b5fee322U, 0xc024273a0a01031cU, 0xdbe3250a4ca50c06U,
  0x66b8fad13ddfcefdU, 0xf2e001ffdcc8ef03U, 0xa0b0e0c2fd815e9U, 0x2913d10f5522f641U,
  0xf6d8bdfa2c1eb846U, 0xed4240422f38bc28U, 0x3ad4db26320d22f4U, 0xdedb330b2bdff410U,
  0x11e8f5fe1515c52dU, 0x1eee2407041cf6cdU, 0x20e1cf2516b6f305U, 0x41d70ff035184bdaU,
  0x4c2a30e2629d1dbU, 0xe140b6102ada06adU, 0x1bc3ed074700df22U, 0x3c0416c8db503f0cU,
  0x53b7c607ea0aa1c8U, 0xfddbd0c903343d03U, 0x22e3fccc200acbcfU, 0xdcb9b6e3b4beeffcU,
  0xe1f4b7f15fd41499U, 0xb70be8ba251dfdcfU, 0xc80409172a3ba200U, 0xe8afb4de34d0e540U,
  0xc125ddec3bddb007U, 0xbac821eacdc7dcdbU, 0x271227d7252bd50eU, 0xf424e3c840d9153eU,
  0x32240881d7d2d70eU, 0xfcf44415c0d61f14U, 0xf03739d8e3e9d82dU, 0x2f42052e444438ddU,
  0xc92f1407c4f23a32U, 0xf33cf13cd10dd3eU, 0x21d3c6bbc4b550e7U, 0xe11ff41cc6d6d615U,
  0xc0b7dc18141642e5U, 0xcb3906fc2aff4634U, 0x12a28112cbb524d9U, 0x1504b8c60e3bdaa5U,
  0xf72113501aa6ada9U, 0xbde8fec42c3637f5U, 0xc2e837d33f26e100U, 0x27d1273123d04b0dU,
  0x16f9ccc0cce22bfdU, 0x14e5fc1d2f25f5deU, 0xf600d62ae0df0a36U, 0xee451421d3ef4fe7U,
  0x6e1290507c63937U, 0x2ccb26e7fdd6d9fbU, 0xa7daba29c9c62944U, 0xba40b738e6e5ddb0U,
  0xad1621bdd902e8d3U, 0xd92cf9092b015a08U, 0xcd00142818cf9bdeU, 0x315e7144f1c0314U,
  0x1006c8c13adebf3fU, 0x1cf51befcc15b30eU, 0x12de52f2cc11daf0U, 0xfe31e549ea0055d3U,
  0x13e70febf226355eU, 0xd4c8c922c4dddc16U, 0xdbdedef5cafcf926U, 0xde28153ed500f101U,
  0x390c00edea22373dU, 0xcbe83c0c0728fc26U, 0x5ee8c4493b0d2cc8U, 0xea3b6203b663020aU,
  0xcfd09f9fca52b5ecU, 0x7d3f444eb2bedd3U, 0xecea2a24c6aab8bfU, 0x6c4264db37e9d02eU,
  0xe7f91a15db4a90f3U, 0x2ae95b02b92717cbU, 0x4249ec47c63337bbU, 0x1be7e242d605e248U,
  0x46cf4d06d3bb0600U, 0xa7d5524481e0bf05U, 0xe416d0e3c551facfU, 0xb552e44994e60ac5U,
  0x34bd6486fd34aba0U, 0x8bdbfb414330feaU, 0x9addd73b4fbab6a6U, 0xb4081aceb743f1eaU,
  0xeb4b3ab0eeec3c92U, 0x27d902df3104981dU, 0x995db8014e32a527U, 0xca2c3f4a12f810d8U,
  0x305ae6f4311829f4U, 0xdaef4b3d23ac981bU, 0x2609a9eec8f9ae0fU, 0xc3dec32d8c63a6efU,
  0xab5a750ac321fdfaU, 0x37c64826c623161cU, 0x33d434d1f24537c4U, 0x17280021e76dc912U,
  0xbf4b14b2e4dea5bfU, 0xea440be821fa141eU, 0xd9b832f7e8dc2be1U, 0xd95e3addd4fd3bdbU,
  0xd40e24af04c6c9c4U, 0x31c7d11bee620dfaU, 0xc55b28b6030717faU, 0x1ecb0b13d333d6e2U,
  0xec482118f13dccc9U, 0xcbbdfff3e6241509U, 0x1bdc3151330edbe7U, 0xfa47be150e0cd031U,
  0x5ccf34340e69d13dU, 0xba5e1aae474ae0f6U, 0xcbfa07d1a23f02f1U, 0xbe24031dd6effbbcU,
  0xed9093b29531cfbU, 0xdd1d0a4a1d4acc66U, 0x367bdc2fb39dbf9U, 0x19bd52eed2cee163U,
  0x551802364f38e1d9U, 0x15ec14ec35b80731U, 0x84eef053c3f5be5U, 0x1fe529af06bb204bU,
  0x5aea9c2cf22ad522U, 0xdf2a3fb6032d1f4cU, 0xb0f50f2cbc08f2b1U, 0x5b892ad243acc71bU,
  0xf6b9b52d163a03f2U, 0xcb22011aeec804c8U, 0x25590105c5e2470bU, 0x510fed3982f1f833U,
  0xc717234a29ffc49bU, 0xc541c8aac4f50461U, 0x3b5513108f5751b0U, 0x2f863ebb16e0b447U,
  0xdf19e3ccd317bca0U, 0x340dbcfe814255eU, 0xd02df524d8362e98U, 0x40812dc7f3efff09U,
  0xc91a9f6cec7ccaeU, 0xa513e0aed0e1b724U, 0x6942ea4100a745f2U, 0x4222212c646e34eU,
  0xf9febc9f346f2eb6U, 0xf8b81feac3d2abafU, 0x1324a53ddbc7f813U, 0x451c5b25ef031e63U,
  0x6de2a2b3fa3d9be3U, 0xd4cf51222aee9d62U, 0xdc66eebbb482fde4U, 0x55ca3f24d8fa2f43U,
  0x560fd33ea603fd99U, 0x165e570528e01a07U, 0x672ba53d18d51bb2U, 0xfab9d52ce033ae67U,
  0xd0de09c3481452d9U, 0x4cfb13b1c8c204e4U, 0xbbc4946db7f4f54fU, 0x67fd2a0bf8bf925dU,
  0x33d6192e2a0593c1U, 0x564a1dc409c62a06U, 0xbf50efc657d6bcdfU, 0xbcae24c9d2af4344U,
  0xc1de0da4f707f88cU, 0xf02fec2229dc97e0U, 0x29dd0d2be540d73fU, 0x3a1c0a2c81bdb2e5U,
  0x55cf311eed7a5c5U, 0x2f3e23c423dfe2f1U, 0xbc431f6e4c1e3717U, 0x1cc610fcbaaa47beU,
  0xfcc6bd32fcbd2492U, 0x10c9b7e6f1c3db6cU, 0x1a17dbcbd17bc6d5U, 0xdb1e52e6a6f21968U,
  0xf0c6ad2a3e40adbfU, 0x25cb4ae6b2b7afceU, 0xb01f7e92cf918fdU, 0xdf310d1226fd3b43U,
  0xdbf2c14d051af0f2U, 0x3124c24db167ffcU, 0x182bdef70e8914ddU, 0xf6120e1f052740edU,
  0xc8faaa4e2e00d745U, 0xdce817ef38e14f16U, 0x20e940ddd19b5f34U, 0x1bf7a0bb4deb2609U,
  0x1f2e024e24cb4a1fU, 0x70ad7cd3b082f12U, 0xe9cff5fbed0fc3e0U, 0x252b03ce131a2438U,
  0xd2e412a63accf635U, 0x21fd090e5fed7d1cU, 0xc6fc082acd982512U, 0x35db14072a4151e0U,
  0xf5c2ce1ddcddc4e8U, 0x1df8eee91514500aU, 0x20081f26d8e4f54eU, 0x423efddd473338d0U,
  0x250cffe304cbc912U, 0xc327093e053f3c0eU, 0xfdb00e04d6b0dbd5U, 0xbd39a216dc0fc9dbU,
  0x17132adb3ebeb8ddU, 0xcf1210efd52b07e1U, 0xafd3ff0826c4ab33U, 0xed3b1ded4211419U,
  0xb51000af11079e1eU, 0xf2dcdb1d0f422727U, 0xa1d8091127d2b413U, 0xc80aa51716e31d29U,
  0x3011fedff20c0009U, 0x91d1c41fae0dfc4U, 0x95fe08f4c1e4cabbU, 0xaf6e81a0507e4b2U,
  0xaae0d1e7f6b600f4U, 0x33d321f12cc7cc0eU, 0xcc4222f00cdbe1e1U, 0xefc128e601fedff5U,
  0x11e609d6d5d300ddU, 0xdde4f6f0cbb6abdcU, 0xa62446f80735ccbbU, 0xcaeec30224cd30cdU,
  0xdde723d72fd8edc7U, 0x442e072db818c5ecU, 0x2a24eed5e1ea11bbU, 0x2d22df25b231e00bU,
  0xdacee6230ff6f4c2U, 0xc20724f7ea351dc2U, 0x1edac7062d33e106U, 0x603ef390ee4fc29U,
  0x2efb1c1016f0ec0eU, 0x2f0922c987313726U, 0xc63e2743d2b0f6dcU, 0xb26cbe4e556cbdeU,
  0x17013704fbd64b02U, 0xefd9390181321e0bU, 0xae321f0c4e53c828U, 0xe022c929b1efdb04U,
  0x15f1699b03b20008U, 0xf0c62851d5dd00e7U, 0x2628f61e202adbbbU, 0x48fd174bbb51b218U,
  0xcc5a3713d7282520U, 0xe6c83dd6f5ebc3e0U, 0xb2061ecdddf32c36U, 0x4de32f46dff611f9U,
  0xcd2c359c1143dbd8U, 0x62f9141213ca200fU, 0x213eaffddd81216U, 0x8d47e1d3c951c5a8U,
  0x97224e2db813c281U, 0x2999eed248ba421cU, 0x94ecf434b03cbfb0U, 0xc0aedaf2ff400cfcU,
  0xc0d7d34ad6923535U, 0xd841b3201dd0c4U, 0xf2b868d83c28b507U, 0x45ed1a6317e02f40U,
  0xa5c65ceb17d66bebU, 0xcbfc103d7290311U, 0x3fe0c03e0d6df17U, 0xd04c14f190bf94caU,
  0xf630c8083b36f1d1U, 0x3e37b818fdb20c33U, 0xffd7c036e8f312f8U, 0x43fe25cc2c45db3fU,
  0xc9b33344e8b3ebb2U, 0x22af454d1b363826U, 0xdb371f23bb35bcbcU, 0xe156e807d4b235bbU,
  0x2950d8b0ad31e608U, 0x213754c3e0b114a0U, 0x4bfd344ed14be645U, 0xb2bf17ca2331243fU,
  0xb4f6410fc1c217f7U, 0x26fc1a4cd935dabdU, 0xe3c60f103fd41d11U, 0x22fcf108ed4ebfacU,
  0x29cbee62c100471cU, 0xecf7cf14b5bfc09aU, 0xc9cc3a444b33c2e4U, 0xf05232065cf1353eU,
  0x821e9dfd44ad056U, 0x4b525a0db2dbafc5U, 0xc1e00144c839bd46U, 0x4fd90d43dcaf253fU,
  0x21e75227c1c73f3aU, 0xf8b621c3d7e724baU, 0xd817531be93d0b25U, 0xb9cc3b4347c21fcaU,
  0x4033f204f79c61f4U, 0xe8d1e04abfe447c4U, 0xc1e039f3c245f91eU, 0x2639b44047e90cdcU,
  0x21d7cd45a9133942U, 0x30ed626fbef57d9U, 0xbacf2cc701cd0005U, 0x3e3bb638f5f4d53cU,
  0xd2db3bf01115adf6U, 0xd8154016f8acdb37U, 0xcffe24fb3c0250ffU, 0xb0090b2b4c50204fU,
  0xea2d0038d52f3bc9U, 0x13dadc4f25d95111U, 0x81fd050114dde700U, 0xcecda05432bbe52aU,
  0x2df5ce2fd502fcf2U, 0x2dc6e547c2ecd5e3U, 0x9902143d2ee0f4ceU, 0xaec5ef2cded6ac00U,
  0xfd153526d1d9b1U, 0xc31d85219c64327U, 0xd712e6361dbef44eU, 0x571ef730c11f1257U,
  0xc4f44906ceda05ecU, 0x4339c52709e135b1U, 0xfc703073716ff4eU, 0x48c2e49d26174c2cU,
  0xcc33b5d611412330U, 0xd24508533d104febU, 0x43f3e535460246U, 0x9dce1be15da1807U,
  0x61a81f8c2d26cd4dU, 0x4cb559cf3f1e2fd5U, 0x4d2fd2ac52f8c333U, 0x252ab7b73850fbfaU,
  0xb4c1b303eef81ccU, 0xf0e70d341cfcedacU, 0xef25df26f3b0bca7U, 0x4fb8140a16cccbc7U,
  0x5bd0c2d0f103a7feU, 0xcaea5af79eb8cdd7U, 0xf9cf231dda5f161eU, 0xcd00b83320e915c2U,
  0x9d7201ec1c81db4U, 0x1ee1d348c1cae849U, 0xcb25dde6567ee6e0U, 0x5be1e5be9de5abc7U,
  0x3b1c26c3ee5cbd02U, 0x613033edbbfe303U, 0xb749a9f96029f3c0U, 0xeae04a21eb3db52fU,
  0xf6f9c941ea01e3f4U, 0x3e2ee6f2c6b4b30eU, 0xbf664df314551df4U, 0xcae44d47ed550c02U,
  0xc22c47e6d90ca012U, 0x4abf27d72c1dc269U, 0x2b4943f7ddf81901U, 0x69f354f6e110e56dU,
  0x592f35203c231ffaU, 0x2d01b7b705ee38daU, 0xc1e26165fe44319U, 0x47a6fe3127c7334cU,
  0x5dcd21f5c84b07U, 0x51e2eee8492dc72bU, 0x343242c6af9efb04U, 0xf801a8267931dc37U,
  0xd213e1142ae5f624U, 0x2c00d3820dd564dU, 0xb2f3eaf5f1851ae2U, 0xfb3822ccf0104efdU,
  0x16f6f713ca27b3daU, 0xefd46b8edc63534U, 0xc3282fd6f7cd2868U, 0x2b379b3830d20813U,
  0x3941d316d6f50e30U, 0xd513f7f839164abeU, 0x2b350dd120b3dbdaU, 0x3de7c3ed71c74958U,
  0xce3c0218f8448428U, 0x82ddbce2fc951e0U, 0xacc0cc2bcbe3b64aU, 0xd034b5d375dc2745U,
  0x3a01ce12cedb9abfU, 0xeb1217db58ef4e50U, 0xba52f14a283fd60aU, 0x2e33bfd83ec9da2bU,
  0xf42a3681c2fc1b4bU, 0x50be09536011c6U, 0xc92818e6ece00120U, 0x3921d8efe9c0c143U,
  0x2a0bc9b551d1f3c3U, 0xdc2b5d119a892caU, 0xd5f60b3bc7c5f320U, 0x29ccee3e407e743U,
  0x26eb3e2bc7c4e591U, 0xf4f13abdf2c82817U, 0xed4bd6dfb51fd235U, 0x2dc02cb127bb3449U,
  0x49dd06b9bb2fd4b9U, 0x1e180c16d4e8f724U, 0xf9ec432100160906U, 0xca290a0b3419061fU,
  0xcacc17dc2d35e63bU, 0xe2f127cfe3f80f40U, 0xe236d9d29ad131cfU, 0xdc2e3925b2fc05d3U,
  0xe012ce1e2f08d8ebU, 0xc923e2d3211d1b37U, 0xb4aeb828b0ad29ceU, 0xc1f3cb05f0d841cbU,
  0x17d6423d110f00aaU, 0xf61f30c914cd49dbU, 0xcfe6f3f6d6cffb06U, 0xe650e0d52b443b3aU,
  0xdf05ee45bee8f17fU, 0xfbe7363a51505b4cU, 0x35f0eb42d5ac0456U, 0xc012cf0bf90beccaU,
  0xe3273527b3d6111bU, 0x4c11d2bf629231aU, 0xd5ae50e4a71afcd3U, 0xacbf749623054f4U,
  0xbd1e36e512f81241U, 0xeffcce4f2ea23c3U, 0xf6fdfec20cbad825U, 0xd93da50937d415e2U,
  0xf4014eb8b4b92d17U, 0x3433d83648625e3fU, 0x1ac303fafcd7f844U, 0xbff5f7eb0f5414c1U,
  0xc64560efeeb6b1f9U, 0xf9d505daf7531ec4U, 0xbeabf935d4f2dfe3U, 0x210f080ea64837eaU,
  0xa91b374db9c0df02U, 0xea1d31263925fac2U, 0x0U, 0x0U,
  0x0U, 0x0U, 0x0U, 0x0U,
  0x0U, 0x0U, 0x0U, 0x0U,
  0x0U, 0x0U, 0x0U, 0x0U,
  0x0U, 0x0U, 0x0U, 0x0U,
  0x0U, 0x0U, 0x0U, 0x0U,
  0x0U, 0x0U, 0x0U, 0x0U,
  0x0U, 0x0U, 0x0U, 0x0U,
  0x0U, 0x0U, 0x75dd346efcfd4c8U, 0xdfec000bc001a2d5U,
  0xa6488e0b4f25eeddU, 0x38f955d9f8390534U, 0xecdfe956c3bbc0d1U, 0x9a28b51f3fbeccf3U,
  0x2ac3038addd63feaU, 0x3d8ad6d08c39b216U, 0xfc9ffd34a8f8a2b7U, 0x1250c1fd9521de9fU,
  0xaf8c8ca2880db09eU, 0x3f299fc818449105U, 0xa2b9885384908b31U, 0xa854c68efa2a4c4eU,
  0xb5a64fc5d19ef650U, 0xbf0496c98c85be88U, 0xb73f26039f394e49U, 0x9fab9725d4d50123U,
  0x54ca030f99feb535U, 0x350844fe924136c1U, 0x14d60f38fabde0caU, 0x46b09c93a6fa98d5U,
  0x8c82fbd00a9cea11U, 0xd5f8230a2926b62aU, 0x3e5772fbb1f11eadU, 0xfae787ddedb3d0c9U,
  0xe9b9409bd70cb98eU, 0xffba2ff155a61408U, 0xcebb22304b01043bU, 0x1ded2a41ddd1f8f7U,
  0xab39a63bd8bb0a44U, 0x510627908a3cb8eaU, 0xbeedbbe9fe00390U, 0xd4b416c144254cd0U,
  0xee42d063508eaa82U, 0xe3d02ab90a27edeaU, 0x9ff893a8990bdbdaU, 0x23178d6623033b0dU,
  0x2784459f82dd31fbU, 0xa53017ec182fcc23U, 0xae993248308f79b6U, 0x37a10e4e3e19b13fU,
  0x432e660bde03b5a7U, 0xa13cb2e81e3df192U, 0x1fec0626e8fb9356U, 0x90d51835e4e3ca4bU,
  0x34bf81371722e326U, 0x463b9bb68d371af0U, 0x939c174583b44fe5U, 0x9dbbb99541c621eeU,
  0xbffb95df91973909U, 0x1bc820a8debd0e94U, 0xa58e9b04e1a352dU, 0xe51c0d9fb4a6deacU,
  0x8f264f12964e1fcaU, 0x2737524182b69727U, 0xc42fee239d0884U, 0x21d146a0f526eed4U,
  0x2a8f0a0ad2a7e9b1U, 0xc23df0f19acc47c2U, 0x2ce9c4f3d1a1e88aU, 0x3d92a4b9f2081fd7U,
  0xa51daf8cf357432dU, 0x294ab501cd303b23U, 0x11d014e104ce1410U, 0xac8eb82ee5154d92U,
  0x1fdd29928bd7f8d0U, 0x9bb1101af0f34c53U, 0xb7002344328a0dffU, 0xaafbbcc0a50500f2U,
  0xcbff0d99db2a060dU, 0xf00b8bdde0df3512U, 0x55f1e9dc14215f09U, 0xb800d99adea934c9U,
  0xe4bc2ea9f8e1cdb4U, 0x92df5ec80e959638U, 0x2318b8fe035354dfU, 0xfbcec4a03bb91d85U,
  0x60dd842b8688b7b9U, 0x649f9f22f9e9cd94U, 0x11e8465e0b2b1c98U, 0x56f78cb1ad0944d4U,
  0xcefd54d2f9e69b41U, 0xf9da4243400b3156U, 0x9239d4a2de4fb247U, 0x35b80b3c8b2ed6a7U,
  0x3139d3eadcbb161eU, 0x89c942c44ead414U, 0xd0be94c3304c91d6U, 0x9a8a0aa4434bc835U,
  0x3d3bcfc19de705b1U, 0x1bff960524411af8U, 0x1901b3a0b9b1331eU, 0xb8ae4cc9e7c4ec8aU,
  0x24bbba98bfe454d2U, 0xd0bee03595402ef3U, 0x992952516251f8a2U, 0x3cbe49156e42dc0U,
  0xe4cec93201985309U, 0x85859cbd310f0388U, 0xe044e4a3894bfbcU, 0xb23113409d14aa43U,
  0x992496d6142525b6U, 0x3ce584c443ff432bU, 0xd704c0b6b59cc299U, 0x448649bf99f0d525U,
  0xa846b5b740fcc520U, 0x3a1a2e1099f2bf06U, 0xa9d75453fea051baU, 0x53be2ada43e3345fU,
  0xcf9a27f5f406c44dU, 0x10e89cc040ca2d2bU, 0x249cbc52ca92f213U, 0x843ccaa896de96acU,
  0x9c00cf389e460afdU, 0x169daf1394b7170bU, 0xf4c5783223bde9U, 0x57424e99479236b2U,
  0x5017b4f806ba8807U, 0x4d0eccb33dc3f72dU, 0xa3adbfb91911f02cU, 0x91d10aa68e1c501aU,
  0x993fdaa995063445U, 0x3c16259fc9e59350U, 0x99b3dd605d122251U, 0x1d4cd4c8c950b237U,
  0x9c25a9bfa68f41aaU, 0x23b8dc2888e63507U, 0x4eacecb2b8da0597U, 0x407f1c40fc8cfdeU,
  0xfe91fcfcede42cbdU, 0xf8bfc5acd01ee3b4U, 0xeae3395b3bbe3f90U, 0x39a3d1bf3640475cU,
  0x4bc8d04cd6d2a2d5U, 0xd3d6e613d52541bcU, 0xc03d169898221043U, 0x433fa5cca854edfaU,
  0xf0d215e89948d9e0U, 0x1ed9419e3ed5581eU, 0x3543452404953215U, 0x461c48282adff13cU,
  0x90e82d0a22083118U, 0xff20a1eb111abef3U, 0x46f3784125b943daU, 0x2af58f1e1a1f923eU,
  0xc4e0bbca5bc13a3U, 0xf9b006decd91485aU, 0xefc45919a115ec50U, 0x218312c2befd3f3bU,
  0x9f381cba3359e24cU, 0xe7fb205d40b096e5U, 0x49aef3e49f872ee1U, 0x230e913ce460eafcU,
  0xe28150113602aeceU, 0xd6b9bef58e0ec523U, 0x31fe9e45b60151e9U, 0x4fd3d39fc9aa8ba7U,
  0xb43921b33017a093U, 0xa0722b3501d58bcU, 0x3860faf20d2bbaddU, 0x89e5d1c5af00a70fU,
  0xf63966f51932dfbeU, 0xbab3f027a291eee7U, 0xddec26bb263736aeU, 0x2144462b14dff715U,
  0xcaf00ce7acca8a51U, 0x364023ab1fa14df3U, 0xdbb5e59c975f4ca0U, 0xe5fd15af8b3902c5U,
  0x8f4f15202b872a29U, 0xeb221b3b10f2a9b4U, 0x6e9f5092a17118dU, 0x3b9bf9ac1c5539a4U,
  0xd437979a22d43fe3U, 0xbad3ed41ed44a95U, 0x32dd0852c7614031U, 0x1428b50b56ea42b6U,
  0xe322d6081485c9d7U, 0xaab818c5bed2342eU, 0xb03f913801b2fe40U, 0xfc53dc0da802344aU,
  0x2ab1aceeed7d4cbU, 0xeea5aa9000dadc86U, 0x4141c68dd33a8ad6U, 0x20adbae31ffa9720U,
  0xd049d1cdd12f399bU, 0x40cfe231ab03cadeU, 0xc9d3a041c0f0a20fU, 0xd1dfacd5aaa684dbU,
  0xf41905f7350c542fU, 0x5a53004c4b4dd1bdU, 0xca319855ea01abc9U, 0x93830e8216e8bda2U,
  0xa43fcaaa31c40af7U, 0xaa215002488aa731U, 0xcb9a55c50c2da1beU, 0xe937b6a40ad43036U,
  0xac39923b08bb1b3fU, 0x53c214fde9b10f8dU, 0x83d8cfd5fa25b957U, 0x170c8a2facfa4a09U,
  0xf7c0be65a2e81a96U, 0x3bd20943abd9aedeU, 0xf61fa36a354f53ffU, 0xf68759be8cfe91fcU,
  0x38593afde9baed98U, 0xbb873f0d9e4096b6U, 0x8c16afdef1ccb6c8U, 0xbfe0a594d9edd4dbU,
  0x26b3c9bc393da7ffU, 0x3a2aabc29cfed9c0U, 0x18dee89fd5d7c81cU, 0x529ea1dc86e78e98U,
  0x2f2a3224a230f893U, 0x564ac0f9edb8a0c2U, 0x8d4deef38af818deU, 0xb0a004b8d4a1c728U,
  0x6249a26b58a2531U, 0x65de11af1b5601c7U, 0xe6ec9cca659bc2c8U, 0xf2c6d6f3b2c7cc9cU,
  0x1ba4b254139aad30U, 0x84450809485590c2U, 0xfb56f552464fedc2U, 0xfb03314208a5e3abU,
  0xb8facdf5f33e3ab6U, 0xd35fadb430d5f920U, 0x9eba02f75000e801U, 0xb824d605c5fb8210U,
  0x139ebd9743f1c6ddU, 0xccc59d0f4cc2001cU, 0xe6ccfc1636ce9db1U, 0xb235ff14e529ffa9U,
  0xe2cfba0e96decd45U, 0x8e9e4aa8bd904e2bU, 0xbdd3ca030741b0ecU, 0xeb20c4c0050118a1U,
  0x3c09b528da0644b0U, 0x73eccf06d52a9132U, 0xe5ccb732d5b4ff1aU, 0xf342ae289f5c00c1U,
  0xa042bcbf271c4b19U, 0x9ef1debff5d8131eU, 0xefceb7c0f70bdf9bU, 0x17b8e7dbf20f27caU,
  0x9fd6ce86402d4ec0U, 0x7e3b4d0aa9f4a30U, 0xc3c0d14ea0231742U, 0x3e41f3c9234f151aU,
  0xf6b535d43afae3dcU, 0x611e12f1b58cb11aU, 0xa21f32d7a542f8f9U, 0x4bb50e958f92422aU,
  0x10afed35a7eb00a5U, 0xd34d49a9a3162ab2U, 0x96da8aff40c45f1aU, 0x288e341d9f0cb186U,
  0x4aab1bc956ae3730U, 0xaf593ce1ac23aa99U, 0x110291b48936448bU, 0xdd7540b9af10a0cbU,
  0x22f53bbd264b423aU, 0x13074cb424a23c17U, 0x17aa4f68528ce5ccU, 0xf81fedf8a2ccb517U,
  0xee2d07949bb921a4U, 0xa8b61248def01a10U, 0x31f60d9d3af3b798U, 0x90ca5209f7bebf65U,
  0xa1c0c6df021cd33eU, 0xaec36ae8d94c431U, 0xeafc88a2bacd93b7U, 0x952ebd3ebb5d4236U,
  0xd4b7cffc99e00acaU, 0x8b40ae952cf8181fU, 0x3323890df4fac1eaU, 0x4fe6a628e3524d8bU,
  0x270cbb0b3c3c9effU, 0xc054e355bda73badU, 0x5a806f3c81a0cb6U, 0xfdbda893d026cdc3U,
  0xc9b7e668bdab4be5U, 0xcd551cf80ed0d537U, 0x3bdfd5a6a10da7d0U, 0x8d0c1a926cdabd4U,
  0x9a211d2d120f054aU, 0xeda21ff726c41bd3U, 0xeafef7423d5d0c45U, 0xf1d8aff0cf50dbe5U,
  0x9f551ef7e1849a94U, 0xd7dae2f7d5e7563bU, 0xbf03d4d60bb3b9U, 0x432612e3973b2dedU,
  0x52fc44ea3aa7911bU, 0xeda91888e65809e5U, 0xbfa930ad0ba43a3eU, 0xa6ced1b1ddf8321dU,
  0x50dd9542a6d9a6eeU, 0x18369edf98db61e9U, 0xdc8ca6973b1b8b02U, 0x22cdc841a4130b1dU,
  0x9dff42ce2671898aU, 0xb0cee22838123d4cU, 0xf0a535c15aaa66b7U, 0xf4f540b7e69c2fd8U,
  0xc4f990355515aec3U, 0xc9c654f91b5154e6U, 0x2514de5654c27f6U, 0xb1adfb34b036dc9dU,
  0xd2f7a489b9d9d7e7U, 0x9c08f1bf1151619U, 0x92a9dd292ae6b10dU, 0x48cd8a5136352b4aU,
  0xc7cd8c031beac3f5U, 0xe225b89324a4a571U, 0x15e85bf854ab438fU, 0xdda32354fce4bcb0U,
  0xec52cf54171000e6U, 0xdf33e33decd58e1aU, 0x3cfa93ff2a4731e1U, 0x2ed12ae03fb6304dU,
  0x1bb2451bf2f083fbU, 0x25f058d1c6f59f07U, 0x95dd56f4e283911eU, 0xb44e05f290a342a3U,
  0x9bb7dcbac4c4b143U, 0x98d1efe8ea21c4c1U, 0xb7c4c8f542950340U, 0x8e0429c6b436dfbfU,
  0x20ada940373300f0U, 0x109724968ee6b0f2U, 0x3f8fb8f4efc2c99eU, 0xa77a914d57fc42f2U,
  0x158e9e8a6515283bU, 0xf52e6e0b96509ad6U, 0xb2925552c8883531U, 0xa61b0e4eeb9b560aU,
  0x4f8990a39cc31fb5U, 0x246a224727493eb0U, 0xd8e0cc518da6e202U, 0xb43a9c36dacb86d2U,
  0x369ceaa3bce43c4eU, 0xc1da15e11114fb9bU, 0x3dbfdfbfeb2a1d3eU, 0xc13413342b2487baU,
  0x2a3dbbc6e992e2edU, 0xe32ae9294dd415b2U, 0xcc3ac0fab1e45299U, 0xd04993a89c373558U,
  0xd3e49325d2d2d5ecU, 0xf356b5bac5e028cbU, 0x10f5d93615dc50b2U, 0x8b033cb79fda1857U,
  0xc3b53e3115fb9290U, 0xfe15b698b548e40bU, 0x38b2f2a8080acd8aU, 0xf3fbf63b9bd64b99U,
  0xefc6b949156f0ba1U, 0xfd1804a113a689cbU, 0x29119248cbaf38b5U, 0xc9f74c822b101b13U,
  0xa2d2bb39f50bedbdU, 0xe1420e42c3e0f1d7U, 0x51fee2cafc1dfad7U, 0x38e40c18201cf944U,
  0x7185cd6ebdf5002bU, 0x5929beed4cb448d5U, 0x4d2e8b5cb5f5b002U, 0xd3ad50b9b0a19f24U,
  0xae60c9978ba2d9fdU, 0x38bfe9c10824a9a9U, 0x1aa710983611c2f2U, 0xd628e8ce248946b2U,
  0xcd2e22ec37ea0219U, 0xa710b15403c5db56U, 0x1db852168a2f14b3U, 0xe2b09a03c666e4a3U,
  0xda5158fad1e4398eU, 0x9db7f93a89a85a43U, 0x33df5f99c0a3ac2U, 0xf7dfefce9cf68788U,
  0x4bf2cb2e0172c34fU, 0x264e91b10e2646b3U, 0xe434d953ce421617U, 0xb2c836673a413e0bU,
  0x73b2df009fba31efU, 0x722dcc542f5ee4aU, 0x41c315db05fb00a5U, 0xb49cf7a1bfe2f843U,
  0x4ac5bf2849a0bdcaU, 0x1148e840292305b5U, 0xaf3d93cef3b2a53aU, 0x4949890a99e6f3c2U,
  0x4ab7bde74ce344f3U, 0xe1f6b1c7d64f38ffU, 0x19af0ac431051a0dU, 0xe409bf8c09188ecfU,
  0xd8421e9adebb82ffU, 0xb6cafa60bc0d084dU, 0x9c18ede005f5b1cbU, 0xc2b8fc4d42ca0d3aU,
  0x2543130a5554deeU, 0x3b2040ef5b9bc15aU, 0x3c32e3a75ab4ba93U, 0xc73996ec59339660U,
  0x63dfdc1ba8a3d5e0U, 0xd199290200c54cecU, 0xa0e08750b2b1bb6aU, 0x398fd2aec2051ea4U,
  0x3b4cc2f7bec091afU, 0xd7070b12ce279fe9U, 0xc0ef4fdde89135a5U, 0x19ac160c0ff5d532U,
  0x1f5ac42ed20d3c09U, 0x2ba3db4ed14e1514U, 0xc6fa23f734bb54ecU, 0x6faf5399e8ad453U,
  0xa6cc3b1706372314U, 0xe10a05908b8888dU, 0x569c94bba2ca28f6U, 0x5545f3e15aa608efU,
  0x39530a02f59d451fU, 0x851f8b39eb13f57U, 0xbd5b18b1eba44ea4U, 0xe041fff73b1b274cU,
  0x9a403260b6985286U, 0x1a8e6541cbbf1287U, 0x3bee5734b7c19e9eU, 0xe01aa8d316a8be0aU,
  0x11a0f6e3feab86ffU, 0xb9f17c40bbea852U, 0x93fa9d28ac76f26fU, 0xacdbf4b38e50ffc4U,
  0x8736183fddc63146U, 0xdd382028c841d9ebU, 0xd207a0e2d7e9ebfaU, 0xd0d00549ac7ee9aU,
  0xcaa144b818a4eae0U, 0x26a88b343ca413e2U, 0xc00e151dbfa6fbcbU, 0x8da49a530e55b4b9U,
  0xc5501183b60301b2U, 0xeb3bca08060c00c8U, 0xbad92d55969ccd35U, 0xc1ab4b17c42c9869U,
  0x3bfa8e3cd9544830U, 0xfcfe2499e599b150U, 0xef9ad7b99dcbbaabU, 0x1730a8a85393e0bdU,
  0x27b3f58fbfb35a95U, 0x3970029b79d4f2baU, 0x9ff4a8e488069a47U, 0xf12aed559d284814U,
  0xe2fc06afe3d9ee54U, 0x9e02dd4e51e69131U, 0xb7a016ef4616bdceU, 0xa7218d37b2471ffdU,
  0xd0a13feb523fea2U, 0x11421211ff3f4089U, 0x1bc1930d35e9a0dbU, 0x9a0d8b37de07f813U,
  0x22f30d107beae788U, 0xd06d5d08b4a139c6U, 0xdfd01dc04bcf04afU, 0x475db257b097471cU,
  0x4445e52a53fca2dbU, 0xe65b992a3a3fb76fU, 0x754d4dae9d0814e6U, 0xc631444ec3e9f959U,
  0xd8e9b849d63accbaU, 0xc0f44aaa65dcf10U, 0xd2d7e1b85824d4c8U, 0x51eaa73fa661355fU,
  0x3de406b4222ac49dU, 0xf43ab82f41f3e08eU, 0xf6e507f80b56b1fdU, 0xbd085711e4aa07e9U,
  0x8ce1d9b165cf130U, 0xa89ca9d745ac55c6U, 0x99e6eafe492e388fU, 0x199050d02ab52235U,
  0xd8e762e7c7241b16U, 0x62d2a72a37bad9f8U, 0xd551e3e19cb4a34fU, 0x599d2b9f14c005ccU,
  0xe5570fe6911fc7f4U, 0xbff4f2bbc643252aU, 0x59e000009b0fef10U, 0x54e9aadbe7d911e6U,
  0x5888a3cefac9f689U, 0x56a83a0fc25411d0U, 0xfcc8a06aaaa5f290U, 0x2eac024bee9ec9cfU,
  0x18d51ed2562cb944U, 0xb598bffcf4ee91d0U, 0xe0129fa5b41bd83bU, 0xc0fd8bbbb5d4e2d5U,
  0xbacb652a89a71c39U, 0x12dba3a43a4549ffU, 0x2dd455c9d8e3180dU, 0x9d4df3fccebd164cU,
  0x51fa1f0855b8c42cU, 0x9d3a3f401912df8aU, 0xf4b1a11f4e1579dU, 0xa916e9aed7122b3cU,
  0x12cc5f4c8e8c9cddU, 0x14d15dd804318c05U, 0x894d9edd8aaac4d9U, 0xfc9c59cc0c24263aU,
  0xc93ed0cca3aaeebaU, 0xc5054bcf4eafb188U, 0xdaaedd90a0396428U, 0x9a491513ba2aacb5U,
  0x540e0400f392edbcU, 0xe75596c3d9cd57U, 0xe796cb2f39931927U, 0xaa615340a82f350fU,
  0x16444d09f72b5654U, 0x2848fc0ec5ddcb97U, 0x2c50ddd33d5c59cfU, 0xedb4f4355e7a9caU,
  0x3f98bcf74c540b9fU, 0xd75e430cfc3bf1c4U, 0xb4fdd5aa25fc3190U, 0x5b0ff0f4c3523615U,
  0x1cfd19b2f00f2a94U, 0x4303419c3ddb18aaU, 0x23aabfd64c5d94e2U, 0x8706b15758b50d09U,
  0xbe3a630f0025aef6U, 0x9b40334eee86bd21U, 0xca4dbefe1211d3c8U, 0x18cddde124f9ae40U,
  0xdf192f2b8633080eU, 0x1bfc2b52e216aa5bU, 0x3164f9328badbbadU, 0xb85626238ae4a5e3U,
  0xee0a4a2d25b4bc8eU, 0x5d9e2fb1a9c5a7d8U, 0xa3439c89a4f405a9U, 0x9b0ababb45ddca26U,
