/**
  ******************************************************************************
  * @file    word_classifier_data_params.c
  * @author  AST Embedded Analytics Research Platform
  * @date    2025-01-16T21:03:10+0100
  * @brief   AI Tool Automatic Code Generator for Embedded NN computing
  ******************************************************************************
  * Copyright (c) 2025 STMicroelectronics.
  * All rights reserved.
  *
  * This software is licensed under terms that can be found in the LICENSE file
  * in the root directory of this software component.
  * If no LICENSE file comes with this software, it is provided AS-IS.
  ******************************************************************************
  */

#include "word_classifier_data_params.h"


/**  Activations Section  ****************************************************/
ai_handle g_word_classifier_activations_table[1 + 2] = {
  AI_HANDLE_PTR(AI_MAGIC_MARKER),
  AI_HANDLE_PTR(NULL),
  AI_HANDLE_PTR(AI_MAGIC_MARKER),
};




/**  Weights Section  ********************************************************/
AI_ALIGNED(32)
const ai_u64 s_word_classifier_weights_array_u64[6302] = {
  0x3702ace34081c1c7U, 0x8b48156ccee04ae4U, 0xd1617f16f7e67f37U, 0x685af4af4e64ff09U,
  0x6254291e487fd6beU, 0x7f50513a7f3aff1eU, 0x881096841ee4ab49U, 0x7f8fe72eac9b5281U,
  0x6d92c154545e764U, 0x6b65e27a4cea7f72U, 0x81b1c6d319ea374dU, 0x5208cb7fffd1d4e1U,
  0x8b811b869345ff84U, 0xe3d799be7227002aU, 0xfefbe9a81c49140U, 0xd4a79716bb26c281U,
  0xa987b5a3eb467f6aU, 0xa2819558a1ccd9f8U, 0x1a000000b5U, 0x2d0000003aU,
  0x2cfffffde3U, 0x3000000e8U, 0x6600000004U, 0x860000005cU,
  0x9b000000cdU, 0xb90000002fU, 0xe30022dcfbc7e7e1U, 0xe03506e8fc0217edU,
  0xf8fe1f05c8edf5f2U, 0xf25e800014823e7U, 0x38e2d3f4ede7f7fbU, 0xad4eecad92f0e3bU,
  0xc00ad1d9bac3e81eU, 0x2235f90f1b0e13d1U, 0xee0527f8ac0aca1aU, 0x2b2809f7fe300aa9U,
  0xf2f429f3b8f1ecebU, 0xf72825180701f6e7U, 0xda0ecc00b2cbd726U, 0xe09fbf802f71c9bU,
  0xc6ffd1ffb5b7a9f7U, 0xa0410330ff93a81U, 0xb1f018f3aafed4ebU, 0x304e35eb19332dc4U,
  0xc002efeae1cff9faU, 0xf23f0df20fcefda4U, 0xa4fcab0befdcd723U, 0xe220efc38df0db2U,
  0xa21bd61ea9e9e436U, 0x7283a3c390123a0U, 0xc215fe2eaae9aa30U, 0xf6330afffd3e9eU,
  0x9e1df7109be8c517U, 0x11241b0f08e7fe97U, 0xa72ef6f9b0ecf10eU, 0x9e918f325e522b4U,
  0xbb05d3e395f5ac17U, 0x60c34fe20eb29a1U, 0x9a2dcd1c81eaab3aU, 0x361f2efc10dc3392U,
  0xb510b33a91edb7f4U, 0x250b360338de2789U, 0x1aff81f520090409U, 0xdfb21711dedd1010U,
  0xe4f6cce21820f720U, 0xe7cee20111bbdff5U, 0xb61ac3cbd0fd080cU, 0x704060dfe0803b4U,
  0x29f7c9ba25313ce9U, 0xfe4f7fde72ae12cU, 0x14e5d1fc471b43ecU, 0xd5bad9ef10fdd70aU,
  0xef1a0ced162513f6U, 0xe5d5e104feeae00bU, 0x25fad9d2f8f216f2U, 0xeedaee0a1825d5f7U,
  0xef09ba965306508U, 0xecdcd2cb0e20e441U, 0x1807ad074847350aU, 0xdb10dadaeaeff117U,
  0xf6c1aaa704ea02f2U, 0x30810ffe054f0bfbU, 0x38c8c7e331082adfU, 0xc181e3dcaa08ab3cU,
  0x3a1524da1b38ee0dU, 0xebd5b9e79bffb208U, 0xf3ae11b7df1af600U, 0x405c590e473b0ff5U,
  0x2ba916cefa2c1cbdU, 0xf6e9c5d6beffc11fU, 0xaeaf3d33bf90e0fU, 0xbe02dbc8a9eae71fU,
  0xf7f350eedc1deef2U, 0x156a4e34140c12f9U, 0x12d4408fb4f6ddd4U, 0x1810fceaf219f713U,
  0x1fffef8724fe35f9U, 0xd4f1fe1acc252103U, 0x6f9a2db0b1ef81fU, 0xe498eb0af3f3f41dU,
  0xed08ccce090408ffU, 0xe2bae8e00cedd3ffU, 0xe40b81d72b21e822U, 0x13e6fef8180df2dcU,
  0x30fcd4c02a1a06f8U, 0xfec3070bf50fce2eU, 0x381103db13173501U, 0xf8ced3d1c413d422U,
  0x110cf7ac1cfff2e4U, 0xe9b7d4dc01f3cd01U, 0xfce5f5b7020013cdU, 0x14bb11d211340428U,
  0xefe012cd383317f3U, 0xeacee0fcf410e512U, 0x80fe9f3213521f5U, 0xf5c6f7de07fed9feU,
  0xbbdc8ad3e6d51e16U, 0x1daa4fef6df3f8caU, 0xeee5f303f61bd112U, 0xf000ff0115fde006U,
  0x27d13ce8f71fe8f2U, 0xe964f812b9e1fc24U, 0xaf210cffd039fd5U, 0xb391606fcecc9feU,
  0x3d73810e6f3ccc7U, 0xf770d5faefcefc1dU, 0x1e0d15d1e10deb02U, 0x1b53e218c3f934e3U,
  0x1be63afcf533f7e3U, 0xe05ecaedbecb050fU, 0x10f64ddc140b1500U, 0x252efb21abe06fd9U,
  0xe5110dd510f11b21U, 0x10ea222c06fe7fc6U, 0xf0a70105fcff1bU, 0x4d7f8081feedd23U,
  0x28e8aab63bf2e60bU, 0xfde615e10fd7c826U, 0xea1aaeb71c2b2e2bU, 0xfc7e90a171ad0e1U,
  0xf6f805f4f70ee614U, 0xf7ce0bfff31ed72cU, 0xf3ecb7aa453c3af9U, 0xce81f7cfeb0b022fU,
  0xe7f5efa009fa04f9U, 0xd9bae407fb1acdf0U, 0xdbfde90e272818U, 0xe7ebfdd5291aec1aU,
  0x7f0ca910f0732ccU, 0xf0b1e0ba0e36fe39U, 0xdcd6e60351041fd6U, 0xe30fe1f8ca09ae1fU,
  0xf9d2b7bcf825eed7U, 0x5261aff274ee71fU, 0x2bcfd901f2051d4U, 0xe74acdcec2fae1fdU,
  0xf41826c74f4a23e3U, 0xd339e7c6e7060317U, 0xeabf48dce937f0ffU, 0x17323401351c0526U,
  0x52f51eced7c214f1U, 0xfee5cdd3ecc8b9f9U, 0x19f6ff810adcf3dcU, 0xc3eae50ba8def81fU,
  0x2cadde0520f0905U, 0xe61bec22faf322f1U, 0x17c7fb15464e0602U, 0xf14ce3f31b34cb21U,
  0xcdfbfef1ed37fe1fU, 0x5ec01dd3cf20129U, 0x10da18d172b34f3U, 0x68ad2f2fde3d903U,
  0x51f01c21a071f03U, 0xd3b705f81e2df7e5U, 0xf0516d309f2f607U, 0xdf38fd1cd528c817U,
  0xf4bdbb9807313a10U, 0xd3c4d1e5d31cb922U, 0x36d331a10528ccd7U, 0xcd0cfbf1ddddc91bU,
  0x12235489e62afedcU, 0xc65d0719dddde32eU, 0x11ed10814b5e20c6U, 0xd1f4e2d3030eeb3dU,
  0x2c0f09cc254d49eeU, 0xa8dedbb6b0e3bc11U, 0x270e18b313fc21e7U, 0xbea703e6cee0ddfdU,
  0xfc0f0109e9ed1521U, 0xe2150b1ef4a80328U, 0x342d9fbfcf2e84aU, 0x2102a341cad2fc6U,
  0xaa26c081d0cee841U, 0x406043d4ef8f793U, 0x1936e42a1001142eU, 0xd6d408f502aaf22bU,
  0x721daf1f50bba14U, 0x1428dc2be5c106f7U, 0xe2f8cec3dec1081eU, 0xf320082e110519bdU,
  0x22e7e33914f41217U, 0x8d5d7cdf4b8c906U, 0xc3ae501181bce00U, 0xe210816d485d205U,
  0xfe2fe6bbd9f70e00U, 0x19fff3ff09e201bcU, 0xfed4f6eff909efceU, 0x6ff15e3f023e50aU,
  0x17e6eee8040714ddU, 0xf7c9e5daaaf5d604U, 0x703dbff27111eeeU, 0xdd81e5ebb2fcf604U,
  0xec0522c4f0fbebe7U, 0x53912f8012011deU, 0xbfafbbd0302ffd2U, 0x1030e03dc1dfff7U,
  0x7ddd5da18010803U, 0xe2fdfbe6c81bf80eU, 0xf51714f1dce3e508U, 0x2d5a1c0d100722cdU,
  0xe1ed2aa5d3e6f5faU, 0x1614211406191cd4U, 0xfadd13c1f0ea0cf3U, 0x7fcfd06fb11fbfaU,
  0xcf12007103212b6U, 0xdd7fd5d5d3fdc91cU, 0x29e22c04220ff2ecU, 0xdb0feae5ed11f909U,
  0x17ef0d17eae206e0U, 0xd6b9effb16ec1f22U, 0x13f003c8e6db16d9U, 0x1fcaea0edcdc09f3U,
  0xf13fd9df406fadbU, 0x3131deaec0521e3U, 0xee3b3d000fd180dU, 0xf93ff3ebe8101df0U,
  0x7181f01e307d421U, 0x56af904e4ee34d1U, 0x121f14ddc1fbe700U, 0x3c3a342f1d0b0cd1U,
  0x141c03e5efe9fcdcU, 0x80405fe2716281bU, 0x14e3a4aa12123118U, 0xaa2fcf90ee4edf7U,
  0xecfcc3c127f9f016U, 0xe8a2f2f431fce4cdU, 0xfef8e9bed6f3cbfbU, 0xe8f909152afec9e6U,
  0x9e299ce240d31eeU, 0xd386c9c705eac91eU, 0xdb0abdcd474a16fbU, 0xc8d1d9f114d3dd0aU,
  0xeef827e3f91d082bU, 0xde17e904fbe9e317U, 0x1cc7e9d402432ebfU, 0xf430cec3eb42c722U,
  0x4feffc81355d57dcU, 0xcee9f0d3beffd30fU, 0x90ee0b3355a4013U, 0xdd23f0fee81ed6fbU,
  0xdbbf8f20f3412a0U, 0xe801f500c10dd733U, 0x36d427de220c00b4U, 0xdcce2fc98eae032U,
  0x1404130a0d0af6f9U, 0x393fad9cdfdf419U, 0x2db2faf08e6f1f9U, 0xd802fbf2c7f0f8edU,
  0x37f604a91bf943c8U, 0x1d01e60ecd1220feU, 0x1b13f0ff26f219e8U, 0xe303f1e3c70a0d18U,
  0x2a1b5184bedd0df6U, 0x2672fc2efef636f2U, 0x16e51481baefe705U, 0x3800210715261defU,
  0xdc140bbdede7070dU, 0xe8160b1f203a10f5U, 0xae9a5c4301b10f3U, 0xe7cdf0f6f125ea21U,
  0x1cede6d63004ed1fU, 0xcea6ebd8ced4ec09U, 0x91619b5fd2bfc0bU, 0xf9daf5f2f2dce21aU,
  0x11f6b3bb222dfefeU, 0x11b71fd6f836d419U, 0x2dd2cdb0322e2502U, 0xdebce701cf1aec38U,
  0x3fc01d42d16f5f8U, 0xe0ebc8e6f2f0db1cU, 0x18fb17ccd51dc5dbU, 0x1d3f12e8fa001801U,
  0x3ff5e993e0f945bfU, 0xf6e9ebd0d6ecfc0fU, 0x15e4e7811d3249ebU, 0xe838def8e20607e4U,
  0x5c0c5df222ee02dfU, 0x121ce6d1e6a70420U, 0x3be614a910c307e4U, 0xebe822ee110bf9e8U,
  0xf069fd90ae80cfeU, 0x12f0fcdd21200ed1U, 0x420c27fc26f32f01U, 0xddf9041b06dd1af2U,
  0x9716073de3110103U, 0xe510fc1b1f3b0abfU, 0xccef471db303070fU, 0x2922031e3d35f820U,
  0xe22be0eed0b4fb1eU, 0xefe3060c06e006cdU, 0xe30dbbcfd9c60605U, 0x160b220329f12ca5U,
  0xe91a81fc172531edU, 0x2b1228ed0b2007f5U, 0xe01faad0f3ec050fU, 0xae1f3170d0a01c5U,
  0xd415dff0ec15ff17U, 0xf2fc08f11b2604ddU, 0xf6fcf0f5020206feU, 0xfce20ce8fc03e017U,
  0xe1ef81fae20b0c13U, 0xefe90bf01a0dfed8U, 0xcbfc91ef05f41900U, 0xf2ebfce5140ff8f2U,
  0xf7f402f6fa0be606U, 0x80afafae616e8fcU, 0xef02d5e4060a1309U, 0xf8e105e0030fe6fcU,
  0xf9f8d3ee09fd10f3U, 0xe408ffe60f0deef3U, 0x2c0701eb1307f6efU, 0xe6d6e2f5eeebef1aU,
  0xfcb66e471a60d9f1U, 0xd45df328ed05e339U, 0x4257614fbe70e00U, 0xdd210beaebcc2b07U,
  0xfd08f38ad6afe708U, 0x21ef0bd323e93cedU, 0x31245803f1fb19ffU, 0xdef6e8d5fee72df9U,
  0x2a023be2dfc70fe1U, 0xce28f025dd2ebcU, 0xd61fce0fb4ac0b22U, 0xfe20300cea234e81U,
  0xdc2c46f7bae3e201U, 0xfd08081cf6c920d3U, 0xd717abcfc095ffddU, 0x471624fc1edb3c9eU,
  0x921598139c01ea3aU, 0x36060dfe2edd3cb9U, 0xfc24b3ee0ef10023U, 0x43e0decdeb311f6U,
  0xe53df1052cfb013dU, 0xf07f251a10c10a04U, 0xb405ccdcda0b1d22U, 0x442327245c27f6b2U,
  0xd9231f3ae3eaf2e1U, 0xe6e81aebef05f61bU, 0x1e281d2312f4e5f1U, 0x23b3f4f1e4c40d28U,
  0xf52507f0d8e533f2U, 0xf3bf1e1e4b4af2d7U, 0x10f8e4fdf31bf904U, 0x414efdfd0950a23U,
  0xe105dae8d70ffef4U, 0x304e1406fef1e7e4U, 0xe405e119ff2533f4U, 0x142e90105521cc6U,
  0x14e05d4d12ffe9e5U, 0x107fff1ad61fee2bU, 0x21e977ec1dd9f1c8U, 0xf85416d20fe8fe31U,
  0x10539fbccdef0dcU, 0xe90919101d173529U, 0x111f27f4def510e5U, 0xd72302e503d3f017U,
  0xf90258f7e2f422f5U, 0x31e071904d7ed00U, 0xf0f101f3c8e425daU, 0x1cec0c29110e19c9U,
  0x3213c1201c60203U, 0x130c0ff507df0015U, 0xf11bf6d4dac5eaecU, 0xfeed2ff615e93e05U,
  0x1afae1e0c2051aU, 0xf314fa13faeb26d6U, 0x1e1aafdf8192711U, 0x15abef09ea09ff1aU,
  0x70185fc220d0f1eU, 0xe781e205d4d3fd18U, 0xe919acdbfe20111aU, 0xe9d2e8ef04b4fb17U,
  0x24ea04e9f1ee04e6U, 0x27140a0d0b08e304U, 0x1ad5dfa222041b0cU, 0x2daf30be409e9f9U,
  0x4fdcdc729121c1bU, 0xd5cdf9f7ff02e3f8U, 0xf9021bf7081ae3e8U, 0x63d231f150a12e5U,
  0x40017d5f4140ef3U, 0x14d505fef4050125U, 0x19e204c62a1d18efU, 0xf1f6e1d8fb1ad527U,
  0xf80da3e3e60c02ffU, 0x1a9d2f01fa3af213U, 0x2edde0c70b2bedfcU, 0xc88812cedefedb23U,
  0x2e0917b4ffeedce4U, 0xfe0dff02eb22c339U, 0xc2f7bcc81b3335e9U, 0xe0c82ff604370e12U,
  0x7e114e2301616ddU, 0xd7d8c8f80e29d73eU, 0x33f34dd6eb1900eeU, 0xf7ffea03bbf0ecfdU,
  0xdbf4fec00be806c1U, 0x1d27ffe81357e828U, 0x5ed62281220636c2U, 0xbcfaf8fffae9ef36U,
  0x330023861bfc17fdU, 0xc4ecc9efc1e5cce8U, 0xe41926f205e4dce4U, 0xf81419e7f81308e8U,
  0x3f3b8c3272f0c1cU, 0xd69002f902f9db31U, 0xfbfbfbc41ff7dbfdU, 0xd997f9c8190bd6f2U,
  0xf9f7c614351632e7U, 0xf1cb18110742f7e8U, 0xecd2b6d6fd0cfee0U, 0xd081d0002cefe33fU,
  0xdded5f04a3ae806U, 0xf9a1fdd5f006cf31U, 0xf8f517c212f01119U, 0xfb431c1f352ff315U,
  0xfd050bb52a1a55e4U, 0x7d40ad0fc37c9feU, 0xf9d8f4d86d2029dcU, 0xd8e2d6e2c616ed32U,
  0xcd8efc6ee260dbaU, 0xf2f61afde71bdf0aU, 0x31c2f4b31f17f7c4U, 0xf5b4c1c28b05ab07U,
  0x23f114cdfb1f26eeU, 0xd287bfdb8712cb2cU, 0x7d6f2a6d1f5eeebU, 0x3a2b2bee21222f05U,
  0x1de20783010211afU, 0xfdf11002bb25f8fdU, 0xdcdbabe210012d1U, 0xdeed02d89e290411U,
  0x32940cee6fcc6eaU, 0x44792a21361942e5U, 0x2f53988bcf0efd2U, 0x3240190bf52c1cefU,
  0xc0a1581edfe06f4U, 0xff01f1eedc3b2807U, 0xf409e8c933141a01U, 0xfbc2fdf2eb26f304U,
  0x1e1009da0b2403f7U, 0xe5bcd8fc03cece16U, 0xfd0d1bd0f307ebf5U, 0xd9d909030701d30dU,
  0x3fb05b303010f01U, 0x5cbe5ed00fed210U, 0x32e00abb32372b07U, 0xdca4cbddf2dae524U,
  0x7ec12c118fd2511U, 0xe7def5e1e5ecd31dU, 0x21ce06b9080bffd0U, 0xe716070701200017U,
  0x2de00a81f0f42cdbU, 0xcceef1eb06e5f7U, 0x25e6edb029250ff5U, 0xed0fe9ffc30fff06U,
  0xdad2bfcfd5f600dbU, 0x35b009f4224becdbU, 0x1ad2c6ec2228efecU, 0xa8ce4f2e0fbcd33U,
  0xf60218dc0d2608dcU, 0x5a2e906c4d3f7eeU, 0xd8f3038bcdf7fde8U, 0x28d81fe501370f07U,
  0x21f9b49a3927ee17U, 0xe19e0d0bda1ad00fU, 0x1cfd1aec1ffef3e8U, 0xe99dee0be6d2e217U,
  0xc2f7c681f3e70be3U, 0x2e2310a2e5025cfU, 0x19bfe8a630330b0dU, 0xcf9ee1dbea27dd2bU,
  0x21cffca2e1122e1U, 0xdb8ae0d1cbe6f227U, 0xebeae9d41e262311U, 0x17cb1cf3f0131013U,
  0x1211b8c8432b28e8U, 0xfb811108060fc72bU, 0xf0d7b9b42722ff1aU, 0xce89edf6faf9c311U,
  0x1efdcdf1c1c38d9U, 0x17e3291427550bf0U, 0x31eac1e843170df8U, 0xc49411e3db32ed04U,
  0x2ac8199d13fc08f2U, 0xf9aeddedf1e2e52eU, 0xd2e6d3d4bef7eb03U, 0x17172c0d013211f4U,
  0x3cd6d4d1282546bdU, 0xffecd9f8e11fc622U, 0x39cdf08f622f5bcbU, 0xcc18e6c0fb16e931U,
  0x92e6aee5d914dffbU, 0xd38cf700551ad8d0U, 0xb504afdb1511e1feU, 0x11a0eee35b0bd817U,
  0xc80a32aff9d3fc32U, 0x2cc1b1436fdbfdcU, 0xe5de81026a4926fcU, 0xecc308e8000ae01dU,
  0xf8cfba02313ff32cU, 0xc4cd0cf9ed0be434U, 0xf7eb4ee8f137d0fdU, 0xf438c2ffcbe4e30dU,
  0xcefc3ca30f73cb3U, 0x12770c13f364d610U, 0x6c0323ee395152c5U, 0xbc54cdd1ac1cfa3dU,
  0x490e5ce52d1928bfU, 0xdc35bfc5aee9ca42U, 0xe7d5ad583e3b4005U, 0xd7c8e1d4e41ab7efU,
  0xf7ee1230190c0eedU, 0xfa50cc05f307b3f7U, 0xc21dea44002117f8U, 0xd256eb0b4f10cdfbU,
  0x49f806e9f2f904cbU, 0x121cac08105f506U, 0x35c22dff1217ebf3U, 0xdd31e9c6c7d3cc2aU,
  0x4224f40f06d3e208U, 0x1511f313a8d5edfaU, 0xdfca2258e80202ecU, 0xc31cacbfcffbd1f8U,
  0xe6c61b56efd505c1U, 0x2e1d50324022e16U, 0xcbe70a0e1218211eU, 0x3d01de570e009e9U,
  0x5ef26ba89d3d8d6U, 0x224105ecf54cfdcbU, 0x10dfeab6cae91fceU, 0x61103f0b025c41dU,
  0x2bc5e8b91fec3fefU, 0x3c4d9fe810fd026U, 0xc4f7110fa1efd923U, 0x36271a0f141b20afU,
  0xd4e808e5bcf6d3d6U, 0xf34312f30f3d12dcU, 0x10f216cf05f40fc0U, 0x6cd0acbe40e0a0cU,
  0xf03bb0ebf3f8ff30U, 0x637113e30ec1cceU, 0xf4fadc0ef1eec4feU, 0xf4b2f23ff0241adU,
  0xcfdbe0cbbfd900f6U, 0x142722e70004faf5U, 0x1bccffd1101329adU, 0xf0fee7d6c60ff017U,
  0x25f5e20511f220eaU, 0xf1c3eed39ee2f10dU, 0xf415b7ef13ff1708U, 0xf0aefa01d8dfeb1dU,
  0x25df2b81e3d9f9e2U, 0x61b11f9e01cf1fbU, 0x23e2efb5041705edU, 0xe2150706cf23f8ecU,
  0xf40ee8da00100ef7U, 0x120a12e1e11b17fbU, 0xdd0e15c9f3fbdae4U, 0x1529fd18f21615ceU,
  0xfceb14ddc9f7dbf7U, 0x190f0908f32729d7U, 0x2ebffcdfe0725ddU, 0xfd0ced09fe180308U,
  0xaf1fb2d5cb06ecf4U, 0xf403f7ef314212adU, 0xd8f6c1d3e30ddceeU, 0x15ef22023035e1edU,
  0x22ec17ed28f9f609U, 0xe105fbf0e2deeb01U, 0xadea81be0bf30de6U, 0x6df11e13014d8d3U,
  0xed07d4fa26f2de05U, 0xe3ef22160df9db03U, 0x1d0931e7eb2012f0U, 0xfcce3e5e3d4f110U,
  0xf5e2e3ea0411fbf9U, 0x1803e9fcf13fdaf1U, 0xf60cdff6fe04171aU, 0xe9b517dfe4e2db24U,
  0x160a2dfe2ce9f010U, 0xd0e3e2f2d2f20df9U, 0xffffffd2ffffffbeU, 0x1120000009dU,
  0x160000008eU, 0xdf0000009dU, 0xfffffffa0000010fU, 0xffffffd6fffffff0U,
  0xfffffff500000104U, 0xffffffc4000000dbU, 0xffffffc900000037U, 0xffffffc0ffffffd2U,
  0xde0000003cU, 0x86000000abU, 0x97000000aaU, 0x1290000009dU,
  0xffffffd9ffffff40U, 0x56fffffffdU, 0xf80011e4d8df3a08U, 0xfaebe60abda40cfaU,
  0xd9c8e8d9f01b01e1U, 0xd0d081f6e5dabd0dU, 0xd6f7b4fbd1002305U, 0x1aeaa7eaa4ba23d6U,
  0xcdf2ccefbe101431U, 0x19a49fc1f8fcdee4U, 0x14fb33eefbf417ecU, 0x306d401e8f403f4U,
  0x508090be2240044U, 0x4bdeec0b1b012c10U, 0x32c0314f6ff08f6U, 0x1bf9f218bfda05fcU,
  0xfd08f3fafb0bf722U, 0xd8d69de901eaedfdU, 0xb190cf70ff32600U, 0x103e61ea9e3f904U,
  0x180ef60ae4141008U, 0x14b607012115130aU, 0x1f2530080309f8e4U, 0x1c1a1e0f07092015U,
  0x13fa0b1414030c2eU, 0x1b18f807fc042d05U, 0xfd30df0d052af20aU, 0x6131819f9f30420U,
  0xd1a2019fc09f923U, 0xe925be0b1703fb24U, 0xb05180f021517e4U, 0xb12fe08e3f6f709U,
  0x151ef9f90b17ef17U, 0xe704ee0e1418f608U, 0x26232d1f2801e5f7U, 0x1b1cfe2b0d260010U,
  0x142016170ff9ef17U, 0xff1304f20d18051eU, 0xedf3d4f8fa1ae317U, 0xef1ee921272fecefU,
  0x1721ef1ef40ede06U, 0xa3314ee14ff27fbU, 0x17feb90d0c0efef9U, 0xcc02fe24f6ffe709U,
  0xfd110413e713bce4U, 0xf21bfc071b0d1405U, 0xe9fbeb14e50b13f9U, 0xdcf5f01f0eeb170fU,
  0x20e0c0e05ffecd1U, 0xd4e7e6f50c0ce0efU, 0xfdd6f0f420fffe52U, 0x24fdf7dd2633fceeU,
  0x15ff07fdf00efeb6U, 0xbf157f1ddded0c0dU, 0xefc81a00f4e02bU, 0xe5100ef91513dfebU,
  0xffef17241ee5ded2U, 0xdf296522e90d1f16U, 0x170b01f413f50d1aU, 0xfd170bfb2c03e9fcU,
  0xf1eafc121dfd10d8U, 0xda2108210ff4fb18U, 0xefe2bed5dee7254cU, 0xefd7f9d4ef0406f2U,
  0xd2fcd7fe040d2df3U, 0xed014603f7dbd5f2U, 0xe105e705f4f9212aU, 0xde3020cfcfae605U,
  0xf2f1e50ceae5e2efU, 0x10ef52f1081207feU, 0xf01ade110011111eU, 0xd91216220c1be803U,
  0xe1af82af600bdeaU, 0x5f948fc1a0104f2U, 0xf80cfb1f13070b2eU, 0xf91e12ef170e0afaU,
  0x1f12001bf10eecd9U, 0xb7354ae802011309U, 0x121c17fc06f10c05U, 0x202fc0c2e2b0bf5U,
  0x14170b201eede0dfU, 0xd41e03f0fb0befffU, 0x170cef1aebfc00e1U, 0xee15161113ebee08U,
  0x110fecff16fee7ddU, 0xccfc0a03f404e415U, 0x9c1dfe7ffe22d13U, 0x1ad119c7ff071decU,
  0x1bcae1e524f809cdU, 0x9bec3be4c8f0c9e1U, 0x1d0cedfefcfef60cU, 0x1ffd0ef630060ffdU,
  0x10ec06f122ef22d9U, 0xe5f82ffee010f306U, 0xf40a0a08140b09f3U, 0x80119fd1af8fc1cU,
  0xfe1d04feeaf7ff0bU, 0xe82503fc17041ffeU, 0xc5c8b8c1ddd71130U, 0x24d0c9d4cdbefcc3U,
  0xdacfb7ccf8fc30ccU, 0x81d60cf2b3c7c8d1U, 0xede7c1f2ebe00309U, 0xf0fad5d9e1ee15eaU,
  0x11e5e5dff006ebf9U, 0xc3ef1fd7f4fae000U, 0x151ee9f60a05170dU, 0xfb11e716f714080cU,
  0xfe00080ec5f9e31dU, 0xf9121ae012220110U, 0xf3f5f7e6221c1b60U, 0x91df7f5d51891ceU,
  0xde1ffa06d1dec83eU, 0x221e66ec2425040dU, 0x14fb121b2bf4c911U, 0xda2fe00ed92db1ebU,
  0xf2300f14cfc9c6e1U, 0xc62c5df602150806U, 0x2e071dfd061eff1cU, 0xbc2614f7fd07970dU,
  0x3240025ddd1d981U, 0x811e3b2b21141024U, 0x240300071d1ad130U, 0xf9fbd92c12f4b003U,
  0x1be4f9072e040d02U, 0xf5010227f2fdcdffU, 0x21c708d4ddd2ef21U, 0xeb16fafa1a13bbe7U,
  0xd8e6dadd10c4e5daU, 0xcd23fb14cde1c5e4U, 0xdf81e150f13f527U, 0xe9d32113fe1ad502U,
  0xeee9e70d1fa816cbU, 0xb50b1c1ee91adaf1U, 0x17023cecef27dac8U, 0x1a0b01f728e3d2e2U,
  0xe7f212fdf2f21837U, 0x40e9063232f5f5daU, 0x3fc4c221d12e6a3U, 0xe611122e101506e2U,
  0xdb230c2c1feff0ecU, 0x2f2e11331e4ed02U, 0xe1dd231802121422U, 0xca14e4051b23e5f1U,
  0x1905040206cbd2dcU, 0x15f8071f0811e01dU, 0xdb10da0aecf61056U, 0x1df714f6f02c11e2U,
  0xece6e1df12e20c98U, 0xb61034fad9fd0ce7U, 0x216e02a2e07e25eU, 0xcf032adf0429e001U,
  0x24ee1f25e9fedfd5U, 0xf1204014e21e2df3U, 0x1c0a0b2a2122e81aU, 0xf3290e1c25112620U,
  0x8231d190b141ebdU, 0x9c19613c23022e20U, 0xe4c7b3d1d5fc5058U, 0x4091eddf4f82de6U,
  0xbddefefe304179bU, 0xbd12eafad304f6e4U, 0xeb00c3fce5240b4cU, 0x10f00df21100eddfU,
  0x1805f527f5f3f5ebU, 0xdee3d06ecf401feU, 0xec3a04faf102e61bU, 0xd01a121316420cf2U,
  0x5100b09f701fae8U, 0xcb1efe2a2624132cU, 0xe0ddc2c1e5fe4263U, 0x1b0207dcf6f72ac5U,
  0xd6d4bef8110711baU, 0xa7182dd0e6efc7feU, 0xf2e3b7e307240262U, 0xce808fcf31efff2U,
  0x22221ae506dcd3eeU, 0x8f07ff617140ee2U, 0x3b42df0b270bfae2U, 0xf82dff030936f807U,
  0x34030a19fcdeb511U, 0x4f3332ffa2a3317U, 0x1008cc13f501ee0cU, 0xd9efd803d81ad1f1U,
  0x105fb0ad317a31aU, 0x33f1260af90d110bU, 0xe900bf271403c60fU, 0xb4f711eee02fa8f1U,
  0x12fc121be0c481fdU, 0x82508ed090b161aU, 0x26f3e3200512be0fU, 0xc52321132021d40dU,
  0x2a18101218b4df99U, 0x9b071e051f211f1cU, 0x1603f713f5190a15U, 0xe4e0f7f4f5fcf2e4U,
  0xe40c0c1609f7da16U, 0x12f7fbfe23f105e7U, 0x40ce1f6e60dcfe8U, 0xb4f6faf9fcfdb600U,
  0xc10dff3f2c2b8faU, 0xfa04fff6fd0f12eeU, 0x14f0c5e51408c7f2U, 0xddeffbff0420c5efU,
  0x15fe161efba7f7d3U, 0xdd04f424030bf1f8U, 0xfaee23e61c140c16U, 0x909fa03fa0107f9U,
  0x1c1003f015f53445U, 0x28251d0c070019f7U, 0xf60026fa000ac8a8U, 0xf014fd09e820e1edU,
  0xe0e082714cfef41U, 0x48f6f72412f5f915U, 0x5f72f23131be8ecU, 0xe41d021a2706d706U,
  0xec170dfef3d5d2f7U, 0x535db21fb24e41bU, 0xef1c7010bfc172dU, 0x1910fe11eb07fa09U,
  0x605f7faf9220f24U, 0x27050a00fa171602U, 0x80eaf131f26d6ffU, 0xffb0df9f324f1faU,
  0xf721fefb040fdf0cU, 0x441714080d053911U, 0xf216e60beb0ef4d1U, 0xd812f522f4f01e17U,
  0x5fafa1a1b0eecffU, 0xf8e2deebe90e1517U, 0xe3f9c80ffdf91c2dU, 0x4041ee6152f3001U,
  0xdf2fbef201008cfU, 0xe40e4ff408ff00ffU, 0x1606d31814f91415U, 0xf10500f4f835f31dU,
  0xfe23fe2efce6f1ffU, 0x1a422b0f101d3516U, 0xfe0fcb1801fbf001U, 0xf8020604f0181cfdU,
  0x1f160505fdfad9f5U, 0x124f7fc110402fbU, 0xd7d681cad1c0363eU, 0xed6fdda28fe12faU,
  0xcfe8d5ce110123c0U, 0xd1e02cdddbcfcbf7U, 0xf2ebabfc1cd6193dU, 0x190a0ffc2d2c15efU,
  0x1803e9f80efd1becU, 0xf41d66d2e8e9f7f1U, 0xfbe88bf110121b22U, 0xf7f91e0809f8fb14U,
  0x170315f01000f9d5U, 0xe9233cdde9f609f4U, 0x5f9adfbfbf7f905U, 0xdb07f9e01a061b1aU,
  0x6171414edfbe5e9U, 0x25f705f3f61aef02U, 0x211cd80209070fefU, 0xd221116edf20f10U,
  0x2f818fb07fce303U, 0xf418010002ef0901U, 0xfe05c603def02616U, 0xfff9f4130cfa130aU,
  0xe6f703f31115f7eeU, 0xc90824d4ede7e6f6U, 0x8eba0f01813f92fU, 0xfff6f8e2fdf81af1U,
  0xa00140be3e7b3d0U, 0xdf1a240c15f5f1f7U, 0xf412930c02f2f8d9U, 0xd01a0314f4f8fe18U,
  0xec11f018e202b4e4U, 0xd504f2f6f5fb1b17U, 0xee248115de08fee3U, 0xeee6de15bfd101ebU,
  0xd4dce107e0fcd6e7U, 0xdbc40fe7d4f4d9f7U, 0xf31ec6fcf3fa1d1eU, 0xefb020fdff7fdeeU,
  0xf0280402ff13d703U, 0xf4e925f1f802feedU, 0x2042b829170decc5U, 0xd12ae42dd4f11006U,
  0xc211712ebf7b00fU, 0x2613dbe50917321eU, 0xc2edb35fa25e6d2U, 0xc700f4228fd1fb35U,
  0xe030d1cbaf6a90eU, 0xfffd9fd41f150423U, 0xf2911fbf6100947U, 0xfc0fe602f63ce908U,
  0x40de925f1dde024U, 0xf71140010f032117U, 0x4280919f023ee0eU, 0xf1251909f617de15U,
  0x22300938f203f1cdU, 0xc23b04ee0e1c1113U, 0x1106251417040ef1U, 0xff1f0209f4f8020dU,
  0x1300ff2fcfe8e5a4U, 0x811403fc13fe00f9U, 0x3ff3ff7f006f3efU, 0x3fdec0ee2f5e00cU,
  0xeef100edf5040339U, 0x16ef2cf00507ecfdU, 0x10fb51e2efedf817U, 0x26020fe24122e703U,
  0x9f4071721030ce2U, 0xe9311503fbf3e000U, 0x18f72b031b0b03feU, 0x11f8fdf91afb08e9U,
  0x6f0110f140e23d7U, 0xc035f501fffb07f6U, 0x15f36008100a07b8U, 0xf6fe0c22f4eb0f0eU,
  0xebfe02fbef0a1139U, 0x1be2c30714fffb1eU, 0xe7e04ef3f4fa20f5U, 0x1ee5f1dafbce10ecU,
  0xfbe0fae419211504U, 0xd3e7d1f1ebeec3eeU, 0x10cb08d404f2251bU, 0x20ebfed40efd05f7U,
  0x3e8dde3fc180ef1U, 0xfb120e0edefbd4dbU, 0x110be901ff0a1b2eU, 0x3000611000e11ecU,
  0xf110222ed14ef3eU, 0x4b0232f3f0ff0516U, 0xb00e11511fd0aeaU, 0xa1309faf41312f6U,
  0x21130c03fdf9db18U, 0x1d2c11f805120718U, 0xec0a01f8fc09U, 0xee111302fc1ae809U,
  0x150b0e1cf001e10fU, 0x171c24fbfc050300U, 0x8f1e5f512e61e13U, 0xede60fe4ef0ef1f7U,
  0xff0200f4eef6d705U, 0xf031a11ec0801e4U, 0xf608e81101faf2ecU, 0xeb0613e7e50ff9fdU,
  0xae7f506f7f4c902U, 0xd5020eeffbe6e612U, 0x1c0ce90311e70604U, 0xf508fc04e80a070cU,
  0x12040f14fde3f715U, 0xf0f609f7effbe2fbU, 0x1128fdfceffc01e7U, 0xd90df605c8ecf008U,
  0xe903fd0cf0f7c337U, 0x28d9d600fc11fbfaU, 0xf515100fe80fe181U, 0xc1eaf31ee0e0e60eU,
  0xeb10fd07f6ebab29U, 0xae0adf015060910U, 0xff0ff725e5fae1cdU, 0xdff7e70ed3f8fb1cU,
  0xf60cf90701efaf26U, 0xe7f8c0ed1107f709U, 0xf6f305e4f6ec1d12U, 0x17f1efdefeee17ecU,
  0xf7f3f2e90e1d1306U, 0xeae8fff2e406eaf0U, 0x20a09060a090c0dU, 0x1cff0cfdfdfbff08U,
  0x807130a03220938U, 0x46fcfa040d061ffeU, 0x18061aff0808f9e3U, 0x100307fd04fcf314U,
  0x7000e0104fc0420U, 0x2affef080204f60eU, 0xe6e4e9f4f3f21a30U, 0x11f1f0f0ebf10ef6U,
  0xebebe4feeb17ffdeU, 0xc3f90ae2eaefd8eeU, 0x1002f90a1703023eU, 0x100d0ffc09280cfbU,
  0x17101519ef0aff13U, 0x241413f207101d0aU, 0xff06060b04ff04f1U, 0x70f13160e07fa0bU,
  0x8fc03fe03fef7f5U, 0x1113f40208fb01ffU, 0xe0b3dac2e7d21a35U, 0x16dee1d5eaf120cfU,
  0xebc8ccce071f13aeU, 0x81f00df1d1d6bac9U, 0xfcdbeee1fcdc2359U, 0x21f80dcc111618d2U,
  0xfef701fb050f22daU, 0xeb0634f1ee00ffe6U, 0x70ac612f9131632U, 0x110c05f70e1413f4U,
  0xfffdf21000fe0df5U, 0xed1722f1f0080c06U, 0x8063a111d2302f8U, 0xe40b09fa0909061cU,
  0x24240d090cdb0432U, 0x291d25f2fe0b151cU, 0x14fb71111ff6fa01U, 0xeb0d11232407f70aU,
  0x201c11fd1de520d1U, 0xf012c427fa18f5f7U, 0xe7f32718e7ed1b0dU, 0x25002b061bea21f7U,
  0xbf8e9f721f046e3U, 0x861db205dceabc1cU, 0xd077fea1af41ffeU, 0xa0908f52124f10aU,
  0x7191103f5f92c1bU, 0x472f3d280b0c0201U, 0x23d05ff419d8352bU, 0x240b22e11925fafaU,
  0x10d11ce2faeb39f0U, 0xf94128f2d6ebfc15U, 0xe8e5f9c4e7c23a1fU, 0x26e1eebb0fe711d4U,
  0xe0b9caed121b3912U, 0xc43f07d0b3edb804U, 0x19fb36f80d0e0df9U, 0x1ec0df71ce02a1dU,
  0xfdfeef03270310dfU, 0xe615dbfdfbf7d208U, 0xc6c8e0cee0df193dU, 0x25ebdbe50bdf0bc9U,
  0xe7afc0d31cfc27fbU, 0xf218d6d8ccb9b4d4U, 0xccbdd1b7b6c13714U, 0xffdad6aacfa0f5aaU,
  0xd3b3ccb6c31220e7U, 0xd6d9dcc4dde0c5bfU, 0xfbf2ca0ef6fe21dcU, 0x7090deae4ee341bU,
  0x18fceafc22fd27ffU, 0x10ecc70c040c1eefU, 0xf10681d8c3eb0b08U, 0xf202bbf4abd5090bU,
  0xcefbc8f4eb2ffe20U, 0x18c7c1c7c8dedd10U, 0x4f5b506111d0014U, 0x18e3b9dcc7fb0e00U,
  0xfb19fdef9e06d558U, 0x57cd08c4f92204efU, 0xf0fde2071818de05U, 0xe90813000af82affU,
  0x1e0c16fc1ef5f108U, 0xe805d2ff1de10019U, 0xe610d32208e7e800U, 0x603fdf7c8ea03f0U,
  0xdf090210d301ef26U, 0xdc3d6dcf3f519f7U, 0x228f70311010a16U, 0xfffadb1cbd0def01U,
  0x252e2e25db18f437U, 0x4d0455f9f131030bU, 0x1e32ea3206f3e2bfU, 0x1ffb25092bfb011fU,
  0x282d1d2df2daeb29U, 0xff8880efbfc1209U, 0x1612c1f8ea09d4ceU, 0x100afe1fdfd31f2bU,
  0xf1f9eff1e1ebcefeU, 0x71191d3f3161119U, 0x210d0f2611f5c600U, 0xf92b1ff5eaed2501U,
  0x251effee0df820U, 0xc0f1bf62c0817ebU, 0x11fe040e03180700U, 0x811f720ecfa1421U,
  0xf20014f40400fd0dU, 0xfb1208eeff05ef06U, 0x1c03f40a0e0d0414U, 0x130effff061a0911U,
  0x11fcff0d0117faf8U, 0xedff05f70e0b0b11U, 0x201bf315fe060d05U, 0xc0f13090df4020fU,
  0x9040618fc070eU, 0x10fbfd0100010d0cU, 0xfcdcfbfee7f509f1U, 0x70a1004ffeb1805U,
  0xf4cbfaec111d05eaU, 0xdb06f5fef1e8d2f8U, 0xdf3d3f7f4eb1100U, 0xf0b15e4fe12fbeaU,
  0xf80208fe051c04ffU, 0xec1315e7f202f00bU, 0xfd20f81e02080207U, 0xff24050f051b0d05U,
  0x19070c1b0012eb09U, 0x271cf4e90e1a0b1cU, 0xd1cba5d5bfe81c0cU, 0x14dbfae3f6d10ef7U,
  0xb2a0c1cc1a1219c6U, 0x81e6e0e7acbe9fedU, 0xc6b49cbfdfb60b29U, 0xab6f096effa23afU,
  0xeacbbbcbfb061cf1U, 0xb3e625e0c0cbc1b4U, 0xffae2eef6f81c22U, 0x11f5fbd4f8ff01d3U,
  0xfe0e06fff001fa0bU, 0xcfa23e6e604f8f0U, 0x2e0ab0fd12140b4eU, 0x2f0229fc1a54f0f5U,
  0x37f117fb19041b4eU, 0x72527ff608124b14U, 0x9f6b02702130804U, 0x1b151d1c022a0b1aU,
  0x1c1d101410f3f611U, 0x474526f314e82a11U, 0xf412981aef061817U, 0x11140df11a14fe04U,
  0xeae4ecfde5feeeebU, 0xff2ff5edf0eef50aU, 0x10ecc1d2ebcb0334U, 0x13eedfebef1911faU,
  0xe7f6fdfbe10fe338U, 0x510a5febfcf000eaU, 0xfa05d7fff6e301e6U, 0x16fce8e4fa16f2eaU,
  0xf9fbfa07fbf7e902U, 0x46f440fddc0d1506U, 0x5108eeff307f107U, 0xf60d0eeaf302ffefU,
  0xe6f7f90e0312e30bU, 0x1e1132dff406f8f1U, 0xf81811e80709ebfcU, 0xf70ae30feb050c0fU,
  0xea230800db0bf934U, 0x4bf21ce822140402U, 0x1f0b03fbf0ffeccbU, 0xdd03eaf510f910faU,
  0x13f4f60219e3f617U, 0x4c3110edfd00380dU, 0x150cf300f3efe6f3U, 0xf61315033c160cfbU,
  0x61215fb13e0f70bU, 0x203c27c9fbf904f8U, 0x24f52b03f721e805U, 0x9fff4f41304d712U,
  0xed0a110806f6f710U, 0x1f122c19fc170012U, 0x90d04081903e6fdU, 0x1614f70e0e13e304U,
  0x110bf113f9000cddU, 0xa90333e90e151212U, 0x14150cf70af20718U, 0x140a15f22300fe17U,
  0x280f1420eb0af5c2U, 0x811c1209f1f5de03U, 0x1709431112fb14f5U, 0x11eef0fcf6f2ef0cU,
  0x200071612eef00fU, 0x2c0d10002000fafdU, 0xfcf32c0bfdf602f7U, 0xfaf3fb0721fd180bU,
  0x1f09f21bf8fd36fdU, 0xd7fb0ef91702cd00U, 0xf60fff141005fef4U, 0x131f06f90717eb18U,
  0xe1b062e0f111cfdU, 0xc100081029fe0103U, 0x19f83ef0f10e1cd7U, 0x1406fb0b22e01bf5U,
  0x7f0f604fe09feccU, 0xfdf3ae0e0a0304feU, 0xedd2fddff3d01a35U, 0xfed8ede209e613f0U,
  0xf0a5f2b725f718c4U, 0xb505fc0cb8e7a9d2U, 0xf5c9e2d6fdc13343U, 0x22c400b90318f2bbU,
  0xf8d8ccae0b1b230aU, 0xe2ff2dd0aadebaddU, 0xefc34f6210a035eU, 0x292241ea413ffe0bU,
  0x15ff242347017117U, 0x13517f331d12090eU, 0x6d300fbf4f11224U, 0x38eb02fd3016faecU,
  0xfef8f6ec423070d4U, 0xeb08370ef2eaea0dU, 0xfff409f30cf12839U, 0x43eb1af0240b02d5U,
  0xdeb08050b32540eU, 0x32fc1912f4e8eb10U, 0xf509cf130e11f00aU, 0xf15f90c070d0cf0U,
  0xf7fe08f01fdf001aU, 0xf9142911fcfbeafdU, 0xe9031312de0bf005U, 0x19f2eefbe0ed18e8U,
  0xdbf1def7fef902ecU, 0xc4cbee0be30ce3e3U, 0x9f91ce109071b34U, 0x1ddbece4e00e1af2U,
  0x8f206f31311f027U, 0x28f13bfae0f0ddf1U, 0x2622ff18102dd088U, 0xd919f42fdae6de19U,
  0x22925fcef01ac2bU, 0x40f99b2e1f1e08fcU, 0x1a0a201e0816e5a4U, 0xd51fe529c7cf0528U,
  0xe20f001ef500ec00U, 0xe8ca883910e80df0U, 0x27082d280104de00U, 0xed6fed90a0c13U,
  0xf920f20008f7ff4eU, 0x23ee31f1280f18fdU, 0x14f3d319041c220aU, 0xdd030cfedde4f715U,
  0x2e8f1d700fc0a1fU, 0xe101e8fae008e813U, 0x1f6b10403d03bf6U, 0x3d7dceed7f02125U,
  0xdbdee8d7f213fd20U, 0xe00cd6d0fff1cee9U, 0xd01ac1dbe5ea25e2U, 0x90bc109e010f6f3U,
  0x2ae2f5bebd0f135aU, 0x3ef20181f302020eU, 0x272aed2cda20f9d8U, 0xdc0ff9f5ce222cf3U,
  0x2f807f2d1e2b605U, 0xeb1af1e100e2e121U, 0xf7299618f70efdc9U, 0xf4f8f10682e50630U,
  0xd4e80710f71fbc1aU, 0xeaef97af01021a13U, 0xeb09f10de51400e0U, 0x1319f02181dce715U,
  0xef0f19f9a209e62cU, 0x3af620aa02011020U, 0x817cb1e1f35cee9U, 0xe104fb0f171902fdU,
  0xd3d0d2b1a01feefU, 0xf940da04f10c10f6U, 0x103caf43183cc4baU, 0xf9fae642bcf7df32U,
  0x23fefe150a1ee139U, 0xd1e884e01b0bf8feU, 0x2c51f31f2e2adf00U, 0xf71df634c6dbe411U,
  0x254314161324c73cU, 0x20d4130f1722fc33U, 0xec053d2f011ef3edU, 0xe0291d2bff0ddf29U,
  0xfc19000ce90633U, 0x23faf3081c112718U, 0xd25690c05ebfffbU, 0xe5fd0a052308ff28U,
  0x14060ff7fee910f5U, 0x12f8c7f303242915U, 0x191f32fa07fef2feU, 0x2704321a0f0dfe24U,
  0x1af605fb1e1017d8U, 0xd515d7dfeaf7f01fU, 0x1ed4f0920e9ede6U, 0x19110f03f50afc18U,
  0x7f71dfef90c2607U, 0x3f2212f911060d27U, 0x220155f1f9fc0a0bU, 0x1a0627f50f31070bU,
  0x1df6fae226fd31fdU, 0xf41bf3e2e5ebdb1eU, 0x6e9f1fde0da2a09U, 0x2ae9f9d1fcfa0cf2U,
  0x4e9e2bce6e80412U, 0x916d8d6c3d6c508U, 0xece937ecef09ffd0U, 0x1715241500e92124U,
  0x7dae905100306d9U, 0xdf27ae0dfdedecf8U, 0xe9c5e3ebc3c43f2eU, 0xbd711d31ced09d1U,
  0xd9d5d6cef1222108U, 0xde01d4b1d1b9b8f6U, 0xadb581d29eb4243eU, 0x16dbdabfb4b528ccU,
  0xb9aed2d1cd06eae7U, 0xd0eebf99b3b5abbdU, 0x1cf2fd0308020132U, 0xd6f811edf941e502U,
  0x27ff0707f5e3fcbfU, 0xb32f7f12f004f400U, 0x10fef121f6feeefeU, 0xe51117f4f317d715U,
  0xcf3f20cf4bae9a1U, 0x9d45290f040de714U, 0xfb10d4000218fdeaU, 0xc7f3ebf4e80a0ceeU,
  0xfcfafee6d4f1d1U, 0xa405fdf60408ee0cU, 0xecf506e802ed0625U, 0xcf008fa241c0906U,
  0x18ebeddb07fd1307U, 0x80d26f6ddfef20aU, 0xe8f2df040807060eU, 0x10208fd15090bfdU,
  0x18fcf8030ae7ede5U, 0xe01bf501fa1806fcU, 0xf0ffd0c1608f2f1U, 0xdf06031fe9fa03f7U,
  0xf51c1004ebf6fd0dU, 0xe512e906150f0f14U, 0xf0ff040600f01917U, 0x8f90cf3f7f60108U,
  0xf8dbf0fcfbff02e9U, 0x10ed13eef405f0ecU, 0x1ed01e707e30b07U, 0x7ec08e7f90ff5ebU,
  0xfef107e0eff2f2f6U, 0xf8eb07edd8eff3f7U, 0x9ef06f10d02011dU, 0xf5f811fc1503090dU,
  0xc02f3e8f7fdedf8U, 0x4f81ef0f201fe06U, 0x14e9fe0cf10c180aU, 0x5f3f6032804230dU,
  0xfdf1050b2013262dU, 0x10d0fea01f70ffcU, 0xf0409f7e9e60d1eU, 0x150ffae224f201f4U,
  0x1be4e708fc11002aU, 0x1f001be0f106fd09U, 0xaf4f3141609f323U, 0x2cf8fff6fc14e8f9U,
  0x1bff0a0ff6eceb2fU, 0x510d1af3101728f1U, 0xfdefed0401f60ce9U, 0x9f7f90bef060afcU,
  0xf7fae0ecf2f1f331U, 0x291010d4fc0e18faU, 0xe508f3f8f1e313f4U, 0x404dbf9f8030704U,
  0xe3f7f7e1f4eed735U, 0x22e8f2c8ddf4ff0bU, 0xfef7f711ebfbfafbU, 0x14dffee5ebf309f5U,
  0x8f20fef09e60142U, 0x22ef0be1f6f7fef0U, 0xfe1c0530ff28ebaaU, 0xea15f52db1f9051aU,
  0x539f123eb17da71U, 0x63deddfa0e121015U, 0x1b1e25270a11dca2U, 0xdf13fb37b2e3ff23U,
  0xef0e0dfeca05aa7fU, 0x6ac5a1d5191e291bU, 0xf80e3f130e16feb4U, 0xe2f2f71bf4f5072bU,
  0xf8200bfef100fe75U, 0x5c02d2d807f00d00U, 0x7fced08f5fbfee5U, 0xff17140202f02209U,
  0xecf1f5f3060509e9U, 0xec110af009effefdU, 0xf8d219d4e7d6262eU, 0x1fd0e9d9070624f0U,
  0x6c9f9e7041cf916U, 0xfae12cefd4e2d2daU, 0xfbff20fc20d81552U, 0x1fe209d6152aebf9U,
  0x28161ae606e30d28U, 0x45127aeb052245fcU, 0x232adf1a2008d1cbU, 0xde0d1b1300062124U,
  0x9fc26180515e5e3U, 0x30b0b1603161711U, 0xeee7f513e808fa15U, 0xfa00e80b00f712efU,
  0xe8d30be50211160cU, 0xd6ea08e912e3dcf9U, 0xf1f907d809e11114U, 0xf4ebdff3f41b0bd7U,
  0x13f8ec030b15f031U, 0x33ff72e4eced23eeU, 0x1422d902f90bf0deU, 0xee0c13161a2d0517U,
  0x1af5212a0a0de5ddU, 0x371406f8130a1dU, 0x1206be1c01260604U, 0x180113fd1d000714U,
  0xcedecea0f15fce0U, 0xb412dff90af7eefeU, 0xd9f7e5d1dbd40f19U, 0xfee0eee7f7140feeU,
  0x301daf3fe041500U, 0xcea7f0dee00e7d9U, 0xeaf2bb19ed20feeaU, 0xc402e621e5002a00U,
  0xf2042ae90e2ec7dfU, 0x1b06c01f04f9f802U, 0xde0edfd2d6e51a20U, 0xe5fdc5efa2b4490dU,
  0xd5bed1fae3f21508U, 0xdbef03dbe4d909f2U, 0xb3ec86dfb2f2393fU, 0xffcc9bbf9ee51fbfU,
  0xe1cad5dbae051130U, 0x67a4298adee31fd3U, 0xff1b0d32171d0713U, 0x1a21101e20241503U,
  0x2930f0ed0332e7f1U, 0xeef9e42a25142d0fU, 0xd03aa2af10b1ad4U, 0xdceedc2ecfcd3a10U,
  0xce16fc1eef06fb12U, 0x1d5c220ff0425f5U, 0xeb25e62bc8effafbU, 0xc14b01681ce1e19U,
  0xf60d1ae2cdfdd00bU, 0x36a927f92508261cU, 0x1b09d1f226e900f3U, 0xf0f8f0dc2f12f81dU,
  0x1b1afb0c380234e7U, 0x171a6319140d1ef4U, 0x1838e53616360eb8U, 0xfafc1cf41e15ff23U,
  0x602f41cf9ed0de1U, 0x10fdc9130b282101U, 0xff1ddf9e71002edU, 0x192cd330bdd41a34U,
  0x12061aed270cf8f6U, 0xf7d9d12b2528ec11U, 0xd8d602e2e1ef2bcbU, 0xac6d8ede2ab0ec9U,
  0xb602d1da1122411bU, 0xcfb58ad8d1dbddceU, 0xe4ebe3e9ea0312ffU, 0xfedac3f0cfc717d2U,
  0xe9f8ebf8be0afa7fU, 0x429bc3fd00fc01e4U, 0x11f828f5080af3e8U, 0x16e7f4e1f70109U,
  0xf0a120af4e7d24aU, 0x54ccff05141015ffU, 0xde1104f8f5231ff8U, 0xfaf4d709b6eefaeeU,
  0xdf14fc17e706ee45U, 0x21b5c0f520ff0cf1U, 0xd072f1f031106fcU, 0x81b0b12d2fbe610U,
  0xf21615f5ea0bc83fU, 0x4be7fa1a16220903U, 0xf6212c27141cd903U, 0xea221af90517e807U,
  0x1c05060a1af415f3U, 0x1320fe1310201025U, 0xf817081e04f646U, 0x1cf912010507f1eeU,
  0x30b180916f7f705U, 0xf1f63e05081c0a10U, 0x2fb35101803ef14U, 0x8fc20f22337010dU,
  0x220703000505fd01U, 0x6172f1c14fdfd0aU, 0x13fd17111629e017U, 0x3201a1c2e1bec00U,
  0x2190f1a2a0208e6U, 0xf7262225020bfe04U, 0xe0c05131101effeU, 0x111409110118e610U,
  0x2131305f90ff45aU, 0x7f030af5fe141701U, 0xb1dee1a0b0de5e7U, 0xed1709080400fd02U,
  0x13fe0c13fcf9f918U, 0x2d15f3fb060d1e1bU, 0xfb12da0bf802f7eeU, 0x2fdf50bfc07ec14U,
  0xb0d1bf1f0f5f8U, 0x41e06f90b0f1206U, 0x18f31bee01fbfe09U, 0x190811f0ff00f90bU,
  0x12e90eff16090916U, 0x281025fa02fa1af9U, 0xfbe9e3f905f6fc0bU, 0xf02f8e60f14e90bU,
  0xbe70100fcf001f9U, 0x61822e8f4f8fd0dU, 0x13ffcc01f3eeff10U, 0x70af7020cfef5f0U,
  0x209f205fffdfef3U, 0x50102ecf300fb05U, 0xfb04ec0af703f0f3U, 0x409e60ce4dc0e01U,
  0xfff4fcf4eb0be4f3U, 0x16f0e5fa05fbfaf8U, 0xf60dc5f4ee0005e6U, 0xf0e8ea05f8f707f2U,
  0xf1fef2f7eff4eaf6U, 0xf5e6f2dee700efffU, 0xf600b50300f1fefdU, 0xff07eb0bd4f902eeU,
  0xf8fe03fdd70bd200U, 0x3f2ebf102fc05ffU, 0xdcede3fdfcec0109U, 0xf9f8fc04e9d808ffU,
  0xdf0ae3dae6fbfbfeU, 0xd9dedcf0f9f5d9ebU, 0x1bf0f4040df4ea14U, 0xf71cfe0911fa0a07U,
  0x19271ff00af20243U, 0x58df22eb04fe2600U, 0x24fdf01c1ff9e601U, 0xf31125f00b0ae212U,
  0x2d16170d0ee4043cU, 0x7f1128fef90d4b1eU, 0xe9e8d7f6f0fb2704U, 0xdfaeaedd20d1fe3U,
  0xf8fcec01e90ef8d9U, 0xc7ee03c90504e9e8U, 0xfb05e7f700f813f1U, 0xeff2f8ebd00310f7U,
  0x1506fc0dfce9e32eU, 0x48ea0ae3040d0c14U, 0xfb1af3080df0e6e1U, 0xf10a0200fa10fb21U,
  0x806fff1e5f8d732U, 0x5123f6dffafc2d0fU, 0xfde6c2e6f0f50d3cU, 0x29ed00e1ebff00e0U,
  0x1ecd4ea16241cedU, 0xdf0f4ad0ece5f8d5U, 0x1720fa060cfc0dfcU, 0x30ce71bde140714U,
  0xc330e22df03eb50U, 0x640116d70d1e331fU, 0x1b372231ff06e8e9U, 0x31c191b1905e40dU,
  0xdfd1f19fc091427U, 0x5a10ddeb19f72c27U, 0xa06fffe08e9f119U, 0xe90721f6202cd60dU,
  0x1ff4060a10acfa94U, 0x81344012edffee02U, 0xfb05ee10ff07fdfbU, 0xf10509f0071be3ffU,
  0x203fefc10cbf2b5U, 0x9422020ef5feeff5U, 0x5fa0501f410f4e5U, 0xe8f30907fbf114ebU,
  0xfa03fd02ecfae7bdU, 0xa1fff3f20f0bf3feU, 0xf8fe09faf4050e01U, 0x40008e71dfaeff3U,
  0xff0b01fd10dff0efU, 0xd7fc0bf40107f4f1U, 0xeef606f6fff10bf5U, 0xf10503faf3f9e8fdU,
  0x612000b08e9ec06U, 0xdcf002f000fef0f6U, 0xf8ff0bf613fcf00bU, 0xf616fa12feff1407U,
  0x61002fbf2f107fdU, 0xe7ebfdf80d010503U, 0x14550307f31308U, 0x15f11413090903f7U,
  0x13fdfbfa00f72c17U, 0x1cfc0cf3fffdf3fdU, 0xfafd3efb07eaf60dU, 0xf40bf7f01110f8feU,
  0xefcf6f717011518U, 0x70d1b050105fd09U, 0xfe0842030109fe19U, 0xf051d090f12f60bU,
  0xfe02130c15001ffaU, 0x212b03fbf80b08U, 0x1f0fcdd03e9ea51U, 0x2f7ffde0544feebU,
  0xafd12eee8dae0faU, 0xe71f6bdbe907f0dfU, 0x1d0bee2d210ef027U, 0xf2113b230d48f8fcU,
  0x3b1617120adcd6d4U, 0xcb5661f910f10a32U, 0x172cd114fd1af1edU, 0xee0d001f0e04e027U,
  0x1c12081bfa00eedfU, 0xd31809e8eb1af40eU, 0xd4e4bdfdd9e40e15U, 0xbe2cdf4e1ebfdfdU,
  0xdff0dcd3e5e2f1d6U, 0xa0d22bdee6d3ccceU, 0x17efe10feef50e0eU, 0xe718d92434f9f0U,
  0xfff80b110a0d12f6U, 0xdc4726fcf9fd0ce9U, 0x229e822fdfde606U, 0x3f8ff140804e5f5U,
  0x1c0a1815fee9cbf9U, 0x42cfc070aff2914U, 0xb3de9ce4dee91600U, 0xf5ccc2edb8d0f5edU,
  0x9edce7d2e2110ee4U, 0xaaafe8e7e3dcb6e7U, 0xd3dd81dae4e1100dU, 0xbefcadfe80206c0U,
  0x2fee1e2de0dffe6U, 0xd8cf14d4e201d1d0U, 0xede5b9dff7e30d28U, 0xb03020609fb0812U,
  0xf9020308faf8d9f1U, 0x5e820e8e615f1eeU, 0x530ff341d1405edU, 0xf9221b14fc161409U,
  0x1a2d121909090dfaU, 0x321afc1417042c26U, 0x516e9310e0be7fdU, 0xe4250d300710fc1eU,
  0x181e142406eff2f0U, 0xfb29fbe400f70715U, 0xf221f2f7fcfe1ae2U, 0x607e608e9fd0917U,
  0xe7f9f6eefd14fcefU, 0xf3ff000508fa0cfaU, 0x23e62c151ef4f719U, 0xc1d260c0e241605U,
  0x16d01e1512093edeU, 0xf81f1923ee050510U, 0x1110e1f106130a23U, 0x220715fd1a0d1208U,
  0x220f0420dd120ee6U, 0xfc312c02e6110a16U, 0xfd08fb281428080bU, 0xaffff240c0b0e16U,
  0x102fc1ce408f004U, 0x318fcf1181d2110U, 0xfba7a4ddcbee0826U, 0x28e6f7de12d721efU,
  0xe18ed5bb1f1425c6U, 0x9509d8dca7bb94dfU, 0xc5b9819ff0b02729U, 0x14c8c9a212f90bacU,
  0x5e1c7baf60d19eeU, 0xc6e913bfb4e5e9beU, 0x5f1cbe50ae90a23U, 0xf905f9cefa1507dbU,
  0xdfaf101f516e6f7U, 0xe71c37f503140804U, 0xfdeff6e7ffec153eU, 0xd0805e7f11411e5U,
  0x1fefce0051e0214U, 0x1afe24050df506eeU, 0x1e0203ea0c00f81bU, 0x220118f50c1ef20eU,
  0x10f011f40cfe2706U, 0x241441eadef31503U, 0xf0dfff2190df919U, 0xb0404f01801f101U,
  0x261403ed0edf0903U, 0x9222103e30b0d11U, 0xf9f7ccf300e72c15U, 0xff5f0d3ec271de6U,
  0xfd0aed04ef1bfafaU, 0x71b22f301f8ec00U, 0xf214f4ffea09f9e3U, 0xd0e4f0fbd9f4ee05U,
  0xc1405f6d9dbc81eU, 0x3704faf1f7f714e7U, 0xec0b01f40506eae7U, 0xed08f606f2fcf8f8U,
  0xf70eea11f6fdd112U, 0xaffe1e8ed0e080dU, 0xfa25e6e8faf81e65U, 0x1cceeef1e0080cc5U,
  0xf51ae7e308273c5bU, 0x41fa34dce9f100f7U, 0x1a473f220034d7aaU, 0xdc0ff629c7fbf622U,
  0xf2271314edf3c271U, 0x7ffbf8ec27183f0bU, 0xf9312a13f9fdca9eU, 0xe20cee38f9dc060dU,
  0xfc060afc02dddb1eU, 0x29e9b7fd0305f80eU, 0x8fe1df1091a0d1dU, 0xb8ecfd18e111d8f8U,
  0x25e714e2eccecddeU, 0xb11062f6fff614e9U, 0xf20e1fe8f8f1f0fbU, 0xf00007d51717b4f7U,
  0x24fb030c06b5ff9aU, 0x813136e3d7f011ecU, 0x1bfb0d24ea03ed0cU, 0xcb090d16f314ed18U,
  0x2801fa0df7e2019fU, 0x82051a000cf8d606U, 0x24e641f5031307f3U, 0xe0f8ff1cdffa1013U,
  0x141a091b04f00e1eU, 0x710f3f9fd14f1f6U, 0x9084cde1c10f9d8U, 0xfa040dfde90ef10bU,
  0x80806ffffd007e1U, 0xfb25ff0a1b090900U, 0xfff9391909f621e3U, 0x1116210e1af7e305U,
  0xd251af0ed0909e7U, 0xe0ffdf00121d0dfdU, 0x14e33ee811190be0U, 0x23000fea31fd15fbU,
  0x5f30a0e16202f0dU, 0x101f0c172101ea07U, 0xf257e4ebd21e0cU, 0x1ee2fee41418250aU,
  0xf2bf1ace1e0d4907U, 0xfff82513c8f2d7fcU, 0x14fc4dd110c22430U, 0x16f727e93321fbf6U,
  0x1beaefec0ef144f0U, 0xf72e43fef1e7e7f7U, 0x1a0af131161ccaf5U, 0xe326fdf42f0eea06U,
  0x32e3143bded881aeU, 0xb7423b0b0d0a092eU, 0xfbf1dc08f503fde5U, 0xf700060ae80f1e07U,
  0xebfb1013de1ecea6U, 0xca31f8000a11fa26U, 0xecd9f0edc80b1afcU, 0x4e3d516cc0139dfU,
  0xbff1d7f7082d10e9U, 0xd7bfd9dd13e0da05U, 0xf2d3fb081516f303U, 0xe8f62e15040ef5daU,
  0x70104ed00e5ebf0U, 0xfe2c011ce3faeeebU, 0x609e90117101ae9U, 0x18191318ffe9f8dbU,
  0xf7def92a06ef1bd2U, 0xc518300dff04d910U, 0x25e004fa102a24f9U, 0x800ece816dd08f5U,
  0xf1fff308171624f0U, 0x17defe2404282119U, 0x1de611d0f4e0e90aU, 0x19d923d647f914f2U,
  0x9021c001b201af2U, 0xf2e0a06f3e4d5e4U, 0xdeef5fb16fff927U, 0x2418e2de2a21f3e5U,
  0x1e0ae2040d01fb07U, 0xe366c0c0af4ff0aU, 0x170e2613100c01e5U, 0x5ec0211323de2ecU,
  0xed11280ef51eefe6U, 0x1b134f0d1e0b15f5U, 0xffffffc00000002fU, 0xffffffa300000006U,
  0x2ffffffceU, 0x24fffffffaU, 0x20fffffffbU, 0x700000025U,
  0x1f00000045U, 0xfffffffb00000002U, 0x3effffffe9U, 0xfffffff50000000eU,
  0xffffffed0000004bU, 0xfffffff40000001dU, 0x1200000010U, 0xffffffe6ffffffffU,
  0x210000000bU, 0xffffffd6fffffffcU, 0x1b0e224a111b2181U, 0xbef2dcedc26ede8U,
  0xd40e04fdfdc8da07U, 0xf02d33db44fa14d9U, 0xa20f817160800c0U, 0x1603e3ebfb09de1eU,
  0xe9ebc623240721f3U, 0xf02718102b0b05d8U, 0xa05d9c2f104e6deU, 0xc7f8e2fb26e5dc12U,
  0xed1a07de0d1afcfdU, 0xeaeaf229fb02b8d8U, 0x2c192dff04fe141dU, 0x225ea0f01f7f2fbU,
  0x131fee0bfaeb0affU, 0xdd1dffe71ee423e2U, 0x2c020ff0ac60907U, 0xf3f7c3f71bc61419U,
  0x321b162ddc26f6f7U, 0xe16eac0fef0e204U, 0xfb0cf1e5080ee2f5U, 0xf8def1d0251af5f8U,
  0x2cd58dca233704dbU, 0xf2f7c2191fefba12U, 0xe808fc02eee718feU, 0xeaf4de03155c1ceeU,
  0x4feea918fce9fe09U, 0xe7011cd8d1e01d16U, 0xc9a4018ff187eddfU, 0x2d13b9dd43a20e14U,
  0x1efd43f50773e51eU, 0xeafbe71cd303ad12U, 0xb793e7bcdaefd5a7U, 0x23e22aaa35e0e91bU,
  0xd2b8bddc0d40a017U, 0x20fdf41ae115aae8U, 0xf60c1df10d401fc5U, 0x39f907d000df0d0aU,
  0xa3c22003ecf1d6e7U, 0xf617d9f001ddc0f4U, 0x116e81a244435d1U, 0x33080fdf211bd002U,
  0xd41b1ed6fb0fe9feU, 0x510ce001509b107U, 0x121ae51dfa601e00U, 0x1dd824f10131eb09U,
  0xcf2357050afafa04U, 0x1cfbf52117dbe015U, 0xff1becf72fea19eeU, 0xe1328bdf71c0e12U,
  0xf10b1113e920dc30U, 0xf428e615db0cbc01U, 0xddeedf415240af3U, 0x1cdb14de1821ea09U,
  0xc7f41cdf1000d21eU, 0x13df1c0e12fa0cU, 0x1090a1d07520541U, 0xf7e21903e71ee5d4U,
  0x221d05fe0bc822f9U, 0xfe11f110081b2ce6U, 0x9e1f0f718d7e52eU, 0xe30cdf00eb050c02U,
  0x39491523c6ef180eU, 0xebf9000095eef0d0U, 0xf9c3f810fedbcc2aU, 0xdb01a20bbbd0eae4U,
  0xff0e1a33cc9a2220U, 0xddf10ab29dfff9cfU, 0xf5defb3afae5f831U, 0xde218f2a96df25beU,
  0x4c34d210ec811217U, 0xf4eb2e96ee2c46f9U, 0x1a15ee05f616fbb4U, 0x29e22dc4aa0cccf0U,
  0x97d707d428d2d5a9U, 0x1110fc2d1c04de1aU, 0xf807181af82e02b5U, 0x9ce15adecfffb04U,
  0xa31c01fc1fcbf9b2U, 0x171a03f01819fefcU, 0xd00dd628ed12f4feU, 0xffe705f40bfaed04U,
  0xa22130c0321e4ebU, 0x13f0ec082fe7f8e9U, 0xdd090f360f192cbbU, 0xdf0025d4bc3401d5U,
  0xe7d020dc09c6d7e2U, 0xf8eedcd61e190d06U, 0xf31bf933f72a2ffcU, 0xf21217e113120a24U,
  0xd30ff6e20ecde2cfU, 0x1fecf3f93718051dU, 0xe1e121a16f4faf1U, 0xb2008140f0ee81aU,
  0xe6f10d1813ee1302U, 0xec0d111a0e2620feU, 0x1424093dca4401e7U, 0xe6c47ab9a87f07d0U,
  0xf1f7e8f4e3b1ebb3U, 0xea02f02d26e514c0U, 0x1b1b083b12e30ff3U, 0xc00c05f8b852eec6U,
  0xda11fd26ccadeddcU, 0xd0ec15d90d093fd8U, 0xfac90bf702babbe0U, 0xdf25c714dd002a0cU,
  0xf91f3435e8d7151fU, 0xd1130bb2db0e2204U, 0xf4f1f4ec1be8ec49U, 0xd2e5f30ef2f406e4U,
  0x31df0f10d518f9ebU, 0xf609ee07dfe52d0eU, 0xeffa21f0110723e2U, 0xfe0c0de30f0f0227U,
  0x3cbaa7280417fdf3U, 0xd81e12e828f72c15U, 0x1afa30c632ea1381U, 0x12f9d4d30de32f0dU,
  0xc7a79a272d1af30aU, 0x290ce711e824d5feU, 0xefe7ecdd11e7f651U, 0x112bcd37e2ee17ecU,
  0xb1b032b211d17f6U, 0xf9f00c13fa2019ffU, 0xfbeee9f11bf7e600U, 0x2405021911d3ece3U,
  0x1bccd7241f12ee11U, 0xf2151fee08f7f1faU, 0xd414f8edf9fe08f8U, 0x270610effcf6f5ffU,
  0xcad3d8fc1c2bdef9U, 0x1d19e738e70fd403U, 0x18116a808d9b63fU, 0x1e0fd92d1ead3512U,
  0x6082b2ce9f41618U, 0xe40302b0ddeec70cU, 0xf2f5ee97e3f01ae1U, 0x3aeefd0dfdf21d28U,
  0xb2de16fe373c06ebU, 0xe812da3115e1b913U, 0xc12009d0e64b3bc3U, 0x27f46ce31821e517U,
  0xaeea06d40825e3e3U, 0xeb28c65d3b0ed022U, 0x215c11fbf9c545ccU, 0xf12be62ddb7815f8U,
  0xa24b9d5b1fc2f1cU, 0xf2cf1d2508ad18fbU, 0xd31f7c4eddd4cc8U, 0x419f61c27db0a18U,
  0xb44e3df4f7ed0b30U, 0x1e17e403abe5ec25U, 0xf633dc15030eed3fU, 0xf9ca3effd70dbbfeU,
  0x437420a13d2160fU, 0x8e1d826f6f3dbc3U, 0x2115034efd220ad3U, 0xf03414e48febfe02U,
  0xe01001f20086d903U, 0xfff6f71d5720e5f2U, 0x3319033026f3eaa9U, 0xf634fd24d1f915f4U,
  0xb62c62e047c01730U, 0x9f715c00d18d0e1U, 0x1ff5fe2fed0ceef6U, 0xe7d0f033e43404e5U,
  0xae3a7f1d11bd0e35U, 0x21dee1aef4fec5b1U, 0xdf440634092b1ad9U, 0x9e3fadf0ad6eb04U,
  0xfa19c4d307facdccU, 0x322ee52f00f62605U, 0x91d330bf1ee11f3U, 0xce05e8ddfdf727f6U,
  0xd145230c0102eadcU, 0x12e403f2e8e819d1U, 0x60edd4922dc06f6U, 0xfcdde7e6f9fdfaeeU,
  0xc9205be2ccfad611U, 0xf2fbcaede008ecbcU, 0x4e527ee2c512801U, 0xffce7d608f1311fU,
  0xd2e804f0f7eb1e0dU, 0x151618e8271808dbU, 0x31daf9c6f50fffe3U, 0x1a25fd1de3f135d8U,
  0xb62ae0f60bf4100aU, 0x1e314e41af8ecf7U, 0x28c80bc5d10cf2f5U, 0xf61ad217c1d4f1feU,
  0xb5163a1cdc0a1d2dU, 0x160aefe5f9d9dae7U, 0xce51cc8e522c716U, 0xf227dbf003e80d16U,
  0x1af8b5251d1b0b14U, 0x170e36060ef522e2U, 0xf9f0d2de0de0c0e2U, 0x241011ed05ca16fdU,
  0xd609be10e4f6d2eaU, 0xece4feffd701ce22U, 0xdfd7e9b5fbe5f2e2U, 0x824e8091ac2f1ebU,
  0xe40cd916fae81de5U, 0xfd022c0e12fcef33U, 0xddb4daa0e7abaf3eU, 0x2a2ad03873e2f12dU,
  0x30e11008c97f1b2fU, 0xfe37f1fe030fbe11U, 0xacc0e481f91edd16U, 0x10d30cdd56f90604U,
  0x7dde8db056ce7e2U, 0x1d3ade40fad6b30aU, 0xceffd2b3084106d7U, 0xef318e4fbfefa02U,
  0xedd5e1f72f4bc8f6U, 0xf106f8751f19d51bU, 0xebd21cf11ea20eebU, 0xceae80112031bf5U,
  0x24e39e11c817f7e3U, 0x415ffebd205eb26U, 0x1ad51ecc18c614d8U, 0xea21deea2ff234fcU,
  0x18e6d8f0e6f8e9deU, 0xe4e71301da000811U, 0xe40433f837ea12ebU, 0x1dfc0f090ff13528U,
  0xdeb5cd190932d51bU, 0xc1a0407052e0038U, 0x1deb2ad9081331eeU, 0xec270f0f04dcf2faU,
  0xe3e0c20426df1b2bU, 0x2edc0b27e32f1f1cU, 0x36e105e8fae108e1U, 0xca30bff8d6f2fed3U,
  0xb2334f50ac6271aU, 0xfad92c0fb2fbeb0eU, 0x4bb21fbfaeffd1fU, 0x1600d11dd29af3e2U,
  0xe8167fff0ddbf714U, 0xe70919cee61aef1cU, 0xf0240b05093ce3c8U, 0x210356def244d4ecU,
  0xdfea55e1fed3f500U, 0x81b1f3e401bddfaU, 0xfb49083021192cddU, 0x1a3410f1cf3de1f4U,
  0xed2120071ebc2601U, 0xf1f7fd5611e6120eU, 0x22240401e7d01deaU, 0x10ee0e0f08e70c02U,
  0xf5c58f00af0fa21U, 0x2aff0133f2f610feU, 0xfc0bf109f1b9d302U, 0x220604fae9f5fcf5U,
  0x8ebf101d2fff33aU, 0xd70c0901daed1fe8U, 0x170d1e26edeaf8d9U, 0x120dce07021632d8U,
  0xe413ff13ec1ff13dU, 0x2afb26e6e5e81e2eU, 0x35fc201a26fb0fa0U, 0x23d1a23f4141500U,
  0xef285a1cd3f22f35U, 0x13e81bd826160affU, 0x41d715f8191137e9U, 0xe0f8cb0f00c30528U,
  0xce29d22ee607e02aU, 0x22e8ee12f4edf505U, 0x16fc2c121e00eaceU, 0xdbf3c305d2caf6e8U,
  0xef43f41e21bef22bU, 0x20e62dd4c6f00e25U, 0x35c6112e13e302ebU, 0xbe068140c9c7faddU,
  0x3e32040303eb31f3U, 0xfb82eb7fbf914d7U, 0xb8e5f9f227bae607U, 0x402406343da9111fU,
  0xf9e92bf9246fc10cU, 0xedfe1518f500d707U, 0xd1630b132bdfdef6U, 0x4d20fccc3a00db25U,
  0x42e0b6d2f910abc0U, 0xf5301d56dc111cebU, 0xc66c08f3e7ee24e0U, 0x28e324b42918bb28U,
  0x2af71fc20c2dc6d8U, 0x15470278cddccc0dU, 0x38f6f2f3e1d3c263U, 0xf712215edbe2fae3U,
  0x2701482acfc3182aU, 0xbfe2d2d8bdece9e1U, 0xfb0124e9f3fb1424U, 0xdb14422ca83700bbU,
  0x1fe4272397cf0317U, 0xd2cfffdb1dac2620U, 0xd56c3f4401f139feU, 0x2d2e0819cc2bf538U,
  0x29e403eb04b9d210U, 0xfaf31f0a0ce51346U, 0x13a410eff991d643U, 0xe1fcc83cb8de15deU,
  0xe5321b10cab2330cU, 0xeee30dd0c4d1d1deU, 0xe2fe272707f81d3fU, 0xfcff0d38b514e3e9U,
  0xca2807f100d6f305U, 0xeed301fd50e9e80aU, 0xf4370b26314907e3U, 0x70019f6ecf633f2U,
  0xc5cf270f0acc12e5U, 0xee2d150027f5eaf5U, 0x26c209b52281d411U, 0x1b0e9c0f2fb22df2U,
  0xb82d242fd2063c13U, 0x28ebe9e4b6d70827U, 0x25eefdfdd90116f4U, 0xf20ce41bf80509e5U,
  0xefdf1e0e22f6feceU, 0x2fe0d80316f20409U, 0xd0112f4fff9f7f2U, 0xf0f21c10e6d9df1bU,
  0xccfe2019f30a17d1U, 0x8e7e8f53ce6f6deU, 0x1ca7d9e6fff2c0cdU, 0xbc8f5f308fc0513U,
  0xbd031bea3c4ef537U, 0x6f80e1ade5c1306U, 0xedd3f9ef020ef017U, 0xe001df1afb04130dU,
  0xd1f2ea114c111100U, 0xee2906bb005a2705U, 0xcbdb3630f9d90133U, 0xccbfb44adf219f1U,
  0x4ca82e4648b20509U, 0xed4107d7475827feU, 0x1dcafdddeb29312aU, 0xedff3a40391be5ecU,
  0xe21dd51cebecffffU, 0x606dc14d1e4f7fbU, 0x14cf200e150cf13aU, 0x81df04f81d1030c0U,
  0x4b02e6f6aacc1ad3U, 0xeec6f7cfb4dd39d9U, 0xeeea473622dbf315U, 0xebbfcb5bdc1c1dc7U,
  0x7a18d610a1e9f9caU, 0xc5df29b985001afeU, 0x9f0ef4e804130410U, 0x40f247f94441e534U,
  0xfc1fdbc6348f9deU, 0x2920af3e4c19c816U, 0xd5360413ff1655ddU, 0x161c7ddc196fc7f6U,
  0x3ad1a1b2313d9ea0U, 0xe1e7116d5f192ef2U, 0xf71a2c0bf6e21714U, 0x4f0c35d41f510615U,
  0x55eaf7e526f3b3d6U, 0xfe23211cc6f7fdebU, 0xd1c6b0fbd90bcafcU, 0xf425e3134019fbdbU,
  0xd1f71a24171b0126U, 0xca37f2c51fe223dfU, 0xbc1cdb1efe27b170U, 0xb30f3111ff6ffeeU,
  0x4fbbfe33f0353025U, 0xe2fd2fdb43e534ddU, 0xb34f419d51bea0aU, 0xf030faab173a10faU,
  0x36eae5ffef1bcc37U, 0x103e31ed5bee2de7U, 0xde3bd08be1bf42cU, 0xd2bed1330a0e0adfU,
  0x1c3bf30ff9be46f9U, 0xc80c17bc2aca03aaU, 0xd5d8ee12af14c55aU, 0xdff0cb40dbf602cbU,
  0x5f271604e4bf31caU, 0xa8e92acf0bec03cbU, 0xf018fd33def7dcfcU, 0xf9081415f8d6f7e4U,
  0x4327fde913ed19f1U, 0xfb28eff92adf02f1U, 0x11e0f4e7da19d123U, 0xa1e0a745e5e837feU,
  0x414cd1e26ba3b02U, 0xf0d404811df901eeU, 0xcfb1c806ecf50006U, 0xfc14e728dece3a0dU,
  0x2ec90212171c0bebU, 0xacfd2e8813ecfdf2U, 0xfadc1226e4e8f521U, 0x2621dde625e0f849U,
  0xf2c4ead703371506U, 0xd919dfd8fcd4e52fU, 0xfefeb22d6e0f2e3U, 0x921f205f7d3251dU,
  0xdbf3152002302620U, 0x3e1ef16e808fd06U, 0xe51615090d1108dcU, 0xdde0fd070635d927U,
  0xeeb22bf3191add1aU, 0x12f7e00c2c01160dU, 0xa43f41108132abbU, 0x144403dd3b1bfc28U,
  0xf9c12f11122eb703U, 0xfec0c0c37261b18U, 0x10c6ed1107b60426U, 0xc8f59d13f399f4d7U,
  0xe7053aef08e20028U, 0x2c51ce2a8042200U, 0xfcc01301d9d6bc23U, 0xd306d22225cd1cfcU,
  0x3a25340dd134063aU, 0x2acc0be6d4db23e8U, 0xf23400360518d90aU, 0xf70826de3b0f1d1bU,
  0x41d0312fdc081602U, 0xfc0d2a222cdf4227U, 0x22a3eab8e5b1b52dU, 0xf20b90b0bc9f1f3U,
  0x1a300608c9283d1dU, 0x2f17dee7b816e6feU, 0xc1bcf1c8fdaec624U, 0x14e2110f1612f80dU,
  0x22fc34e6d155281dU, 0x21f7c82afbe010dcU, 0xd044e62bc5fc1e30U, 0x22ea44034f64c813U,
  0x282254f3b67fcb0aU, 0x1140e844e8b70f1fU, 0xf8ec05ea0a18e620U, 0xb4e63b15f242f0ccU,
  0x3df3c20b81d416f0U, 0xcba215f5d2c003dcU, 0xeb14f6010bff002cU, 0xe1e31d0acf4ff5e2U,
  0x10feef08c4cd1d00U, 0xc8d504eff0bb0700U, 0xff350910f8f90a20U, 0xfe0aef06dd1a08efU,
  0xcd8ea1a01ed0306U, 0xf51005ea1bcc111bU, 0xf08ff09ee0b0606U, 0xeae4f810fb181ae4U,
  0x23e9caea0ccce5e3U, 0xeaea15d404da11f9U, 0xe7e60c021ffef5fcU, 0x8eae2ea0207fe09U,
  0x11dfd90d13030016U, 0xe41a0efefb05f3eeU, 0xa251a1ff505faf3U, 0x1cf7ec03f4031504U,
  0x13e7e8f218f1f2efU, 0x10a0e1511051114U, 0x1ee50c1003e6f00cU, 0xce1bafff05edfbf2U,
  0x400c704e9ed0205U, 0xdff722aceb271ad9U, 0xeccf1aec12d8040eU, 0x2102b80023cc1830U,
  0x15dce017fa0d1412U, 0x123314c6cb06f0e8U, 0xfdd11eb0ff7fbfdU, 0x2406fe0d13cc040eU,
  0xeafae9f80923f1ebU, 0xf703f90cdd23f2f6U, 0x36f5fc452df93d98U, 0x18d706b90dfcdb2eU,
  0xa7b2ed124a9d22ccU, 0xf31d3aed4ddf1628U, 0x1d02363e30201aa2U, 0xfee4ce01e7c52815U,
  0xe9aa131762ac12d0U, 0x47e33527203b1f34U, 0x2c004c16f7d64abdU, 0xdc3e02f6881735d3U,
  0xc817ded824b8e1feU, 0x4bdaddd81a72d4daU, 0x36d6edfd04c1f4e5U, 0xdad8de3fe1d9160eU,
  0x3dfb081eefbf3b24U, 0xfaeff4b8e4e2fad6U, 0xfadede13fde3ab35U, 0xcdd9d711d0d92308U,
  0x17fdd844a7bd0140U, 0x170af0a1a42c29fdU, 0xfdc13af8349d15e7U, 0xfaec9609eaf94452U,
  0x5db1da1ef8db0814U, 0x233fd5b4e919f0U, 0x9a18e011ba2e16e3U, 0x3a085bf9ea40e04cU,
  0x15b2c1ccf875b302U, 0xf0ddaf4d6881f9fcU, 0xed4a39e4e8fc102dU, 0xfc026ddf1121aad5U,
  0x3fb7a2a9b569e69bU, 0xf00fee5406b107e3U, 0xcf17182f129829f8U, 0x40b91dfe0c46ece3U,
  0x61dab7dcb622050dU, 0xe80c335b99bbf917U, 0x1304f7d3efd809f7U, 0x16d9dff4d02d07U,
  0xcd1ee9e6fdd3ce0cU, 0xe081ce9220b1df7U, 0x1df624d41dddfeafU, 0xe8dff3d709ef34f3U,
  0xc0c29bdbdb1ac31bU, 0x11f810f013f00f0aU, 0x22fbfbd02af4ff9dU, 0x90be0aa18e01b37U,
  0xd2d5950bf409ddfbU, 0x26ebd7f5f4fbb9f0U, 0xfbb7feece3d1f020U, 0x1debdcd817b4d9e2U,
  0xd7d5f5ff022bed23U, 0x181a2215f9e70511U, 0xd7ccf7afecfae1e1U, 0xfbe100cef2dfe4feU,
  0xbfdbe7d8f409e3efU, 0xf126e8f0cde2dce5U, 0x7f4fee80303d7d9U, 0x13f21ac81738fb12U,
  0xcdbde6ff1e34d5e5U, 0x2337e63402fdaef1U, 0xf4c002a4d7f1c911U, 0xf307fd0035fb1329U,
  0xd3c7e514f3070228U, 0x12ea03f303f6aa05U, 0xecdd7bafb1dfde8U, 0x3a19450008e2f5f6U,
  0x9fe7e1ef2618e5e6U, 0xaf4f8120510a422U, 0xe736f2080a7f2de7U, 0x35f43ca91d37ec14U,
  0xc4de14ab054ebddaU, 0xe402fa3a4307a5efU, 0xd5fdd303d606fd18U, 0xbbe13c11293cb481U,
  0x36f510c69c16f6d5U, 0xd2bdd908b4b2f0caU, 0xe09031d0b14fb41U, 0xcfbe3129d12d0ab2U,
  0xf1110cf89e7f4f3U, 0xaeb90108dabc200cU, 0xe120b29d5fee34eU, 0xebda0cee1b5c20f1U,
  0xf8f9eee8e6e026f4U, 0x4ebf4fa08d2fbdaU, 0xf4ea11061255fbf9U, 0xe6d62cf42029f7ecU,
  0xea11b6d722d0fbbfU, 0xcbce130600e6ef05U, 0x9f7212f2243102eU, 0xc3d41700d0081cc7U,
  0xec03edfc2dbc1e06U, 0xeae120ef370e26fdU, 0x21122f20e2d08f1U, 0xec0305fecf0819dbU,
  0x1510ee0517f6f8dfU, 0x21e604c81d2312d5U, 0x2ee4181effe2e630U, 0x8cfdc516b5dc35afU,
  0x29ffa811ea842be8U, 0xb3cf23b69bf506d4U, 0xeee6081531f3e019U, 0xc8038efef9ce0f07U,
  0x27e1b7f51fcb1ae2U, 0xed36128af2512ef1U, 0xf5d61701fabdf6f3U, 0x3824a51201ad0c42U,
  0xaf6cf014128f6e6U, 0x34b0fc0d426eed7U, 0xfa15343b1c4f4facU, 0x737cc0b0ce0132fU,
  0x9503eaf62915f526U, 0x1a1e042d730ccc35U, 0xf7c5e104d72510d1U, 0xd437fc310ec620eeU,
  0xdc5c2716fc22132bU, 0x38fa26f10f38d4efU, 0x2cd3c1afd203b324U, 0xc20af31b02f6f0c2U,
  0xc87f45eeb2263e26U, 0x2c6d9cc19c2b5bbU, 0x15de283028ee0fe7U, 0x271be7e7128dfd2fU,
  0xf6f5d1fa34f4dbe2U, 0xeb07fae81704fbfdU, 0x1c05e3da10e511d6U, 0x15e1fb0206b81838U,
  0xda0ff50dfb040e14U, 0x70b1bf8caf2df0cU, 0x13cb00d9cbe607f7U, 0xf5e2e0041e1ae8f8U,
  0xd14bf6d9ec040b07U, 0x13a2d10df00fccc8U, 0x2133e40300d5e2d3U, 0xd7ea18070601dafbU,
  0xe41f1814d8171df3U, 0x10e11fe2eef815fbU, 0x3105d106dee9d3f1U, 0xe3fd0c00e0f12ce3U,
  0xdd1be0f3e7d3eef1U, 0xf2dc36ecdf1cf91eU, 0xf7d9d110d9efda21U, 0xbfffd22de1020d01U,
  0xdd32fd00011d0804U, 0xe50926e5ed2e1bf7U, 0x235ec203dea13e8U, 0x202103f9e61b602fU,
  0xc82703201719e628U, 0xf504ec14600f120bU, 0x27052ce837271fe6U, 0xd62af5d40ae13100U,
  0x9004d0f911d4fcf9U, 0x37e2eff4fe269a2dU, 0x32ba03bdf7ddfeedU, 0x10efc3fce7cdcbf1U,
  0xc80fdcdfcbed40f5U, 0xf2dec9b4f801cdb5U, 0xd5ece7c901280ff6U, 0x432034d6e6d5d912U,
  0x2e0cbfb2de8f613U, 0x2d04de3b1a01d71dU, 0x2429e5b1e41d19daU, 0x23f10513dc130af5U,
  0xd6e0fbd4e10f01f4U, 0x1b1bf90df51fdbdfU, 0x55e9d3a6d5e3f0fbU, 0x12e648f8ef1a07f7U,
  0xb00fe6e5dbf81ddaU, 0xf7f4f13bd3e2c4cdU, 0x13ced1cde068fe47U, 0xd7cfec1e0aeb1d1dU,
  0x92e9e215030624f3U, 0xe903fe0b010ac834U, 0x20f7e00fed6e2e4fU, 0x2214420524061b2fU,
  0x811dfb451fe42319U, 0xff08e231191ee450U, 0x793afc3afb78532fU, 0xe831230111065a02U,
  0xc7f81f3e122a3004U, 0xf8043bfc52070659U, 0x70cf5c903ce0acaU, 0xfe2fc31903b81531U,
  0xc4fd22f4c514d9e1U, 0xf0141116e6c7cefaU, 0xf2b2d6b51bd1d741U, 0xc90ae3183e11091cU,
  0xdf1d09feb30af7e7U, 0x241d06c7ace3cedfU, 0xca20a50dc8c7c376U, 0xdfda52323d590c0aU,
  0x170c12e0b9f0e1f9U, 0xcbb6cae1d9a745c8U, 0xed03d8391f0ef4e9U, 0x2e2ff206eee30b0eU,
  0xbd0718cf111e0026U, 0x3908e7ed340fce30U, 0xddc8f9a4eee41bebU, 0xe8d5ff1629f01d1bU,
  0x812820e92a57d02fU, 0x5fdd4cdd3f9e21dU, 0xbc12d935f4e49c37U, 0x18bc0a003c17dbd2U,
  0xe6dc08071405eafeU, 0x623c619e9ce58d3U, 0x1d36f418fdf214e9U, 0x19f1bdeddb03ffe5U,
  0xfd2824f9fcf2fce5U, 0xa2a2ebfba292fd7U, 0x5b91eebf7a3e7c5U, 0xc1abbeaf3c0fc1dU,
  0xaa141a26f7d4e233U, 0xbd9edbee62affc8U, 0xc8e5f0f9d1e3884dU, 0xe107002fa910d9d9U,
  0xe4ed2726f6ed1c1dU, 0xec08d0a7e60e1a05U, 0xe6b51ac0d2df1441U, 0xefe9e32113edd84aU,
  0x3bf60d13cb26e723U, 0xfa06c713f413cbd9U, 0xeacfcd81e3e4ec19U, 0xf7f6210850e6fa01U,
  0x65c71ce6c674f105U, 0xbecd4e2cfa9bad1U, 0xcdcaeb9801352c0cU, 0xdc869cf0b372106U,
  0x17db9bbab151b8a4U, 0xe7fefb0011dfcb07U, 0x2d3928241d3af5e0U, 0xed142a075b1aed45U,
  0x44f11ce310142f24U, 0xd191ee920d6d335U, 0xe5c910a61d11fe09U, 0xf810e803440de4d3U,
  0x130237d0fb1cfdf6U, 0xf10a06e70121d3f0U, 0xc5cb008ee323b505U, 0x7f22911d71be3f0U,
  0x1be206163217f60aU, 0xcd4507c7eb44ebd7U, 0x45f82631170a03eaU, 0x2324011ffddb2829U,
  0xdf16d629f1d9173dU, 0x31f82fee2b2cf9ebU, 0x46e010a521bcfb11U, 0xf9f0f64106fc07ddU,
  0xf00b38f80705fb35U, 0xec191bb5ef22ef00U, 0x358ee3b01e06d342U, 0xa3f9dd5cb43421e3U,
  0xa49e63400940b39U, 0xe9d4f2d5f704cdc5U, 0x1002062510d404f1U, 0xdcf4031fe5d2fa0fU,
  0x4f1220ed4e2e209U, 0xfbd2fbee090d1c19U, 0xff05142922fc26d6U, 0x161dd8f5f5f326efU,
  0xe1f21d080b01ef33U, 0xf7e203e1610d3422U, 0xe7143648004132e8U, 0x103c1ed7d10b2817U,
  0xe3cf0e322ad4db16U, 0xc1b19f37f091a0bU, 0xefb50905f6e80900U, 0xef30e14eec70a04U,
  0xdf4f8000808f901U, 0x1bcde11b06eb0209U, 0xf1cd0f011410e6fcU, 0xe801e5f9f1f1e8fdU,
  0x1d0dd7f1ebcfe602U, 0xf701fa04c6ff2405U, 0xedf407fd0addcb17U, 0x9000619cb060aeeU,
  0xfdcc0a12d4ff1ad2U, 0xec102ee008ea21e3U, 0xf7a5d2d411ede025U, 0xfef193625c9f009U,
  0xfbdb221adf38f914U, 0x8c6fee901adec03U, 0xc2bd5e70d29241eU, 0x6dc0e06211fdef9U,
  0x10fbe3f0d231e0d8U, 0x2e8e41b18ddfbebU, 0xe7ff01f7060bf5feU, 0x14db16fc3001ec27U,
  0x27d5defeca0a0cdeU, 0x3f3161009d40006U, 0x172cfde5112c2bccU, 0x142013f0d3fc1019U,
  0xe5e3dbd5eccde3bbU, 0x2ee1e2060c02ec2fU, 0xe92216e301f23011U, 0xf7e51ee916f2081cU,
  0xf5313609ed1008e6U, 0x1d05da3c19d2f502U, 0xf318fef31523082dU, 0xf405fe05dcfa0002U,
  0xf82e23ffe60802f1U, 0x712160dfad41ff6U, 0xfa12fb172026fedcU, 0x240d06f11de90210U,
  0xbbb6c4ed04e9dd1aU, 0x10fa07ecf9f8080cU, 0xef1901f0f81d09e9U, 0x2a2125df11fd0e23U,
  0xede5def7230bdcfdU, 0x2614182733111006U, 0xe00cee1816261ae6U, 0x30225e1101a141cU,
  0x1de4ca1afe0ee71fU, 0xee03072c14f30621U, 0x1ccd0ddc06bce333U, 0xcc11d026e1f108eaU,
  0x3b13cb26b9b71904U, 0xf7da22e499d511e7U, 0x7b6ff0907c4de22U, 0xc9edcafcb5e0efefU,
  0x321fff2fdedb2c27U, 0xd8d226a8a5f00f12U, 0xfec717ec16d6051cU, 0xe129bd0fc5fd2803U,
  0x25edd71c13cdf820U, 0xe2e90281d20f291cU, 0xea2a0a23f51cf392U, 0x9072eb5dd1bedfcU,
  0x94f37f022ea0e0dcU, 0xc22f8e51f001020U, 0xfdfc1224f52d1384U, 0xf11203a806f50d15U,
  0xd3f3501204ecf2f6U, 0x120d04f62b1813e9U, 0x31602060512f6b2U, 0x1519f9c71cf8ebfaU,
  0xe34c04e00fedfd0cU, 0x14f0f8f9272008e0U, 0x4eee3d6eeda01U, 0xe3de0cfec812f9e5U,
  0xffe21ee2d2fce8d0U, 0xcc06eeec21caf5e1U, 0xf70ce5fdfc27e6dbU, 0x11f34002db31edebU,
  0xee90bf5f426f4e2U, 0xda150cfd0ef71511U, 0xe824ed1b0a1f13feU, 0x1e630ed2721e30eU,
  0x16dcb6e3fa2706e8U, 0x10d100824ea1409U, 0xf4e2e3dbdaf1d5f4U, 0xe0020d0002fe08ccU,
  0xfcd4cb0dbfdd0ff7U, 0xbfbc08dccdbbf400U, 0x18eb1be8fed4db08U, 0xaf05f023f0f427d8U,
  0xf2fdd12abfe213eaU, 0xceca03bfd9d3fb0dU, 0x8dffdfdf7d60aeeU, 0x90dc915e3070607U,
  0xeccdd200f314fcf2U, 0xd01018adeb020cf8U, 0xe33d08fdd5fbdef2U, 0x25f8d729f2af1ce5U,
  0xdd3012ee1ef4e3d2U, 0x2c421f00c51013efU, 0x2ecbf8d8c5cc0e0dU, 0xf61df45ec6eed0d1U,
  0x36b1b1fc9e52708U, 0xededde3dbfb04acU, 0xe0dca5bf97e7b425U, 0xb1b4e173a2c7d8c5U,
  0xec7f66d0d7d130f6U, 0x4a3bdf8f8ccedb9U, 0xef112213e3134001U, 0x141cd704fde8e1fbU,
  0x70298fa1719ce08U, 0x31f01302ee05e233U, 0x15f71af2e10719b6U, 0x17181104ded61b3bU,
  0x18fe94f8e226f3d8U, 0xf3e8e2e8dd2cd12cU, 0xfdfde6e212bc1c1eU, 0xb6d2e10ffef905f8U,
  0x3508d305ca36d4d4U, 0xe8c2f6ebc5cca212U, 0xe8d8112105ccd2deU, 0x1e1efb0d08f123e9U,
  0xe9e521fb1636edf5U, 0x39030affe139dc01U, 0xc2a928010208f506U, 0x3524e80a14e4f7e5U,
  0xfe07ee0ff9e4ea39U, 0x1f5405bf08f7c812U, 0xd7d1fff618b8f911U, 0xe3f8f31a1fabb12bU,
  0xbd5daf537fb1b24U, 0x334a010ef23e0800U, 0xfc0821fc0ef4f1a5U, 0xf3fec0f8f3c116d7U,
  0xb3e00e1e7f351910U, 0x36282df3d56fe8ddU, 0xfd150523dbe8d3f7U, 0x17041500170b122cU,
  0xfd1cf7ff4e1d3914U, 0x2521e2f5056525deU, 0x12f9e9120ef9ecdbU, 0xe41413284c0ed2d9U,
  0x645e6161c232905U, 0xe1ffeee6ed22f9f5U, 0x1814fb1bfedc12fcU, 0xde15f8e1deef2a0dU,
  0xee00ca0906180bd2U, 0xfc03f909c60d0831U, 0xff72c1a23033a03U, 0xf37c80b270336fbU,
  0x9f5f731ea20f2f9U, 0x10e21d2514133816U, 0xece225ff0816491eU, 0xcd27f6e0411828e8U,
  0xf1353b0ee453fffeU, 0x12f50be10fe6073bU, 0xde54d13adefe35e6U, 0x15f109f4fa2ccdf1U,
  0x1ddc35b544f3c1aeU, 0xee5e05273e34fc12U, 0xa41d91fcef71dd2U, 0x9e40ecd0c2dd4f0U,
  0x13133607fe05c3e2U, 0x2f4de81133070206U, 0xe34cdf46e3f2290dU, 0xffeb37d02b2f0424U,
  0x53631f73c2410d7U, 0x314cd2022828202bU, 0xef0711f9f52bd518U, 0xe1d622fafe3106b9U,
  0x21e8df03e4ebe8c7U, 0xd0efffeaffe507fdU, 0x2516ea15f9f0e503U, 0x10090105fc4206ddU,
  0xd0f8fbedf310f3U, 0x8ef12cb07052907U, 0xafaf1fc16da01edU, 0x1bf6f90df01d1e11U,
  0x4f31406ee261418U, 0xf2f50609eef63026U, 0x23fdfcf6e524f4ffU, 0xaff70002ce0b0dcbU,
  0xe7efcc1cdcf0ff0cU, 0xfcea06bad1dffe1dU, 0xf2180f10ed1f07eeU, 0xd0fa0f27cc0c2b0eU,
  0xf2e2ba08e1d609ecU, 0xecf421c8f3021b04U, 0x4f3fdecf1f0f305U, 0xf900faf610e91b0aU,
  0xd040c12161203edU, 0xae615f3e30a1f19U, 0x19b30ce1e6999615U, 0xbe169b33e8af180aU,
  0xf5daa134b3cc2a0cU, 0xd606198193f82e0cU, 0x4d41f06f7b5bf01U, 0x4600dc141bb60d3fU,
  0x8efac2743270c06U, 0xe6341cc9ce071013U, 0xf616e4efc908e8U, 0x2d1afb1d2fdf062cU,
  0x9cfe90b48780cefU, 0xd3ce317e71c0af8U, 0x6fef4020f2508c1U, 0x1714e9e72ce80632U,
  0xd03c6d061de31319U, 0x29f012d94de5ef09U, 0xcd1401050bfde616U, 0xf4dcfce62af41b10U,
  0xd1147af9db20f120U, 0x1b09dd0544d213e8U, 0xcc15e72eee380af7U, 0x41347bb282eef02U,
  0xe1e91406241cf7deU, 0x1f26d03f38e9e315U, 0xcd2e623e7a50b1aU, 0xe41bdbfec1da0edaU,
  0x6e9fbe3bcdc04e8U, 0xf8ef10e1e5cf18d5U, 0xbdfdde9f5fdbc0fU, 0xdfe7e0dfd2f9e7fcU,
  0x3ef5819c5f2f62aU, 0xd6fee5e50001ebe3U, 0xd51ff325f702eb2bU, 0xde1512ec0b0d12f2U,
  0x1ce548f2fa21d410U, 0xdd371ada31280ddaU, 0x196ae309d916100fU, 0x40f0b0af2f9031cU,
  0x1130b7fecef1f7d1U, 0xe42722140613f102U, 0xeccff718df07f7f2U, 0xa0eebdf3c3df23e0U,
  0xd705dffddfd3fa01U, 0xf51804d3eecf2b06U, 0x4e4f326c9dbff17U, 0x8116aa05d1e121ecU,
  0xea18ed1fcbe33a1cU, 0xf2e22294e0dd37e5U, 0x11161fdced1104c7U, 0xe9fef6e1fb1804ebU,
  0xefd705fd1f26f00fU, 0xf8d70f0620dbff33U, 0xf505efe0f8302bb6U, 0x2a3108e4fbf624e0U,
  0xd8f736171914ece1U, 0x1ce114f51c05df26U, 0x46f20115300e1fe5U, 0xc1f17f9fdd0e410U,
  0xca16fcf521f1f4d0U, 0xf90d05193306c41fU, 0xfc9e617f0c4e0dfU, 0xd616f121d2c239ddU,
  0xaf274516f9ea082bU, 0x10dd2ce2e5e704f8U, 0xdefee915d9cdc2ddU, 0xd40012e3d4133ad7U,
  0x950f1c05230aed22U, 0xd0eaf3ff2c02d314U, 0xf37e5f7ff10fbdaU, 0x50e37e1c0291ed7U,
  0xf3df05171ccaca17U, 0x2113ff2124f9fafdU, 0x28efff1eccf72411U, 0x9d27e820c0e32db4U,
  0xf38fc11dffd26c5U, 0xe8b619e6e8ad420bU, 0x2c97f1c60fc19732U, 0xa605f337cedb1d99U,
  0xe31e143381e622dfU, 0xe0af10aeddee39e9U, 0xaea1d101818e443U, 0xa414fb3cc3f92cecU,
  0x14fd1822dbb33be8U, 0xfac629d445f6330aU, 0xedfc03e71af619d2U, 0x7d60223fefdf8d6U,
  0x1302172931ff0a09U, 0xda1c0b1de13703caU, 0xef1ef5f228dcfdc2U, 0x8e80ad00feafb16U,
  0x2ad3dfdf10c8d715U, 0x1d4b1d0931140b00U, 0x180b1e1f1b1920e0U, 0xcf617cedcd80e39U,
  0x2b10d1f1390317e0U, 0x1e0b2135fd25e422U, 0xdf0d10001fc3fce1U, 0xfcf7edd1fe0ae515U,
  0xd7160122fd36de54U, 0xe0d04e4f62cd315U, 0xe01d1e0106170ad3U, 0x1122e7c535dbe723U,
  0xdf9ef31117feeaf9U, 0xddf0e11d310d1e1eU, 0xebf7ec3b26f308c7U, 0xfb28f9bd1e222f26U,
  0xe7cab3e728ded6e2U, 0x272c2139fe242af6U, 0xc923edd9f68807cbU, 0x51141fe4361aaf29U,
  0xd0a4bf4d83dbf0cU, 0x3a1def1dfe35b3cbU, 0xd21705e2e6d6e9b7U, 0x29e333d8f845e11bU,
  0xd6aa7fdbe937b2ebU, 0xf12dc649e529cbf4U, 0xdd4e233f2023fedaU, 0x9d242c7d13f0a0aU,
  0x30d4f4100dc5c5fcU, 0x1a18e7680ffcff15U, 0xfc03222205081fefU, 0xf8ec2cd80403defbU,
  0xe0f12a072bd9e9efU, 0xfe07f0ebec10ea18U, 0x81a0e2df22e2be5U, 0xed01f3d3fa2c0412U,
  0xddd5ebeb15c4d616U, 0x210bf6ed0a1c08f0U, 0x3e0b12e21efaf5b1U, 0xe529c5fadaf012f7U,
  0xc608fd0f16c5e008U, 0xadff3fbde0aeffbU, 0x27d3ef03fa0d1a00U, 0xcce9152fd3f2eeeaU,
  0xfc14d22308e134f5U, 0x17d9f1e8dc0a2b1eU, 0x51604f4edf8f118U, 0xfaeef304c81c02dfU,
  0x190c0b21e5e2f2f6U, 0xf0ef20c5e1e9fee1U, 0x12f1261a1cd7e5e1U, 0x514eae8e127ee0dU,
  0x40025ff0aefd809U, 0x92812e8e808f2feU, 0xf79024e7e28e9558U, 0xeefde623e0ba0ae4U,
  0x1e37ca07b7e2321fU, 0xc4de2a9698e508deU, 0xfef120202b7d20dU, 0xcf6e4170a1cf5e8U,
  0x2b1cf0f5d621fd0eU, 0xfa29ebc0dad92b1aU, 0xcff713d20400e9e3U, 0x6ce61cde7623e147U,
  0x3001bf70b7fd5f9U, 0xe251d9430ae7e20cU, 0x17bef5f4e9de04a0U, 0x13ea0eeedad161cU,
  0xaaffff08dc20fe0eU, 0x405e41ef01d0718U, 0xd7acc681f7aef5e6U, 0x18170715c90528U,
  0xba4431d2e244ed0aU, 0x29f3d70ad5e9bbf9U, 0xf203b1e7a4d2c44eU, 0xc6e7f532061fd3d2U,
  0xf3263dfad6e0eb1aU, 0xfc96fde3c5c1e5c5U, 0xebe222c908f2f3bdU, 0xf732f8150beded1eU,
  0xf223fa17140d1ae8U, 0xf007e013d4f2cd32U, 0x1ce7f09af5edd0ecU, 0x11903e729c90af6U,
  0xbffde0f0fc08f0ecU, 0x2a0cd60af8d5c3faU, 0x27f7b8e8ca15e316U, 0xf1123801ce4309ccU,
  0xf0faf3fb111036faU, 0xdff1bed1d0dee1bU, 0xf91d18051de53acbU, 0xd634e3ffe3fbf4d6U,
  0xf841f12c11d12b26U, 0x321d36d9cc32e904U, 0x9dcfabfedc1d9f3U, 0xba11cb2fcccde7edU,
  0xae371b2506fa2dfaU, 0x6e30ea20421d5eeU, 0x11ddfb27e020bd50U, 0xa1ea1b209017f4dbU,
  0xfe0f0516de8a042cU, 0xffab0b930b072bd8U, 0x21b8eeda22fc1ce1U, 0xef6e9211181f71aU,
  0xeef1e4fb22ca03f7U, 0xb200ee8f158fc0cU, 0xd6d80cefdece2d2bU, 0xf7e8c9200ce6d110U,
  0x2bef1eeb05f124f8U, 0xeafe13f0b8febbd2U, 0xdff0d9e1f8b61740U, 0xfc02eedb24380421U,
  0x553308dad421f1d6U, 0x17e5d60ed69fbb0bU, 0x1715171b21a8ffebU, 0xf91dfade06f32406U,
  0x3018ef2ed5e63330U, 0xc0c1812e3e1fa13U, 0xf5ef24ed29ac10fdU, 0xdded10613daee08U,
  0xe91010e0fa06eeedU, 0x2bf6ece5f11202ddU, 0x1713f704f1ed2a17U, 0xf50aecd90adf02f3U,
  0xc3eb11ebf1eeeb2fU, 0xfe080df2e631d716U, 0xf7692d2dff4a1febU, 0xf10114f10465fafcU,
  0x1438cae41bdce3ebU, 0x16e3280d2b142205U, 0xffde0c592deef9ffU, 0xca06def5dddaf31dU,
  0x92af538f3f0334bU, 0x120b01b0bbe314fcU, 0x2ae2aea22b3f03bU, 0xfc1edd13c1f6f603U,
  0x14ee3c01bd5c5eU, 0xe29ff9bf1ec2fe4U, 0x1b5e3b0d0fd885dU, 0x6f70332071ce8cfU,
  0xfe511ddde31b2257U, 0x12dfc823b124b3b9U, 0x8fce51fb016c768U, 0xadcafc18b465e9dfU,
  0x2f22430ca5f22d29U, 0xa1a4e3d2e8f424f3U, 0x1b26e8f81af24633U, 0xe523161cdc3ff10bU,
  0x3a17e6ecaea81cfaU, 0xd118e3e7158155dfU, 0x12f828b21cc919e8U, 0xfaf0d725e1ca25e4U,
  0x1bf51bd6022cd12eU, 0x2bc7e102f12fc2ddU, 0xcb0bda122900eddcU, 0xe0c6dae8f81cf3cfU,
  0xf7f9e1ff38e5d508U, 0xef011ad72d1de6edU, 0x91c314b3d7720fbU, 0xf818cdcbe7292f3aU,
  0xddc0fbd757c8d5d0U, 0x353a13fe53f3092cU, 0xedc336b23f00fa27U, 0x2c34c8f13fc10343U,
  0xde22d4e623171ff0U, 0xfb15000ea6691aeaU, 0xedd6e51c1fb9f938U, 0xfcfeb5efc3a101d1U,
  0xc7edf12bd3dc0c1fU, 0x1f92f0ec84637d6U, 0xfd11d9feda14ebe1U, 0xe3bcef3a2cafee7U,
  0xedca0a26fbdadd32U, 0x34ee04e51b352419U, 0x14fcf128ff11f5eaU, 0xec1b09f51be0f7edU,
  0xf9ff35deffe9fefcU, 0x2a3034ef045411f0U, 0xf7f225e21dc2ffd4U, 0x3211d9e4d7cf1df7U,
  0x51a53241cd6f51dU, 0xd92c26150904f604U, 0x1a40251b0a042b96U, 0x12becdccde1fb2bU,
  0x14cb3a0119f1d012U, 0x64619fc0a44261fU, 0xefc4eedb26effe1eU, 0xe0f1f02d1fc4fa24U,
  0xfe1e42a01e2cbecU, 0xc0214eedee629fcU, 0xf7cbeccf15c51726U, 0x21f7032b27c4e31eU,
  0xcf391b190321e205U, 0xf1d90c19b3193731U, 0x101d24f1eaf2ecfbU, 0xf50bf60710cd13e9U,
  0xfee5fc350e1be6e5U, 0xd9e61e1700d30b27U, 0xbc1dd0e503bbb414U, 0x320fdcf149dcad22U,
  0x4dae34d10c4da10dU, 0x311de907ef2ccbf3U, 0xb434c3ce0503e3bfU, 0x2dfc3fb3523fa726U,
  0xf9b045a9115f9de2U, 0x961d35110e5d3ccU, 0xda7fdbfec50efea4U, 0x531c4aaf1d429fdaU,
  0x2cce29ee0568a3d7U, 0xf33b206c03fdf3e2U, 0x23d504ca1e130429U, 0xa220cecd7f3fce8U,
  0x91ce317fa17fdfeU, 0xf6fe270e06f52c08U, 0xf6dd0fbb0fd1d320U, 0x30a2d3d08feffd6U,
  0xf805100febed3de7U, 0xf8c302fcd6d5190dU, 0xfab0d7aebfcebe3fU, 0xa4d4180cba0311b8U,
  0x214ae913de0354eaU, 0xf881dae3a6e0dce0U, 0x24d6f8ddf81a0b39U, 0x282205e71d1d2e17U,
  0xa12ca061c3bf61eU, 0xdbec203c0cdb21eaU, 0xf4cee7a7e0dae337U, 0xbeb1afd2b032f1fU,
  0x1b15f6f912001616U, 0xe5f60305f8f3202aU, 0x20e724dedf15fe24U, 0xfef113371e282dfbU,
  0xed25cefcd5ec3213U, 0xbf9fa24dee5d216U, 0xecb14fbe51fda35U, 0x3534f72afd292b29U,
  0x48e2c11514f40214U, 0xf1231aecf90604f7U, 0xe8b7e3baf9e3fd36U, 0xfdff1c40030f040fU,
  0x22f9d1033d1a3601U, 0xd50de420db1ae929U, 0xfdfeccd29190c3dU, 0xf720f83afcee24e0U,
  0xf5e8c53b1d2002dfU, 0x21ec04e2e6031937U, 0xfc04f3e624fcef18U, 0x607d10402c324ebU,
  0x3205f319fe29fd19U, 0xf8f00212e5dcff1bU, 0xeaec0f07f62107edU, 0x161d0ae918af3c09U,
  0xe9c7bc032014ddedU, 0xeb162709e4f0ee1dU, 0x3ff1ff92a1c0086U, 0xea16e9a903d72603U,
  0xb2d5bbfe2bfad21bU, 0xbf3f8fbe000cf2dU, 0x1ad317c3eed4d241U, 0x29e3f91c16b9e1ffU,
  0x1f1728e7fa101d28U, 0x1c0d05f4cbffe3d5U, 0x12d9ebc3dff3e00aU, 0xfffecf200f7f5e8U,
  0x26fa0a14d90f1808U, 0xf213180feef8f1dbU, 0xeafd21e8fe06eecfU, 0x18ec20defaf1ea19U,
  0xe7ecedf5f30a02f3U, 0xfff81f15e404e8f9U, 0x981f0da1eddcc18U, 0x120fd50ef8cd1a2fU,
  0x6f42c01e10d2f2bU, 0xde013edebe5cfeaU, 0xe8dceedc17f7f026U, 0x18da341af9f5fef7U,
  0xf9eef2de04fe07f2U, 0x12efd8342618d607U, 0xf7360a45293752e0U, 0x460749fe38060429U,
  0xfc0513ec1812e003U, 0xea25e91f65ec0a00U, 0xfe1fe219fa0e05faU, 0x141f16f30d1d0c45U,
  0xc4d115f8f424cbdaU, 0x1f18d41634dbcf1cU, 0xedeeed1200221afbU, 0x3ddf10e22709fa34U,
  0xa9c651c641471216U, 0xf71fd92cfed7d2faU, 0x1223cdf6f33cfcf1U, 0xf40819e6391ceb30U,
  0xe0cd15f54127f017U, 0xf72e1f0e4c31ef00U, 0x20dfd213f425df1bU, 0xbce755ea0509feddU,
  0xc1a27edfedffc17U, 0xf2dee5e628eaf8e3U, 0xfa1cc0ffc206d819U, 0x2eeec11e50e21dcU,
  0xfff92bf80ad52326U, 0xfd0516060c1efee0U, 0x14d4c6fcf706d83bU, 0xf50d2424e8dbe3f0U,
  0x1ff848e7161b36daU, 0xd7141ce0140bf001U, 0xffdc0ce5dd37e9ebU, 0xeb2a23edff1d1efbU,
  0x92ffe1de4df26d1U, 0xdcfcf3271d03f31eU, 0x36adf52bf102cd40U, 0xc717a843bbe60fc7U,
  0xfb4bfeebf90d2d01U, 0xe3effcd8000c300dU, 0xe0ebdad6d3de3cU, 0xd924b62bdae514f3U,
  0x264c0420dcd42800U, 0xd4d2f681f8ca3e1cU, 0x2a40f4ef0ee8e4c6U, 0xfe2125fbd5162aebU,
  0xe0bbfc2ce4b5d810U, 0xd8070a1e19c72e1fU, 0x1836360b3b1323c3U, 0xf8fb1ed9cede5907U,
  0xd708fe02f3fb0d0aU, 0x24e0190829df0044U, 0x1af80b0e0b1723c2U, 0x1e29fb29f3192c00U,
  0x172c072a1adf2525U, 0xeb23102439ea0523U, 0xfef8f01beefff3feU, 0x15ce29c2ee44cccaU,
  0xf4dc1dd116d6acc2U, 0x181b04e72c0ff60bU, 0xd7350d210ce9f3b8U, 0xecd147abf418fe04U,
  0x2fdeceb35dfe4b2U, 0xea1f0f2018fe1bd4U, 0x113010fd1bf810caU, 0xf7ef1422e8030be7U,
  0x51303dc07131cf3U, 0xf24e4f41f0d13feU, 0xda30f102d02b5faaU, 0x25e67fa14021c51eU,
  0xa9ccfec02a51a49bU, 0xe118ca0a5d1dbbdbU, 0x313e4e7fc5960edU, 0x42e878be134dd701U,
  0xb3bffdc64802aebfU, 0xf5fad9372fd60327U, 0xe27e71aeb2849daU, 0xafe4d04155ffc14U,
  0xde0bef140300f0eeU, 0xe003dc550cf4ecf2U, 0x2cd50fd1f3dd0830U, 0x39f7d94453c23a05U,
  0x2503f9201b301a0bU, 0xe516efe0d0eb03ffU, 0xcbadb7c0bdf29c11U, 0x9eed52c43122129U,
  0x2d563df1f94d2ff1U, 0xeae6e2f5fed2d3f7U, 0xe22fcfea011ea439U, 0xbd8eb4b06cbbadcU,
  0x25f322f4e5261ed1U, 0xc9d8f1f0efde23f0U, 0xe3ddd701ec9cf5dfU, 0xdfefc7ce06b7ee43U,
  0x3eddffc91d2de014U, 0xe2f0728e1131037U, 0x1be1ce0fcc2adb5U, 0xdf31bbfa49dcfc26U,
  0xe113dde6df410f34U, 0x2bd4cfedfc1a1633U, 0xc3f12600f0aafdf9U, 0xc5f8110c08b0ec1cU,
  0xcffc1ade04f1020cU, 0xb7e91014e602f425U, 0x21ec0108f6392be0U, 0xfb340ed9271f1526U,
  0xccfc1be80811abdcU, 0xfaf1d418da2c0043U, 0x409a23fa20e214d5U, 0xe0fcb0ce1bcffffdU,
  0xb6ebe014c1ccebe1U, 0x20cd3197e1fbf514U, 0x2981300922e5d909U, 0xc5c9991db8ae27edU,
  0xd3dd2435e9ba1b08U, 0x11011b9f9a1b10d2U, 0xdbcd140822e1dcffU, 0xfecf0bb390332d09U,
  0xdfdb2afe01baf2a9U, 0xac081cbe20811016U, 0xf324243a4605efbbU, 0x38d921828a2c2b25U,
  0x82d1410c609ae3b4U, 0x62a10e71f1a17e2U, 0x120f01c192504e3U, 0x9f202d19ff7f9feU,
  0xabd3df1a60c5fef1U, 0x1f40e0082335ea06U, 0xd6ffcce3e4ea3311U, 0x12b51ddaf118d0f3U,
  0xdd517b310f4ddb9U, 0x630a312310ce9eaU, 0xe203d5edf22d1815U, 0x25bb29fddd43d8f0U,
  0xc5e3debc2b0d0895U, 0xe50bf8ff5624d3eaU, 0x2920cf0fe00f350cU, 0xeadf4333a202e1bfU,
  0xf5d3dacde8a91aa2U, 0xe0d9fbfe17e015e4U, 0xeccf0c82a3e37f6U, 0xda171201faf10813U,
  0x91fafed21130d9c8U, 0xc0eea1e252bbf2eU, 0xdce5e923f825200cU, 0xae72aec1509eff4U,
  0xc118e2e705e91214U, 0xc50309e63133e3e9U, 0xc03e131222d1523U, 0xf8df3c38d147261cU,
  0x509f41324c612e1U, 0xc1ff19106c4605e1U, 0xf6eb21ec07e2f316U, 0xeefcd9e1161ffce7U,
  0x4ff4f323dc11eeefU, 0xe6101fd5dbe51801U, 0xf5f6f3d7140ff6b3U, 0x361fdfbe0ad32526U,
  0x2981b3e53336d106U, 0x181808ec15f3e531U, 0xf9f805e818f70993U, 0x1614e7ca0bdd3119U,
  0xc18ba6f71c13ce06U, 0xfe0bf70ed61cf51cU, 0xf7ece6f01c0f1112U, 0xf8eff8fd08ef0e0fU,
  0xfaf71f13f61afc15U, 0xdfbe718e51118feU, 0xf8d4fadef9cf0e26U, 0xc1b0b171bf5f2e5U,
  0xfe0303e5080305f2U, 0x7261711f70e07ddU, 0xf0e0e80ce005d111U, 0xff1ff1d30bfb0605U,
  0x25ebf8edf2fcf0e4U, 0x1e0ae71ce5f90b05U, 0x379525fa1ee4ef1dU, 0xe609d021d9e20cf7U,
  0x63e092209061625U, 0xfc131cebda180014U, 0x6c8dfcf0f05f51bU, 0xdee91519fad92b05U,
  0xc90f1bef040b121bU, 0xebff01e11617cafdU, 0xe82b0302de2f401cU, 0xcfc24f91712e116U,
  0xd0822f3242020f4U, 0xde50e0d480012eeU, 0xf334eb0a0e89df28U, 0xd4d31c26dd69edb9U,
  0x4e1627e784f80ac3U, 0xc1e2230bb4b437f9U, 0xd54dfd13d0d1d317U, 0xd16f1310a2dd6f6U,
  0x2311f6f8c51204f7U, 0xfdfdf22ae781e831U, 0xfe04eae606d6e525U, 0xffafaf2fa110508U,
  0x1dde06e81c0af20dU, 0xdf0cde0eccc5dc2dU, 0xfd490c2ff740270bU, 0xfb1b1ad9021bf030U,
  0xdce4e5080c1bf019U, 0xec1d0d2d25d433ffU, 0xff0bd90919131aeeU, 0x22ec070b0ffb0120U,
  0xf8dcf1040425f028U, 0x3012ef182be3fc13U, 0xe00df81fef2f21e3U, 0xf4230225c6e21105U,
  0xd6f5261c33f1fd0bU, 0xff0918150129e7e3U, 0xda3507352311ffeaU, 0x3a28dde7ff38d73bU,
  0xfedb25142214f3fdU, 0x1e21f518421e2a01U, 0xf60cf61521f42a14U, 0x121ff1816f51e1bU,
  0xe1f1312fed9e3fdU, 0x291502e7d838f4dcU, 0x27efffefe4c4fa12U, 0xd611f90fe1e015e2U,
  0xe52f2311ece623fbU, 0x6ddde07cc1820faU, 0xee0cc1c7c617cc55U, 0xd5051c2fc941ead8U,
  0x53f6a6c092bb0ee8U, 0xafbdc011bee52deeU, 0xed2cc9f6cac5e606U, 0xcfe229470519dab0U,
  0x3004cdd1d0e513e4U, 0xb2b3eefd08a03e29U, 0x12beb5732cbfa05U, 0xf0f21000d62e01e4U,
  0x15d0c13afcdc02e6U, 0xcaf32bcaf8e5141eU, 0xef3ec211d8490f2aU, 0xcec70f0fb83e0e0dU,
  0xe2e2d4ecf1a5f4c6U, 0xb91bf13053ef3016U, 0x2f2ae419ff282fecU, 0xe72cd5080647fe06U,
  0x1d21e03832b4d6faU, 0x14e5ee31230ff908U, 0xc20474407324f2bU, 0x5ffd021aefcfc30U,
  0x19f408445381f606U, 0x361d19d63e322722U, 0x32a5f5efdacee918U, 0x90fef24d8ae3f2b4U,
  0x2a31f3fceb930226U, 0xecfb25a941d32fcbU, 0x12f5ddf30c2f1312U, 0xe73fac06adecd2ceU,
  0xfa02083101a501f5U, 0xbc93ed92c37f0d5U, 0xd8012d0d160706f0U, 0xd630e8eeb21907f5U,
  0x3e1325f620c1c519U, 0xf621e6ddf2f51315U, 0x412210a22fbec01U, 0xfdbc3b7ed06e9faU,
  0x50de16e61c1cdbf7U, 0xf228eeea0c14d5dfU, 0xf1d8f9e831ed049fU, 0xf6dd25c0fd05dc13U,
  0x15e3f2ed2112c6e7U, 0x29f80f012df4d9eeU, 0x1f12191e39153998U, 0xef064fb1f81a11f2U,
  0x12f3d2e22420b5ffU, 0x4fb17211b08e505U, 0xdafa2013382919c9U, 0x182ddde12ec2ed2fU,
  0xefe01dd72e2af80fU, 0x623ed3d0cf5e00aU, 0xf6daeaf1290919bdU, 0x31e0e5b50cde1a29U,
  0x13da2508270fbf01U, 0x1923d537ef14e10bU, 0xeb1fe614f9031ee5U, 0x1aec3fcd2d1be020U,
  0x22f051d616e5ca00U, 0x1625ea09ed171ed8U, 0xd81f2e70bd70800U, 0xf6f7d2e611b4ef35U,
  0xb2e17ec380d0503U, 0x1c2122f70302c016U, 0x1ce2ec261a1a192cU, 0x2fecfae522f4fe02U,
  0x3bfafb1d4dde0ff7U, 0xf5f5ec16f02bf30aU, 0xa11e5442308feeeU, 0xfce220d8fb2e1af9U,
  0x40fb30f0fdfdeefdU, 0x2f90f001806f5f3U, 0x262936fe2e2508dcU, 0x6d326b981ed1c1fU,
  0xb7daca2b2898caa0U, 0xe4f3e5dd3bf40201U, 0x1aef1f071bed0eb7U, 0xef1117cdaff9eef6U,
  0xbbe620fc26e8f49cU, 0x20eb2d1217290c2aU, 0xf6ea1b4f2818fc03U, 0x11ef060c19e50315U,
  0x37d4fcf544db3801U, 0x10012beb133009f5U, 0xeb1504d9d6051c05U, 0xed308ee09f1e3faU,
  0xaed04fc34d3d4d2U, 0xedd3cdf318ebd8eaU, 0x314fc3309e00feeU, 0x9e714c3eb2f1de8U,
  0x2904f4cb3fb9e192U, 0xd61ffae62838f1fbU, 0xd720ff35301a272cU, 0x2b0d2df3cf1327eeU,
  0x37e7eb1923daddc3U, 0x2635e92633274709U, 0xbff5b4fccd2a39e8U, 0x23ac3ec10f629cbcU,
  0xf7b7edb5f2e7a88dU, 0xcffa955243d0b8fcU, 0xcd540c4ff4662213U, 0x20db49da0f46ffc1U,
  0x9bff6ddeb03c4acU, 0xc5e3f42d30d42607U, 0xf6271e6a394d48f8U, 0xfe0b06dedf174608U,
  0x3cb1f70c4ab10000U, 0xd8f60f3c2c00384bU, 0xf025fb083bed4ac1U, 0xff07e810221745f9U,
  0xf121be0ff312e2e5U, 0x41d26e0571200f2U, 0xf7e139ed3c00ffc5U, 0xeb1904d408ce1317U,
  0xa3d2951b0a0ef001U, 0x1d16011013fe0bedU, 0x32adfcc5f53e1198U, 0xe10514bbe7df4b41U,
  0xf0c098f8c31b0d13U, 0x9edcae3dafe1c1cU, 0xda0713c2361930d5U, 0x15e6d50a34b4ed3aU,
  0xfb0ae318284d0135U, 0x290c1922e825ef0dU, 0xe5a71899f015be02U, 0x410f5d61ee8ece5U,
  0xcddbb5cd0a02d7fcU, 0xda26e6f7e2defcd2U, 0xebb601becce9a9ebU, 0x2ad427ac1a1cfde2U,
  0x5a3aadb3014c204U, 0xd516f3fee303eee5U, 0xbf88e081ce01db09U, 0x2feafef619f91714U,
  0x4bb2a01ceb4ac9ecU, 0xc9f1cb29e7e4c33dU, 0xb086d3a21051c1d5U, 0x23f771ed15e0d4e9U,
  0x69cb9b82c5de0d6U, 0xd6c1d91cd5f88715U, 0xdfefd7ee0062f3beU, 0xee0c55b54226c1faU,
  0x485ba94d1548ddcU, 0xf0f6bc33e3e3ed1eU, 0xdca7f8d2fcecd0c7U, 0xf1e7d9d83dcf0722U,
  0x14d0490dea2c0d37U, 0xee2222f9c3ebf625U, 0xddc9010bf117ffd1U, 0x26e125b839d9cd1aU,
  0xe3a31af3290fbaffU, 0x1900e21e0f17030fU, 0xe2ebec28f24706bbU, 0x3b2901973c150613U,
  0xe298c90117ebb819U, 0xfc0f09ea29f7e420U, 0x24f117f402e91014U, 0xe6f3ced9f5b303d4U,
  0x353b4fd4e800f3f4U, 0x170c2706bf01eddaU, 0xfbb4fe14eef9c9f1U, 0xda050b08ea1015ddU,
  0x34fa6af00509f526U, 0xf106fed8071628f0U, 0xda15e6f1dfe0c7faU, 0x90a0b09ec27fdfdU,
  0x24da070bef030524U, 0x112b1ac10ffaeacdU, 0x257ff953124d42ecU, 0x12e50e0f2555dce0U,
  0xed311bfd1bc6edf1U, 0x29f40d2b2032fdfaU, 0xfb152025ded90a03U, 0xd2fde1f1142d1be4U,
  0x34181e10fbeefb22U, 0xfeeb12d6d9e2fbe5U, 0x1af0f90a0e030f3bU, 0xe6e5f2301b061eecU,
  0x3605430ad6fa2a08U, 0xd9f01fcaf8ca1ed6U, 0xc31b30ea23cc24eaU, 0xde6e0d00200f331U,
  0x7fbde01ff93ceb10U, 0x170af9e9d5f6fd0dU, 0x7f23cfa262813bdU, 0x3117e1a804f51e11U,
  0xeec6a6ed0b16980aU, 0x3af8e230ccf1b323U, 0x23c0f7e60d151bc2U, 0xe600e8b22826f4f0U,
  0x890fe305d036c3f8U, 0x4015dd0acb16b6e3U, 0xd9d8ff0c23ef0ccbU, 0x3fdff3fafedfe2f3U,
  0x3d335e8011db630U, 0x805dde80b31bf00U, 0xfa270f0403e30ce6U, 0x22f023dd1203e0e9U,
  0xef050bb715f2be0eU, 0x3bf81340e504fdd3U, 0x4101f0180313f104U, 0xd30529fdd13ad3bdU,
  0xaa1f1bcb1bc9f106U, 0x4f3ee1909f9dcd4U, 0xf082ceebe10bfbc8U, 0x2af6d8e51bbbc3f9U,
  0xbef9face05101204U, 0x2ecc004f212a9edU, 0x456e259f8452500U, 0x38003cdaf612b920U,
  0xf3f33dc237ed0208U, 0x1701d6253439e513U, 0x155b2c7610486a22U, 0xfe0512de105aeedbU,
  0x73e3ae942f3f9e8U, 0x33fb173d6a0e38eaU, 0x1806c2d8fdfc0a1dU, 0x5f714193f08f00fU,
  0xb82fff07e21112efU, 0xdbf8fef0d8031c10U, 0xc7f3bfdb17ebdf2aU, 0xf608ecf93512e7f4U,
  0xaacc14ffff330d0bU, 0xf210d811fd1200e8U, 0xc624d4d804fefc0cU, 0xfbf1f5f81407e8ebU,
  0xf9bddc1029fdecc3U, 0xf3f6dfe7f842e3fdU, 0xc3100ddc80a0d4eU, 0xe303e848f536ddeaU,
  0xf74d48dafd893604U, 0x10053009040c24c4U, 0xafe0d9e8e5eb4aU, 0x2f4f0321cd1d3c4U,
  0xf13c702119d72f24U, 0xddb801e4fb0206f1U, 0xd320c401bc31de46U, 0xcf0b5317bf35d7cbU,
  0xfa080310ffeb04f0U, 0xf3dcced654051009U, 0x4b4e2444e5452ff5U, 0x81090221aa45fffbU,
  0x215717e54bb247caU, 0x2599061249cdff31U, 0x350fd9c1efcdfe11U, 0xd20b1030d001e8c0U,
  0xe648391aec193e16U, 0xe58edce9079000f8U, 0xe1f7bac3b7f30a40U, 0xd6f9531dda0b0abbU,
  0xd23d40d40f090805U, 0x1b1f5083e98f3bfU, 0xf0c903e91315ffceU, 0x30f10e81e3100a2eU,
  0xa592dfecf3de19adU, 0x1731e0235410fe16U, 0xece51a36051b03e8U, 0x25e011f002dce7f3U,
  0xa30bcc0f141b2dadU, 0x54008303018efe1U, 0x3e6fbd3df191e02U, 0x19fbe027fbdbcfcbU,
  0x233cfebf6031fd0U, 0x2609d81adaf4ebceU, 0x6e0cd10ea0e12ebU, 0xee91102060cffd8U,
  0xf4d11c01f5131bf2U, 0x2220ef7e90e15c6U, 0xf5e91113fa02121bU, 0xce041122e83000eaU,
  0xdd3c5d8f2c310caU, 0xced7dfc91e0d2cceU, 0xf911d3f10df4110fU, 0x201ca23fe0ce10cU,
  0x2f00b01dc2191016U, 0xd5d7dee5e90134e4U, 0xcc14122ccb3dfe02U, 0x1a036a06026af7d7U,
  0x81526eb01e9e30aU, 0x2bf6e1421516e505U, 0x13fc1e06eb29f2fbU, 0xa6d706fab91bebe5U,
  0x600f40feff3faffU, 0xd6f63acb06f853e6U, 0x8171b0deeb2ececU, 0xc6f7c2def6192803U,
  0xeefc13eed6fef91aU, 0x4fb02bdfb013a10U, 0xf309f60de6f8108fU, 0xf9ff0cd7851513e3U,
  0xb1f34b0a2cb8e9b8U, 0xcaf9e8ec0fdaf3f5U, 0x42ee45251df3c0U, 0xf02c16e1a70c021eU,
  0xe2c50a15fceae7ffU, 0xe013fbe247203a25U, 0x1b5522382f3afda7U, 0xe43fffa11e0f0f38U,
  0xfbd2c533150ac60fU, 0x283248125d0d210cU, 0xf3fdec150727fbfaU, 0xcfd10a14de2d03faU,
  0xcf05be10d4f704d6U, 0xfaed1be9e5c00c00U, 0xfa140e11faecdb06U, 0xfef4e521c9f4fcfbU,
  0xefc3df1eefecfcf2U, 0xead807dff2cf15e3U, 0x11ed33131afafa0dU, 0x818f3093200013cU,
  0x33cca6fb2942d7dfU, 0x151ff4e30ef1fa23U, 0xf34b0bedf13012dcU, 0x2f15df3155ffdc7U,
  0xf6dfbeebe4f50bc5U, 0xeeed0e7f1cd00dfeU, 0x40c0b08f7fef7f2U, 0xe7f4f7f5fb2dffdeU,
  0x23f5a700c80608cfU, 0xefdd1f27c9a03a09U, 0x7fb251be6b0e5d6U, 0x16ebe0e60bdf2419U,
  0xd9ddb127f41ed7f3U, 0xdc1b03e2cbd9180bU, 0xf5f2fcf215062992U, 0x111c0bf5e85cff1cU,
  0xf3ea0c21e1e900f4U, 0x25e523ce21280e21U, 0x50900f9e9fa1ec2U, 0xe321ed0def032715U,
  0xc403e30ce5e41226U, 0xf8ec1cd3001e171eU, 0x24c230f1f3f01becU, 0xb0cea06deee0317U,
  0xa60ae72bfde1fde2U, 0x1211f3071013ddddU, 0x15faede9f8d9dc07U, 0x150bd0210d1320e2U,
  0xf612da1ff5020219U, 0xe7f925b6e713370bU, 0xfcc41ad0ea14e9daU, 0xe1faee1228e704e0U,
  0xe5071f17f42c17e2U, 0xfbff05d9f417d40bU, 0xeaffe5c3e125fbd7U, 0x15da31db09ec01f0U,
  0xc7e3d0091c34000cU, 0x3f701f80fe1bf13U, 0xd9bd21d70bb70036U, 0x1d1ce10632e8f124U,
  0x4dfc10dbf64df0e0U, 0xfbe8d02bc3fade0aU, 0xa2fbed810e17d802U, 0x4de125ea2616f3f2U,
  0xd6d4f7d7df1eb3f2U, 0x2418cc5f17e1b810U, 0x991eccf4dc42f1e4U, 0x1de04ebd221bc83dU,
  0xbfe0fca50e54cbe5U, 0xf025dd2b380ecdfdU, 0xfcb313fee5e1eafeU, 0x4d335e18e01df08U,
  0xdbc734eaafef1683U, 0x11dc7a8dcd0bbdcU, 0x9e00cf1fe37eab5U, 0x41dc10dbe4e7f830U,
  0x84e83cc81ee2d4ccU, 0xe215170d1243c10eU, 0x2fffeb46066f1d04U, 0xf6283a1ad63bd149U,
  0xb71145046f1edc15U, 0x4e4fcc38305ac2edU, 0x4c4e181b301f4eaU, 0xb1bb5fe4e5e5ceddU,
  0xbba8fdeb93eabdc3U, 0xf5eac8f1a5c2fbf4U, 0xd112e402caea132dU, 0x1ce06f14d31febf8U,
  0x17e918d1d11507f1U, 0x17f8cd1dfbeacc02U, 0x541ff0de1403e36U, 0x13c94336fe1a0502U,
  0x1b205d1ac3dfe6ebU, 0xefd2f7324d2813cfU, 0xe0e0b4c1cae289d6U, 0x2bd53f70b1401f3U,
  0xbff19cc2e424d4cbU, 0xef2baa5ae14ae408U, 0x31b3ed03f0ddcf49U, 0xc0c31a3d17092801U,
  0xe3522fec530fbf0U, 0xb9e42a2fa80318b1U, 0xf81622352deef63dU, 0xcbce201d1f58efd5U,
  0xce81148d3171f0dU, 0xe6272a0bda180915U, 0xdfda01f80f1e56c9U, 0xf919ef032bb02b54U,
  0x1defa22613ce0601U, 0x48f9dd3529c0d759U, 0x13db15f0271f4ce0U, 0x1014afd5dabcf709U,
  0xdb11bd2ee4130e0dU, 0x1ad0dc37d0d11603U, 0x290cd4ad1ebe20ffU, 0xca31e907eca3f3feU,
  0xd9200413a5d4ead4U, 0x2fa7cffbf99301f1U, 0xffc21d0cdf06eff4U, 0x3227f1e9ca0cfe2eU,
  0xe5df5df12ef13342U, 0x1527f7dc48fa1213U, 0xe8f71b2feeffcfebU, 0xc023e1dd5ea1a0aU,
  0x2ba2bededee0fd31U, 0xf4dde6dcff3d30e1U, 0x39e0f60f0f00fb01U, 0x3515de1617f01109U,
  0xd0d3faf0f210e80eU, 0x1cff20d61115e413U, 0x2531f1042e2420f4U, 0xd1cc4b10f743f6bcU,
  0xb221ac8bdca3807U, 0x7dfeceb05ac30deU, 0xff0428ec1f58f75bU, 0xb8f5301fe5330debU,
  0x80407099aacf542U, 0xeb030d647a2462dU, 0x3a23ed222bca0ffeU, 0xee1fbe33e1134b14U,
  0x914e02c8de74c32U, 0xcfac2481efba292eU, 0xbb8f3e80ebcc53eU, 0xc03024d1ce702d7U,
  0x136170d1f0b320aU, 0xdcfd712b51314d8U, 0xe14e1290aeab963U, 0xa9e1231681170d9aU,
  0x7a3a2800bfc434d3U, 0xccc7f514f8ea43f6U, 0x1a461ee714b31c1bU, 0xfe1bbb0be0084408U,
  0x1f093328f2c4ede6U, 0xe8d3f3031c94420aU, 0xefade1b600b9c634U, 0xe213ce1a35f3e5e6U,
  0x420de410cb26df14U, 0x12e3012e9ff8f7ebU, 0xce200cfc000b0a11U, 0xcff93013fc2614e7U,
  0x6b01dbfee0cbf7e1U, 0xc5ebd7e01fe833f6U, 0x243628e32523fbeaU, 0xfa1e00dfefee2cddU,
  0xf910f3ee12180727U, 0xe0e7371dfca61e2fU, 0x2b928da17d610e6U, 0x3623bbe849b013fcU,
  0xde7f42c2147eaf6U, 0x2fec07e3b3f2da28U, 0xf9affdff02ed01f8U, 0x3190eefdcc3f3f6U,
  0x22eed00803fae223U, 0xe523d9f8e2f71f26U, 0x230ef9f41d253111U, 0xe11bbf08f3f424f7U,
  0xd106e1fb1db9051dU, 0x140520f32a07f605U, 0x30f1fb2516151bfbU, 0x261fd12a0d041efaU,
  0xc71c1135e30d1312U, 0x18f82bfbf816daffU, 0xfaf2e2c6fce3ed20U, 0xf310f034f7102000U,
  0xbe2c09f5ffed1805U, 0xfbf518ebd5ebd1f3U, 0xe8bcc295bdc3e826U, 0xc50cf75bb7ef2bbaU,
  0xba3731dc9a0335deU, 0xeb92d604b7d1cbcaU, 0x4ece8c117fafdf8U, 0x1c0d0b1c28a92a1bU,
  0xea1ce403212c0c35U, 0xef24e611e204f62aU, 0x16c6d2bdfd19e4deU, 0x17fae3c923f9e3f2U,
  0xd19bcd82212041dU, 0x1cfb0b37031f0dfbU, 0xdbebcfc1cc0bf110U, 0xf0d5f4fdfdd8e7eaU,
  0xaaffcf050214f4d0U, 0xf8d0e2271b12fd2bU, 0xe581d89115e1d101U, 0x47f7f5f01cc3d9ffU,
  0x56deeb1ce826ef39U, 0xf3f1d621ac0caa1eU, 0xc3cac0a1d11dd408U, 0x3bf225d81d17c62dU,
  0xece1d5dcf314d8dbU, 0x12e8bb4418f0cff7U, 0xda9dca98c6e895e9U, 0xf4da26f9e4fad50bU,
  0xc5c7d3f2f40cc005U, 0xd00dc02ad1f4c7eeU, 0xdf13060bf901f4c9U, 0x1f20f7cfead1eef4U,
  0xf1e71d1e3df1ea19U, 0x2170af2e840ede1U, 0x120f0ceb22030dc8U, 0xf70b07f4d8d41befU,
  0xe9d8292c33f90d2eU, 0xf329fe070316e613U, 0x7e50b060ef3f6ceU, 0x1f3ecedefff7ef21U,
  0xafca30212ed7d103U, 0x111419f6222111f1U, 0x1af90ed707fae1fdU, 0xf50b1506e90aed03U,
  0x1fdefedfc19f92bU, 0xeb14d91d25ee04eaU, 0x16f50705e1fc1bf5U, 0xd50cfefdd0eefa00U,
  0x2630f20a1b0ae914U, 0xd1da1d1c290a2b04U, 0x1ad10ef80aed0e14U, 0xf912fafadeea15f3U,
  0xa301427e2e70bebU, 0xf106eef112fa08f6U, 0xad19dae5fa2bfbcfU, 0x4c0030f81e2ab507U,
  0xf5eb10f9de40e106U, 0xddf2d71433d4c109U, 0xc36a0815d4352bd7U, 0x26d953ed2629f3f1U,
  0x9c31dc31308d3d1U, 0xe7fce6737f14f6d6U, 0xf530e1ea121ef7d1U, 0x2211ae9314ad6fbU,
  0xf82b0cc91206f3beU, 0xe900ff5261ea0a07U, 0xcf323321afaf2eeU, 0xebd40ec9c6140cfdU,
  0xcaeadfe55dee09c1U, 0xdc0a0ad215151513U, 0xe3e32407e11ee1dcU, 0x41b0915c90e1eecU,
  0xf5feb50e68c9ef05U, 0xf9170f172329fcfaU, 0x2a0ce2eeece5f2f1U, 0xd404ee29f3f713e7U,
  0xf2d5f20108e41500U, 0xdbf9efd80e1c1a10U, 0x282815ffc946f5e0U, 0xc7fa16d3ce1709c1U,
  0xfedaf4ec0901019fU, 0xc5fff9f62df624e2U, 0x7151cfbdd29eb03U, 0xc808f70aba0b01cfU,
  0x1305db0f0ed436c3U, 0xbdfcf7012cfa12feU, 0x27090a1913250e15U, 0xd0fadcfbb9ef28fdU,
  0x1803f81201dd10d9U, 0xd7d421f51bec4bfbU, 0xb33ccd32de5130e0U, 0xe8ea78c00b68ede8U,
  0xc2e71bd6681ba79fU, 0xdfe4b73b7fedfaf6U, 0x1e4afd2ee75b1de2U, 0xd3f43a09be3a27a6U,
  0xc9dd130517e7dcb3U, 0xdbf7e90966d93429U, 0xf83bf8360e22e9efU, 0xd5fff003de2f1ebbU,
  0xfb171b180aaef1c2U, 0xbf61ed027c23d15U, 0xa121dedeabae41fU, 0xd90cdd3acaed1ce7U,
  0x13f7e425b50819f8U, 0xc3d311f1c2812027U, 0x221206e90ce315f9U, 0x713f900fb100617U,
  0xf9f3c00fe60508d2U, 0xe0de07fbe0a71a0cU, 0xef38fe0df4e301f3U, 0xc00141b23df011aU,
  0xee23fa0307260907U, 0x1210fd320614f024U, 0xdf821ef0fd701ebU, 0x311f21dd1e62d07U,
  0xf2e6150be20d0421U, 0xea0603ee14d8fb2eU, 0xd1f060802e0f8e7U, 0xf315f2f2e4db0b1dU,
  0xf2eecef207fde9f6U, 0xfd11091c17081533U, 0x18fd2418f70824e8U, 0xf1f5d80ee6f0f312U,
  0xe307141513eb1913U, 0x17f915041706022cU, 0xa0af6f0ecc324deU, 0x20140203fbfef7f9U,
  0xf3ec64ec16fdfdf4U, 0xf1fdf211ee60305U, 0x133f140e0519fae4U, 0xf8142b04e716e4ddU,
  0xaf824e5eee2e4f7U, 0x1b170537f7f8ed03U, 0x1717f80aec080a09U, 0xebf50b1ccd1318d9U,
  0x190b1609f8c80107U, 0xf0f00a0fe7e41f0aU, 0xeec50ce50af4e4d2U, 0xc0bf5141fab1a01U,
  0xccffe9fe28090009U, 0x18f222f2073a19e0U, 0xed81aefea19f709U, 0x1220b5e620c90ff9U,
  0xd0dc0f1110420f36U, 0x1e1904e6172a0722U, 0x16e31ae80de71bbfU, 0xde0ad3ea3ad42e15U,
  0xd7b0d2200436d32bU, 0xeb24e8d108202002U, 0x3704fd191bedfc05U, 0xc4e700edf109e4deU,
  0xf816d6f025cb05fbU, 0x1ed02303de1d250cU, 0xefcfd8fcedf4dd10U, 0x6fde829f9c60dd6U,
  0x402a2505bee025f9U, 0x1be730e7d00601f1U, 0xfea9ec0405e5ef41U, 0x914dc13f9baeef9U,
  0x14ed19e6042818f1U, 0xfb24e2ceeffa0deaU, 0xfa64dd3ae84409daU, 0xa105fcfce3cefecU,
  0x170ec7e22dc4e702U, 0xf0ea10387ff22432U, 0x123eeee012c33d9U, 0xcbe3410d1b481a11U,
  0x225faf60ef50af6U, 0xfec4f53a1efef228U, 0xe12ff002feec10ebU, 0x15e130291e45dd23U,
  0xf7042907ec0b23fcU, 0xcd1072229a4ee2cU, 0x230002fb2ed40bdeU, 0x8fc0e09265d2214U,
  0x30fb1f1122fd25f8U, 0xf0e700e209200de2U, 0x4a3d11032e18fac9U, 0xed052c122037e9f9U,
  0x5e0cce50f05f100U, 0x1f0c052de2f20e2eU, 0x4ee41bb6f52212d8U, 0xd3e621f90c021cc7U,
  0xc5230a0a0a0d3312U, 0x32dadafc0027a70bU, 0x2edff2c0130e030cU, 0x2f27e9eb16f30604U,
  0x10cdaed1329eafaU, 0xfbda20261be533U, 0x120e0aea191fede3U, 0x5ff23de44e0060aU,
  0x8a2424f20935faceU, 0xf50fcd19e42db737U, 0xf234eb07dd1017bdU, 0xfceb38d61efe1c01U,
  0xa104efc60d09ccd5U, 0xfcfb141536241a29U, 0xdfc3cdafe5dcb2feU, 0x32e7fed939b3d12eU,
  0x1afb0ac6e61fdce2U, 0x2a26bafee710d600U, 0xa9eaf5ccdd36f2c1U, 0x49f341f40c1dcd25U,
  0xbee21d9e1820a9bfU, 0x22f4b820132a8117U, 0xc22bfefbcf69ee0fU, 0x18cc78bd530cc40aU,
  0xdedd23a21a3893d4U, 0x2211fb7e6d0207e6U, 0xfd08ddd937d5070bU, 0x3922e6daf481261eU,
  0x1eba07230b380a0dU, 0xf02906e730de0bffU, 0xf2c009fc3b2e26b5U, 0x3003ccca01aff9eaU,
  0x9d43b1bddf1dd31U, 0xf609fc2cf6fd0c35U, 0xebc80b1b2e3400c7U, 0x120d0ecfb9cfe24U,
  0xecc4291eff4217f8U, 0x41ed01202ddf08U, 0xe10815141dd7cf04U, 0x17070e2afcbdec10U,
  0x3c0919e6d6e609e2U, 0xdce1f2e2f2c2d9deU, 0x35fa0ddf0a00d014U, 0xef23e8edf5182ce6U,
  0x4132431bd10b3cedU, 0xdfd3f215eddb3512U, 0xfefb0be5f7e0e20dU, 0x2a1ccf0ef6e4e019U,
  0x41fc4b30ce0cf71dU, 0xdfde13c6f1db18e8U, 0xf8250227f6124414U, 0x1020231b0825210fU,
  0xd823d6d9f2d7e532U, 0x15d4e83c21f20f2fU, 0x3662dd1d1e370e21U, 0xbdfb2b2fee1430c2U,
  0xfc1fe6fbdea83137U, 0xeab43ff619d437feU, 0x52f228de34aee512U, 0xa408e734e01a2b00U,
  0xe744f1249dcc3502U, 0x14d70eeadba92810U, 0xf2fbfefb020ffd1bU, 0x1402e31613f720f3U,
  0xde021af4fc02182eU, 0x5e82024d20ff418U, 0xe0200606c8e1d22aU, 0xd6190228ee1902f8U,
  0x61415fed404fcf1U, 0xeff7dafefce11e06U, 0xf753ec31d7070631U, 0xe1050415a452f6b4U,
  0x1808371eebdd1f12U, 0xf802eefc2da720faU, 0x3f4f7f308d6edcfU, 0xf810d91f1fe7ed22U,
  0xe1f9de0d21250827U, 0x200be5fef41bf224U, 0x7ee080a06f3f1e7U, 0xe307e612e1d307f5U,
  0xc1ad511211ff719U, 0x3d91c0beeeff525U, 0x32dfff8fd1a11f1U, 0xf12001fcb50207f6U,
  0xe0e0c7fd19cdf0e1U, 0xea0829db1ad12c12U, 0xead7fdd301b3c8fdU, 0x3212b70002811102U,
  0xd8e7dbfa101b0c0bU, 0xc11fee0c90a0e12U, 0xd9cb06f613d3e4f2U, 0xf71adcf6ddb2fbf1U,
  0xfacde2e6281ceb09U, 0x1721f1e9c12a0a07U, 0x15001316ead8cd0bU, 0x111c1f9b9c6f9dbU,
  0x16edde0fe8ba1d0dU, 0xe7ed1ae6f23412faU, 0xddf0fd12409d8c5U, 0xb2dd40927d23522U,
  0xda0d36f328271103U, 0xa2af200f3f9e2fcU, 0xebd5d5dd1bead603U, 0x208f0f34009191fU,
  0xfeb041c310de5f2U, 0xfbf407e1dcf70527U, 0xf5050ab5db13c935U, 0xe10325f81d24f7d4U,
  0x3708b505f5d81102U, 0xd1dce6ee1af10bf3U, 0xeeec09ce03e4cf0fU, 0xca1fe11ef7f229feU,
  0xe2fb37f7ce092019U, 0x11faefb7f1c8f914U, 0xe5ab0dd2f5e20016U, 0xc226de2bdff517c5U,
  0xf8fb2e09f70530f5U, 0xe2e305aaddf2d907U, 0x2cf2e2bd06d80024U, 0xe20dd635b208f5d9U,
  0x14f40c220bd01612U, 0xd7fd0fb3d5e719f4U, 0x4461e01f81041d5U, 0xf1f70910eccc03e9U,
  0x1731dc0b0eee02e1U, 0xf6fe140710fef218U, 0xeb9aebd9f0c1f325U, 0xf3e3f82e04e6f7e0U,
  0x2a3ffee606d91612U, 0xfb2302b5d1fdf701U, 0x4f7dcc3e7e6113dU, 0xa2f007219c0ddec3U,
  0x1a220307f8810e03U, 0x3d41ac6c41bf4dcU, 0xffffffdfffffffedU, 0x2000000002U,
  0x25ffffffcaU, 0xfffffff6ffffffe7U, 0xfffffffe0000004aU, 0xfffffff4fffffff8U,
  0xffffffb60000000fU, 0x1d0000000fU, 0x3e00000022U, 0x2100000002U,
  0xffffffff00000000U, 0x28fffffffeU, 0x35ffffffecU, 0xfffffff200000006U,
  0x6ffffffc5U, 0x50000000bU, 0xfffffffd00000023U, 0x200000038U,
  0x100000018U, 0x2300000019U, 0x2fffffff4U, 0xffffffcafffffff8U,
  0xfffffff8ffffffdcU, 0xffffffd9ffffffd0U, 0x1f00000007U, 0x700000026U,
  0xffffffd400000029U, 0x120000002cU, 0x12ffffffe4U, 0x2fffffffeU,
  0xfffffff600000002U, 0xe00000017U, 0xbfaf515af3ef1d4U, 0xb2c13cb8ddcbefceU,
  0xfc2d0ce8eb0ad012U, 0xe6111124d302ce17U, 0x2e1df5d7f5eaef81U, 0xd34d2190dcda4d2U,
  0xdfc6f115cf1739e0U, 0xca8ff9c22f0f020fU, 0x2700eeca9e09d931U, 0xe4be08cc1fd632caU,
  0x44370df310d3d8c3U, 0xf4c5161ee21deb0eU, 0x23e11900ccd0f68bU, 0xc434bb2ef9dbab98U,
  0xebc03f5e1ea2dc9U, 0x88afdc539032834U, 0xdffc0de40930192fU, 0x3e617091d04ef92U,
  0x381c2eda02f3cdebU, 0x2f0d1e19d1fcf5e7U, 0xbe02eeccc8d733fdU, 0xffff19dcd8eceef9U,
  0x1ae301af3902098aU, 0x2d5e800ecec1023U, 0xf2e2ef3be11af94cU, 0x1fbe1f12ef122b9eU,
  0x230cdcfc4b02fd13U, 0x4441122e8e20d0fU, 0xdadbf5e7bd1d2ccbU, 0xcbc11d26eb15e7feU,
  0xbc11418f1d412f9U, 0xcaf20a15dac902ddU, 0x6e44fd58cf66263U, 0xd2de0d1400bb2bcdU,
  0x33d9fcd5f000f721U, 0xf93ec4c209060023U, 0xef2fb9eacb2eed0eU, 0xcbf013e7cadc230cU,
  0x570adac042ca45bcU, 0xf0021ec7100e4ff1U, 0x27d9f8f081fe3917U, 0x1cb0beac70de217U,
  0xf1fd031bd9fdd5d9U, 0x600d2e9eefb0cb8U, 0xfb27b937cb071e1dU, 0x9e0dd1e9dc261aacU,
  0x62a01dd54fcdda4U, 0xf64b2ca7bed8042bU, 0x2afb30671f161e1dU, 0x606f2a001a0ce9f8U,
  0xd2f43d3a3d563709U, 0xc115ffe0b5e7fbdeU, 0xcd8150a10c81ec1U, 0x10067fe8223abf36U,
  0x72f82abc0d10f7d8U, 0xd0fc2ff2ddecdfe7U, 0x16dfd8471ee62719U, 0x263c1bf0f6505006U,
  0xa4cbe83f391c21efU, 0xd6eb48e0eac53ed6U, 0x3e111fd62f0808e9U, 0xe3146020e462d4e5U,
  0x23f801f70c0df5ebU, 0xc6c412f800bae0ecU, 0x1e607cf27a3c026U, 0xfb181a45f45befcaU,
  0xff30f2fef4f02eceU, 0xe8f92210eafc2ab1U, 0x5301e1ab380ce6a6U, 0x22d53403f5cecfebU,
  0x2a0bf9d73af40f1cU, 0xda0ae3d018839821U, 0x1de3dc7ef7fc0af3U, 0x491de5111e1efc0cU,
  0xecd31d1bd011f4f3U, 0xa0b2410d0f71bdeU, 0xfc0defbae31b1942U, 0x81041203a8351cc8U,
  0xe8ecabc204f3981eU, 0x133cbd10cbecf00cU, 0xee2e91005f5f5fdU, 0x15f213e8280820f9U,
  0x1e10f807ab15db01U, 0xf6f9ee18acd3f42fU, 0x1df6eddcd8df1f17U, 0x8d1f5fbf8f6f8f4U,
  0xd2dedaf1fa06dcb1U, 0xe9221018e42a00f8U, 0xe6dfe044f72cdd21U, 0x28ef26ff03f7dac9U,
  0x1ee1f5e9f162101dU, 0xbfdfe290d4be328U, 0xf0150145d2cdf6e8U, 0xf80f3521f9cbf6efU,
  0x7c70af2d4042626U, 0x1b14d426f51104e2U, 0xd914fe04eede2345U, 0x2c0b24ad0a9f1c9U,
  0x2f26db9127ea1118U, 0x33310607f4d4e5ffU, 0xf1fa1926a6273628U, 0xf8cd16e5e037159eU,
  0x2d151df06f11e4e1U, 0xf03fc001def311c8U, 0xf2ea5ad5cafcfdc4U, 0x281dd70be8ecd90fU,
  0xdb033ca6ee37c4f5U, 0xd1ddeccdf0f33a15U, 0x3e3bfd1cea39fff6U, 0xc0d6041d0223f4a0U,
  0x2625202726e7111bU, 0x35411a05b7e42ee7U, 0xf82b20f6ef02deb7U, 0x29e0a5edcedfcd02U,
  0xe419cedc290ac3d7U, 0x2c006ed39034cbeU, 0xe528fae210d5e30cU, 0xe0e50d8194e7100cU,
  0x3d04e9dd1b0013c3U, 0x362c0ce9d10222e9U, 0x2deda2bda13b4e8U, 0x2df8d312e60ade14U,
  0x1816fdf00d2bf806U, 0x1413b7da01ff0d0aU, 0xfb00f912c20ce80fU, 0xc5f9ebf581f90af1U,
  0xfef0ec08d5fbe915U, 0x415e3e624d203f3U, 0xede80ee043f6dc0eU, 0xec0d11060d120f0aU,
  0xcd1bd30715e7e2f2U, 0xd4f1f422dac40ee3U, 0x20f126de430bfe13U, 0xdac81d10ee1cd93aU,
  0x1204d304100ef003U, 0xf1bdc05f5110b03U, 0x20cee02f923ebf2U, 0xf30209e8dcdc0d20U,
  0xfe9ec1af5ed1113U, 0xf0f80413ccf5f9f9U, 0x240b03e21eecf7fbU, 0xf8d217f424f006edU,
  0xed0a05e3f00d07deU, 0x3e9140f04fe0421U, 0x1301ff25e9cdf712U, 0x2ac9d726e4dfe142U,
  0xf9012801f0d7d5U, 0x1a0cc60a1dc526dbU, 0xbcd918f62fe91424U, 0x3cd90d13201de136U,
  0xbc37df00eaf6bdb7U, 0xf6420ae4fbf6adfdU, 0xe8fdbd1300f20532U, 0x15c6d3f7e5c8e1d4U,
  0x22f0ddfdf2021a10U, 0x14dc12271c1e08e4U, 0xf7e1f0e9e6e1e5f8U, 0x30e7eac0feea1f1fU,
  0xfdcdd820c6bd12f2U, 0xc5cb0e3312e80dfbU, 0xd0fffa1bb2182beaU, 0xd61013c4100ccf81U,
  0x2a21cbca012cb8dbU, 0xfe3ce0163d38c70cU, 0x4a30093bfd01241cU, 0xf20dd12f0805f225U,
  0xeaf1d554b2c4dcdeU, 0xfe15f2d0d7c10d1eU, 0xfec4096548dcdee1U, 0x212331dc06343a7eU,
  0xf902d626cfff1f49U, 0xf9ee2232baf85701U, 0xcb01ac20f3ff0d51U, 0x211439f2f9f4eff2U,
  0xfe25ec284f0e0f31U, 0xfa3c19dc42ecd1d9U, 0x3a0933113db48b48U, 0xf244dd8118022bedU,
  0xd014ecd4e4d8d641U, 0xc5282e09c4d9241fU, 0x9e0901a7ecf735f7U, 0xfb1501d713f7b41dU,
  0x10fde8d3082dddc4U, 0x9d42c61cdf2e30dU, 0x71fe65c3cbdb367U, 0xc44bf7e1010dba42U,
  0x19fbcffbb5ae242bU, 0xf5c5fe2525c2e417U, 0xcdbfc4ae120c40ebU, 0xedcd55c139a3e5d9U,
  0xf59fec1d57d10135U, 0xae16db301acdc62fU, 0xfef71b3c4102e82dU, 0x295f0a30ec1df328U,
  0x28df23f5e823d10fU, 0xcfa10f7df083dd6U, 0xd41700fb1903e0d8U, 0xfbcf7ffc1b371808U,
  0xcc5fad75054d4e7U, 0x2f07002c2616eaf7U, 0xf5f5eb4320dee3edU, 0x34930e4e7080ed0U,
  0x311ae402bf10811U, 0x1a055242f8ba1d26U, 0xd5ce20f9fe2f1a09U, 0x1bf7630e300bec04U,
  0x26bdd1dd1c5b1d06U, 0x1aded835e3d5d8dbU, 0x5f60209fd87e6f1U, 0x1010f0efec23c63cU,
  0x32e39f86f9f6fe1aU, 0x8df3c9cc2fde6c5U, 0x1ed5d7d0c52ef81fU, 0xe9c91bafb5d9fcbfU,
  0x60e6fddffac7fa2aU, 0xf019ce30078b08b8U, 0xe6c8b42351e4d6beU, 0xf7dff3f30720b440U,
  0xf0c2fffae9e0e3f1U, 0x10edfafd1c0908e8U, 0xc222170c2922f730U, 0xf014d7d2813024c5U,
  0xd8f3e6e4d01dcc33U, 0x1007e5d600f49e0fU, 0x3e9dbfd4e31deeeU, 0x1f0ff321babaed1dU,
  0x3e61dedfbc926c2U, 0xe1c0f60328cdedddU, 0xfc272ed0eefd0f10U, 0xccb91ce0f6e0e1f4U,
  0x1be41bbe1716c8dfU, 0x1c1a122aaa18c72aU, 0xed05d529e9261829U, 0xef29202bd5a78fafU,
  0x511c21f6e3fd223eU, 0xdcc418efffb72022U, 0xdce01dd2e51c01ffU, 0x1af1ffe210e6f1daU,
  0xe9ef0ce8fbfcc3a7U, 0xe9fbf701c521bee5U, 0x1d1011023a163ef4U, 0xfcf9d9400edfc2daU,
  0xec221fd73b26b71eU, 0xd092fecf4f3f426U, 0xcb33d6de28d1eb18U, 0x1636cf0600b108efU,
  0xf0234e5fff115deU, 0xf4022fd7ec138124U, 0x3b1a13670ce723ffU, 0x140e02120ff6ce02U,
  0xbd51e3e4fcedba08U, 0xc3fa32262a21e0dbU, 0x2429190807f614c9U, 0x19ebd3d938feef3cU,
  0xf8c3f4e7f0d9fcb0U, 0x2edee8080408a8e3U, 0x3601fb0b14312f0bU, 0xd09281f0cfc3ca9U,
  0xb21a3ff517e6d50dU, 0xe5f9f0dcf6e2e232U, 0x21a31ef04b9fbe9U, 0xfc00f33f171adbecU,
  0xf6f62421260deeaaU, 0x3d1b36e4234fe2e4U, 0xdfd824fc38c7a11bU, 0xf3424f32f31f2c3U,
  0xd6e9da4311e6303cU, 0xd7fd41dadcbc3812U, 0xb1121b05dfad41b0U, 0xf4bb5807f5028117U,
  0x3da7fff63946d3e6U, 0x9bf1044235ce0d26U, 0xd111e9df379da048U, 0x35f0a14f204d4daU,
  0xbc0bba3bbebd2d33U, 0x2bf3482ef1e650e3U, 0xeef2ebb6001700a0U, 0xab912f71006ad25U,
  0x34e0f2dc5e480cdeU, 0xd4e8211b1eaeec11U, 0xb9acf10031cde72cU, 0x2725ce25bcf8dce3U,
  0xdb01dafda8f223d1U, 0xf7f540aff2dc32f4U, 0x9fff4d9d720b8d2U, 0xf78736f9d701b4afU,
  0x2ff3f7fe08de06e5U, 0x8ee7c105b99d1104U, 0xc1fbc720f70827e5U, 0xb1ead7b4dae281dfU,
  0xed4f3c0437191224U, 0x2a3df2f52f41ef05U, 0xe8ea77290ec9bc3eU, 0xd418a4100b95f9fdU,
  0xdccfe4daff250bf5U, 0x38392ade2603dde5U, 0xe2e70918fe20e212U, 0xcec4b3c0060befd6U,
  0xe833eaf923402525U, 0xb31dbed101f9c15U, 0xf93308d0edf598feU, 0xc3d7b6f1f8ebfd18U,
  0xb5d5f2c68cc5bf08U, 0x353817bceeecf6deU, 0xdae2083fd08723e5U, 0x270103cde80ad809U,
  0xe4fdd9aacb0d3817U, 0x1134d3be062ce7d9U, 0xe8e7e3f6da22b92bU, 0xd71d02e1d4c9dfe0U,
  0x15f530e9abaa0808U, 0x4fb1bedfbb3cbcdU, 0x23043d2fc755fb47U, 0x16991bf186cbae9aU,
  0x3094d38914529a15U, 0x33eb81c9ec1f222aU, 0xc05abb99c7f9b9daU, 0xbef7e5c60dac0eb5U,
  0xdcebfefe8e142004U, 0xbbd81502f3d3f10eU, 0xe6e5da8ecd14cd72U, 0xe11e1e683846f00eU,
  0xe4edde292d5dd524U, 0x1831ff482fadeed8U, 0x4841e4acc8213646U, 0xdfd41ba52fd3fa0eU,
  0x3d26002416092816U, 0xd7ffb0db0508c4c2U, 0xda1bfbed4feab9bbU, 0xe544428918ab0ec5U,
  0x7b8ae3af0d6dce9U, 0xf3c1bf57bbafcecdU, 0x70bc5ab30a062cdbU, 0x70dfe9e08b1c119aU,
  0x17c5fbaa422cb210U, 0xe0fefe3e424b1d6dU, 0xf2e61c202629370cU, 0xfce7f221f1e5b2f4U,
  0xe90319f1d3edf481U, 0xd3b4e1070e05e6f2U, 0x21f3da2f290dfb22U, 0x7f31cf9f0edee1eU,
  0x10e5c01ddef5182fU, 0xcec9ddebd4eff7aeU, 0xfcdbd3f8eaf140e0U, 0x17f7f81b0c18bf22U,
  0xf21a37e5def6fba2U, 0xeabde8e12c241ad1U, 0xe9fab83518180617U, 0xe7ddf7e8cffff90dU,
  0x11f408c4e51ceef8U, 0xf00aecf1ffe2fdaaU, 0xf0faf231072420b6U, 0xf5fb0afb1103ff10U,
  0xcfa70121dc1dd2ddU, 0x3f7071af9fb2ed3U, 0xe613e5f501ece524U, 0xd706cd06af01171bU,
  0xfcdf11b9ef0de4eaU, 0x1d161ee2cd0ed00aU, 0xcb10f64ffc0b0ff2U, 0x1ef0ede9cad52dd7U,
  0xf0e9c1cee7d21201U, 0xc2edeab3aad2d8f6U, 0x42e3241b01088106U, 0x3bbbf540ff0e23e2U,
  0xf1d6a1021f0c1efeU, 0xe4ca9f2a14c511e5U, 0xf0d3d70d1212e509U, 0x3d02d043d6111c0cU,
  0xf6e7fef40bd0e104U, 0xe1e415be8ad43eefU, 0x300bd4fce1ced81aU, 0xddd2f8ffd610fa1fU,
  0xbf5920edb14e2e6U, 0xeefdb61502ea04e4U, 0x37e54dfe441ac859U, 0x10f1f03e1904e909U,
  0xef07041c03f8cd04U, 0xce0e3c0d90e829ffU, 0xc7f8e704f3db4f29U, 0xe90e0ad0e9f21532U,
  0xfe03a7a90f239ebbU, 0xfa2ee9f2010cffd6U, 0x260c2ee042cce1dcU, 0xe07ff71e05eac2f5U,
  0xf1dd1dfbf72f0afeU, 0xfa1739fc15d229ecU, 0xfbc4e32bd5f0d3U, 0xf51e48e00e0c0437U,
  0xd5ab02b6120116b3U, 0xebe0f21613d4c11dU, 0xccd60c8852f610f0U, 0x2190f161cf5b9e8U,
  0xcdf09edfe1fa2b21U, 0xddcc2a16ffd362edU, 0x10010fa42071edcU, 0x30f3170230fca333U,
  0xfebcf2d34badf05U, 0xc1cc0837e3edeaf5U, 0xe2e7f0de2205fde2U, 0xff44ccd2eb26b6beU,
  0x171ed9c9abffeadeU, 0x14eccedde4c01cf7U, 0x14ebccf93231e08dU, 0xdd632401a02b3e2U,
  0xf4bdcd2110ace222U, 0xa3dacadffbe7ffcdU, 0xfcc8f2cabd112c0aU, 0xa40de8a7f4cfc30aU,
  0x267604f8c5ec16fbU, 0x3f1d1f2ff240412U, 0x7f05f8fbd9190ae9U, 0xe611f62c04fca3abU,
  0xfdb6d854fce74e1aU, 0xacb14deaf0c01d5U, 0xf3deb9daa03643d3U, 0xefd7eba3e0ee0ce1U,
  0x716f9f50af5dab0U, 0x15ec3cd1e5fe1425U, 0x5bdbd8e994cfdeccU, 0xb2e4ee01bbf6b5a0U,
  0xf0ed0a79df1d3cd6U, 0xe1d40cddf6e43efeU, 0x18dd59cf62fd0927U, 0xf24e13e6f7badae3U,
  0xebd218fa37f4edcdU, 0x14080e29cd060df1U, 0xc9fcecc9cfcc20e4U, 0xc5f72ee0fff21806U,
  0xf1bc16aa75f0de00U, 0xe0be1d40fee1e2f3U, 0xd9fddc1509d50be5U, 0x21fc4eefe0cda0fU,
  0xd9f9ebe41e1b1301U, 0xc15d9f711fad5f8U, 0x1610d2fc1df8e6fbU, 0x192303ef09f9141cU,
  0xfae3fa07d4d2102bU, 0x19fc1914160107c7U, 0xe00401811bc30df5U, 0xe22be6ef120d0a1dU,
  0xd0f8dbf708f1f6f3U, 0xf4fe0bf41ce40703U, 0x1beae81a1404dcfdU, 0x30141ed9270ffa2bU,
  0xf70904f6d9be1205U, 0xafffb13f9f7f1cdU, 0xff110ee9de15f0f3U, 0xecfb0af8e4080402U,
  0xebf20113f1ebf302U, 0xda05dafaeecbf8efU, 0x5ee040df107f2e3U, 0xdde60e21f708f2feU,
  0xc050715ed0817efU, 0xf50012f3e60423eeU, 0xbcede6e381d7931dU, 0xb4cf0800c712f706U,
  0x1714d4f22c2d0104U, 0x1518bcf2e842c418U, 0xf120e71eedf4e4e9U, 0xb842e503ccfae5c7U,
  0xe5e3d90bf1141b20U, 0x17d713aa32e4e9e8U, 0xdef603dbc32b980aU, 0xaf24340ff82beddcU,
  0x20d9f027143cdf3dU, 0x2e30d226c011d314U, 0xff0e03241fe813f0U, 0xf1efd4d9f40d1202U,
  0xb91814bfe82ec836U, 0x28d1d6d52ff4080bU, 0x3506e4200f199b13U, 0xc02512d3f4fe2f24U,
  0xcae9ddd31ce93eU, 0x292cc521e4edc515U, 0x24ea00fad7dd280fU, 0x3719e636d71cf11fU,
  0xd6d6dcc6cb321aeeU, 0xb0322f734df31ddU, 0xabe6d6fa28e40ee4U, 0x4517bb24e01c0be0U,
  0xda2de88b330019fdU, 0xf4e9d9e60b0506d3U, 0xbf5f22ce30eaf13U, 0x7dddd0f2a03ede3U,
  0xd19b6f201ef1cfbU, 0x13e3b8f1db9d27abU, 0xfcd711b53e27d4f2U, 0x2ff1a325283ecb10U,
  0xdfad5c500ecbd09U, 0xcfedf1d8ca313dddU, 0x3408d4efecd91115U, 0xe9c7230bdfece061U,
  0xd50be20c1ce32826U, 0xdcdfd31af2b71ec9U, 0x36fd56e97f08a408U, 0x29ecc7f03046fafdU,
  0xe70edee5ebe1fb3eU, 0xfa16e6b7cdfd4bd9U, 0xf2e0a525fe082f25U, 0x610e4df090e2a6bU,
  0x24dac301431d2006U, 0x1117c92af9180621U, 0xbd8801338fe8f3dcU, 0xe8e99e2e2427e710U,
  0xeed1fed42c5dc2eaU, 0x2747d5f20e2201b9U, 0x2cdff2eaadffeb30U, 0xc32d05b48111ec05U,
  0xdf25c9f7e1abea1bU, 0x4d07bb0506bfb6c5U, 0xf5040b0a37f2d5c4U, 0xc3d418f82e07322bU,
  0xbbddba0fd8cfe2cfU, 0xd3dbd5f1ade4e9d8U, 0x2de37cd33d1f8f3U, 0xb3f91e02b6f8b41dU,
  0x22cfedbd420d5f3U, 0xed0511efec1a190eU, 0x2806c228b806ecf2U, 0xe7130193e6eb23cbU,
  0x2da2002dc1d9db58U, 0x351bea0cc7f2ee2fU, 0xf81711ef01bc30f9U, 0xdb5e1303eadf10efU,
